{
  "version": "1.0",
  "truncation": null,
  "padding": null,
  "added_tokens": [
    {
      "id": 0,
      "content": "<|endoftext|>",
      "single_word": false,
      "lstrip": false,
      "rstrip": false,
      "normalized": false,
      "special": true
    }
  ],
  "normalizer": null,
  "pre_tokenizer": {
    "type": "ByteLevel",
    "add_prefix_space": false,
    "trim_offsets": true,
    "use_regex": true
  },
  "post_processor": null,
  "decoder": {
    "type": "ByteLevel",
    "add_prefix_space": true,
    "trim_offsets": true,
    "use_regex": true
  },
  "model": {
    "type": "BPE",
    "dropout": null,
    "unk_token": null,
    "continuing_subword_prefix": null,
    "end_of_word_suffix": null,
    "fuse_unk": false,
    "byte_fallback": false,
    "ignore_merges": false,
    "vocab": {
      "<|endoftext|>": 0,
      "!": 1,
      "\"": 2,
      "#": 3,
      "$": 4,
      "%": 5,
      "&": 6,
      "'": 7,
      "(": 8,
      ")": 9,
      "*": 10,
      "+": 11,
      ",": 12,
      "-": 13,
      ".": 14,
      "/": 15,
      "0": 16,
      "1": 17,
      "2": 18,
      "3": 19,
      "4": 20,
      "5": 21,
      "6": 22,
      "7": 23,
      "8": 24,
      "9": 25,
      ":": 26,
      ";": 27,
      "<": 28,
      "=": 29,
      ">": 30,
      "?": 31,
      "@": 32,
      "A": 33,
      "B": 34,
      "C": 35,
      "D": 36,
      "E": 37,
      "F": 38,
      "G": 39,
      "H": 40,
      "I": 41,
      "J": 42,
      "K": 43,
      "L": 44,
      "M": 45,
      "N": 46,
      "O": 47,
      "P": 48,
      "Q": 49,
      "R": 50,
      "S": 51,
      "T": 52,
      "U": 53,
      "V": 54,
      "W": 55,
      "X": 56,
      "Y": 57,
      "Z": 58,
      "[": 59,
      "\\": 60,
      "]": 61,
      "^": 62,
      "_": 63,
      "`": 64,
      "a": 65,
      "b": 66,
      "c": 67,
      "d": 68,
      "e": 69,
      "f": 70,
      "g": 71,
      "h": 72,
      "i": 73,
      "j": 74,
      "k": 75,
      "l": 76,
      "m": 77,
      "n": 78,
      "o": 79,
      "p": 80,
      "q": 81,
      "r": 82,
      "s": 83,
      "t": 84,
      "u": 85,
      "v": 86,
      "w": 87,
      "x": 88,
      "y": 89,
      "z": 90,
      "|": 91,
      "}": 92,
      "~": 93,
      "¡": 94,
      "¢": 95,
      "£": 96,
      "¤": 97,
      "¥": 98,
      "¦": 99,
      "§": 100,
      "¨": 101,
      "©": 102,
      "ª": 103,
      "«": 104,
      "¬": 105,
      "®": 106,
      "¯": 107,
      "°": 108,
      "±": 109,
      "²": 110,
      "³": 111,
      "´": 112,
      "µ": 113,
      "¶": 114,
      "·": 115,
      "¸": 116,
      "¹": 117,
      "º": 118,
      "»": 119,
      "¼": 120,
      "½": 121,
      "¾": 122,
      "¿": 123,
      "Â": 124,
      "Ã": 125,
      "Ä": 126,
      "Å": 127,
      "Æ": 128,
      "Ç": 129,
      "É": 130,
      "Ê": 131,
      "Ë": 132,
      "Ì": 133,
      "Î": 134,
      "Ï": 135,
      "Ð": 136,
      "Ñ": 137,
      "Ò": 138,
      "Ô": 139,
      "Ö": 140,
      "×": 141,
      "Ø": 142,
      "Ù": 143,
      "Ú": 144,
      "Û": 145,
      "à": 146,
      "á": 147,
      "â": 148,
      "ã": 149,
      "ä": 150,
      "å": 151,
      "æ": 152,
      "ç": 153,
      "è": 154,
      "é": 155,
      "ê": 156,
      "ë": 157,
      "ì": 158,
      "í": 159,
      "ï": 160,
      "ð": 161,
      "Ċ": 162,
      "Ġ": 163,
      "Ģ": 164,
      "ģ": 165,
      "Ĥ": 166,
      "ĥ": 167,
      "Ħ": 168,
      "ħ": 169,
      "Ĩ": 170,
      "ĩ": 171,
      "Ī": 172,
      "ī": 173,
      "Ĭ": 174,
      "ĭ": 175,
      "Į": 176,
      "į": 177,
      "İ": 178,
      "ı": 179,
      "Ĳ": 180,
      "ĳ": 181,
      "Ĵ": 182,
      "ĵ": 183,
      "Ķ": 184,
      "ķ": 185,
      "ĸ": 186,
      "Ĺ": 187,
      "ĺ": 188,
      "Ļ": 189,
      "ļ": 190,
      "Ľ": 191,
      "ľ": 192,
      "Ŀ": 193,
      "ŀ": 194,
      "Ł": 195,
      "ł": 196,
      "Ń": 197,
      "Ġt": 198,
      "he": 199,
      "Ġa": 200,
      "in": 201,
      "Ġs": 202,
      "Ġthe": 203,
      "re": 204,
      "Ġw": 205,
      "nd": 206,
      "Ġo": 207,
      "er": 208,
      "ed": 209,
      "Ġb": 210,
      "it": 211,
      "Ġc": 212,
      "at": 213,
      "Ġf": 214,
      "Ġto": 215,
      "Ġand": 216,
      "ou": 217,
      "on": 218,
      "is": 219,
      "Ġp": 220,
      "ing": 221,
      "en": 222,
      "or": 223,
      "Ġh": 224,
      "Ġm": 225,
      "es": 226,
      "an": 227,
      "Ġd": 228,
      "as": 229,
      "ar": 230,
      "al": 231,
      "Ġl": 232,
      "om": 233,
      "Ġin": 234,
      "Ġof": 235,
      "il": 236,
      "Ġth": 237,
      "ic": 238,
      "ĠT": 239,
      "Ġg": 240,
      "ay": 241,
      "Ġn": 242,
      "le": 243,
      "Ġhe": 244,
      "id": 245,
      "ĠS": 246,
      "ion": 247,
      "et": 248,
      "Ġe": 249,
      "ve": 250,
      "ut": 251,
      "Ġwas": 252,
      "ot": 253,
      "Ġy": 254,
      "im": 255,
      "ent": 256,
      "ad": 257,
      "ĠI": 258,
      "ow": 259,
      "Ġre": 260,
      "ac": 261,
      "st": 262,
      "ly": 263,
      "Ġbe": 264,
      "âĢ": 265,
      "Ġit": 266,
      "Ġyou": 267,
      "Ġon": 268,
      "ver": 269,
      "ro": 270,
      "ig": 271,
      "Ġu": 272,
      "am": 273,
      "ir": 274,
      "Ġfor": 275,
      "ĠThe": 276,
      "el": 277,
      "Ġis": 278,
      "Ġst": 279,
      "ith": 280,
      "Ġthat": 281,
      "ĠH": 282,
      "Ġwith": 283,
      "ur": 284,
      "ol": 285,
      "ĠA": 286,
      "Ġha": 287,
      "ec": 288,
      "Ġsa": 289,
      "se": 290,
      "ke": 291,
      "oo": 292,
      "ĠC": 293,
      "ĠB": 294,
      "ĠM": 295,
      "pp": 296,
      "ld": 297,
      "ce": 298,
      "Ġal": 299,
      "ri": 300,
      "Ġwe": 301,
      "Ġwh": 302,
      "Ġan": 303,
      "Ġas": 304,
      "ul": 305,
      "ation": 306,
      "ĠL": 307,
      "Ġher": 308,
      "ter": 309,
      "ch": 310,
      "Ġr": 311,
      "ill": 312,
      "her": 313,
      "un": 314,
      "ant": 315,
      "Ġare": 316,
      "ĠHe": 317,
      "âĢĻ": 318,
      "if": 319,
      "ore": 320,
      "Ġpl": 321,
      "ĠShe": 322,
      "Ġat": 323,
      "ht": 324,
      "ĠP": 325,
      "ag": 326,
      "Ġso": 327,
      "ĠW": 328,
      "Ġne": 329,
      "Ġ\"": 330,
      "Ġhis": 331,
      "Ġsh": 332,
      "Ġsaid": 333,
      "ome": 334,
      "ers": 335,
      "Ġnot": 336,
      "ould": 337,
      "ain": 338,
      "'s": 339,
      "ct": 340,
      "very": 341,
      "ked": 342,
      "ily": 343,
      "Ġup": 344,
      "rom": 345,
      "The": 346,
      "em": 347,
      "ĠThey": 348,
      "ĠD": 349,
      "ab": 350,
      "ess": 351,
      "Ġshe": 352,
      "Ġex": 353,
      "Ġor": 354,
      "Ġthey": 355,
      "um": 356,
      "Ġse": 357,
      "ate": 358,
      "est": 359,
      "Ġhave": 360,
      "us": 361,
      "ĠF": 362,
      "Ġpro": 363,
      "Ġdo": 364,
      "art": 365,
      "all": 366,
      "rou": 367,
      "op": 368,
      "On": 369,
      "Ġli": 370,
      "Ġcon": 371,
      "ure": 372,
      "Ġk": 373,
      "are": 374,
      "ard": 375,
      "ack": 376,
      "Ġcom": 377,
      "Ġday": 378,
      "Ġcan": 379,
      "end": 380,
      "ight": 381,
      "ĠR": 382,
      "and": 383,
      "th": 384,
      "Ġhad": 385,
      "Ġbut": 386,
      "ide": 387,
      "Ġ1": 388,
      "ime": 389,
      "Ġv": 390,
      "qu": 391,
      "ist": 392,
      "nt": 393,
      "Ġ(": 394,
      "Ġ2": 395,
      "ust": 396,
      "Ġfrom": 397,
      "Ġj": 398,
      "ĠE": 399,
      "Ġsp": 400,
      "ry": 401,
      "ake": 402,
      "Ġplay": 403,
      "Ġyour": 404,
      "ive": 405,
      "ĠJ": 406,
      "ear": 407,
      "Ġlo": 408,
      "ĠN": 409,
      "Ġch": 410,
      "Ġall": 411,
      "Ġthis": 412,
      "Ġtime": 413,
      "out": 414,
      "ort": 415,
      "itt": 416,
      "Ġout": 417,
      "ity": 418,
      "ĠG": 419,
      "ra": 420,
      "Ġthere": 421,
      "hen": 422,
      "ect": 423,
      "ud": 424,
      "ell": 425,
      "Ġwor": 426,
      "os": 427,
      "ook": 428,
      "Ġab": 429,
      "Ġby": 430,
      "ĠâĢ": 431,
      "ind": 432,
      "ies": 433,
      "Ġwant": 434,
      "ĠIt": 435,
      "ally": 436,
      "Ġwill": 437,
      "Ġtheir": 438,
      "ast": 439,
      "ug": 440,
      "ment": 441,
      "Ġgo": 442,
      "one": 443,
      "ice": 444,
      "Ġme": 445,
      "Ġmom": 446,
      "res": 447,
      "ck": 448,
      "our": 449,
      "ood": 450,
      "Ġvery": 451,
      "Ġwere": 452,
      "ep": 453,
      "ak": 454,
      "ĠLily": 455,
      "Ġhapp": 456,
      "Ġcl": 457,
      "ame": 458,
      "ved": 459,
      "red": 460,
      "ew": 461,
      "Ġsu": 462,
      "my": 463,
      "'t": 464,
      "Ġsm": 465,
      "ap": 466,
      "od": 467,
      "Ġthem": 468,
      "ong": 469,
      "ther": 470,
      "ittle": 471,
      "Ġlittle": 472,
      "Ġle": 473,
      "ost": 474,
      "ine": 475,
      "Ġman": 476,
      "00": 477,
      "pl": 478,
      "ge": 479,
      "Ġkn": 480,
      "Ġint": 481,
      "ays": 482,
      "ial": 483,
      "Ġbig": 484,
      ".\"": 485,
      "Ġde": 486,
      "riend": 487,
      "Ġus": 488,
      "ark": 489,
      "Ġmy": 490,
      "ous": 491,
      "Ġhim": 492,
      "Ġmore": 493,
      "Ġhas": 494,
      "Ġad": 495,
      "Ġtr": 496,
      "Ġlike": 497,
      "own": 498,
      "ff": 499,
      "Ġwho": 500,
      "Ġfriend": 501,
      "ĠO": 502,
      "Ġsome": 503,
      "Ġone": 504,
      "hed": 505,
      "ĠY": 506,
      "ick": 507,
      "oy": 508,
      "Ġhappy": 509,
      "ĠĊ": 510,
      "Ġabout": 511,
      "act": 512,
      "Ġtoo": 513,
      "Ġhel": 514,
      "Ġen": 515,
      "ace": 516,
      "One": 517,
      "ite": 518,
      "Ġsc": 519,
      "Ġcould": 520,
      "Ġother": 521,
      "ree": 522,
      "hing": 523,
      "age": 524,
      "Ġwould": 525,
      "round": 526,
      "Ġsaw": 527,
      "iv": 528,
      "Ġag": 529,
      "âĢĿ": 530,
      "ip": 531,
      "ound": 532,
      "ue": 533,
      "gh": 534,
      "able": 535,
      "Ġdid": 536,
      "ings": 537,
      "pt": 538,
      "so": 539,
      "Ġro": 540,
      "Ġhelp": 541,
      "iz": 542,
      "Ġnew": 543,
      "Ġcomp": 544,
      "ich": 545,
      "ie": 546,
      "Ġget": 547,
      "ions": 548,
      "reat": 549,
      "Ġwhat": 550,
      "Ġback": 551,
      "Ġwhen": 552,
      "ond": 553,
      "per": 554,
      "ĠTh": 555,
      "cc": 556,
      "ach": 557,
      "ĠU": 558,
      "og": 559,
      "low": 560,
      "ile": 561,
      "ful": 562,
      "ia": 563,
      "Ġim": 564,
      "Once": 565,
      "Ġoff": 566,
      "Ġcont": 567,
      "!\"": 568,
      "ll": 569,
      "irl": 570,
      "ade": 571,
      "ven": 572,
      "Ġany": 573,
      "ber": 574,
      "ere": 575,
      "Ġno": 576,
      "ated": 577,
      "Ġfe": 578,
      "Ġour": 579,
      "ans": 580,
      "ass": 581,
      "ase": 582,
      "orm": 583,
      "Ġthan": 584,
      "Ġgr": 585,
      "ĠTim": 586,
      "Ġqu": 587,
      "ĠIn": 588,
      "Ġupon": 589,
      "Ġgirl": 590,
      "Ġsee": 591,
      "ire": 592,
      "Ġmake": 593,
      "Ġwanted": 594,
      "ail": 595,
      "Ġpr": 596,
      "ance": 597,
      "Ġbec": 598,
      "Ġbr": 599,
      "Ġif": 600,
      "av": 601,
      "ĠSt": 602,
      "Ġinc": 603,
      "ĠâĢľ": 604,
      "Ġapp": 605,
      "Ġpe": 606,
      "Ġover": 607,
      "Ġper": 608,
      "ary": 609,
      "ub": 610,
      "Ġdis": 611,
      "ĠK": 612,
      "Ġyear": 613,
      "Ġ20": 614,
      "ink": 615,
      "get": 616,
      "Ġwork": 617,
      "omet": 618,
      "Ġbl": 619,
      "ign": 620,
      "..": 621,
      "Ġres": 622,
      "au": 623,
      "Ġstart": 624,
      "Ġfun": 625,
      "Ġwent": 626,
      "ater": 627,
      "Ġun": 628,
      "Ġjust": 629,
      "ob": 630,
      "Ġlook": 631,
      "Ġalso": 632,
      "fter": 633,
      "ib": 634,
      "Ġwhich": 635,
      "Ġaround": 636,
      "ress": 637,
      "Ġinto": 638,
      "Ġ-": 639,
      "Ġpre": 640,
      "uct": 641,
      "side": 642,
      "Ġaw": 643,
      "ĠYou": 644,
      "Ġhow": 645,
      "Ġbeen": 646,
      "Ġar": 647,
      "Ġtw": 648,
      "Ġknow": 649,
      "Ġfriends": 650,
      "uch": 651,
      "ical": 652,
      "ount": 653,
      "ult": 654,
      "ild": 655,
      "Ġam": 656,
      "Ġgood": 657,
      "Ġevery": 658,
      "ations": 659,
      "Ġneed": 660,
      "Ġthen": 661,
      "Ġdec": 662,
      "ited": 663,
      "here": 664,
      "ord": 665,
      "Ġsomet": 666,
      "ents": 667,
      "amed": 668,
      "old": 669,
      "ĠBen": 670,
      "ĠWe": 671,
      "Ġits": 672,
      "Ġ3": 673,
      "Ġmade": 674,
      "Ġpart": 675,
      "ors": 676,
      "ence": 677,
      "Ġagain": 678,
      "?\"": 679,
      "ang": 680,
      "ose": 681,
      "vel": 682,
      "Th": 683,
      "ĠBut": 684,
      "Ġco": 685,
      "Ġte": 686,
      "ish": 687,
      "int": 688,
      "ens": 689,
      "ause": 690,
      "ĠV": 691,
      "Ġcar": 692,
      "ople": 693,
      "form": 694,
      "Ġhome": 695,
      "ird": 696,
      "Ġsmil": 697,
      "ise": 698,
      "Ġimp": 699,
      "irst": 700,
      ",\"": 701,
      "ious": 702,
      "ĠCh": 703,
      "ning": 704,
      "elt": 705,
      "oc": 706,
      "Ġrec": 707,
      "nder": 708,
      "ĠOne": 709,
      "Ġdown": 710,
      "igh": 711,
      "Ġke": 712,
      "Ġasked": 713,
      "Ġloo": 714,
      "uc": 715,
      "ft": 716,
      "Ġser": 717,
      "Ġnamed": 718,
      "ory": 719,
      "ys": 720,
      "ition": 721,
      "Ġpeople": 722,
      "ave": 723,
      "mer": 724,
      "Ġsomething": 725,
      "Ġla": 726,
      "Ġbet": 727,
      "ght": 728,
      "ared": 729,
      "Ġloved": 730,
      "ax": 731,
      "Ġfelt": 732,
      "Ġexc": 733,
      "Ġ201": 734,
      "Ġfind": 735,
      "ving": 736,
      "alk": 737,
      "Ġlooked": 738,
      "Ġaway": 739,
      "Ġcol": 740,
      "Ġfound": 741,
      "Ġput": 742,
      "wn": 743,
      "Ġsmiled": 744,
      "Ġran": 745,
      "als": 746,
      "Ġacc": 747,
      "ĠTom": 748,
      "Ġpo": 749,
      "other": 750,
      "urn": 751,
      "we": 752,
      "Ġfl": 753,
      "uck": 754,
      "anc": 755,
      "Ġstr": 756,
      "hn": 757,
      "Ġfirst": 758,
      "Ġthou": 759,
      "Ġboy": 760,
      "les": 761,
      "ict": 762,
      "Ġtwo": 763,
      "Ġtake": 764,
      "ouse": 765,
      "Ġsays": 766,
      "Ġtoget": 767,
      "Ġtogether": 768,
      "Ġmuch": 769,
      "lect": 770,
      "iff": 771,
      "Ġcare": 772,
      "oth": 773,
      "Ġmany": 774,
      "ĠTimmy": 775,
      "ons": 776,
      "Ġbo": 777,
      "Ġspec": 778,
      "Ġunder": 779,
      "Ġthings": 780,
      "rough": 781,
      "xt": 782,
      "Ġshow": 783,
      "Ġgot": 784,
      "amp": 785,
      "Ġonly": 786,
      "Ġfeel": 787,
      "Ġmay": 788,
      "pped": 789,
      "elf": 790,
      "Ġeven": 791,
      "Ġbecause": 792,
      "ank": 793,
      "Ĥ¬": 794,
      "Ġstarted": 795,
      "âĤ¬": 796,
      "Ġdon": 797,
      "ways": 798,
      "ove": 799,
      "vent": 800,
      "fore": 801,
      "ty": 802,
      "day": 803,
      "Ġbird": 804,
      "Ġuse": 805,
      "Ã¢": 806,
      "iss": 807,
      "vers": 808,
      "Ġdes": 809,
      "Ġafter": 810,
      "Ġway": 811,
      "Ġact": 812,
      "Ġlong": 813,
      "ĠAn": 814,
      "Ġbu": 815,
      "ried": 816,
      "Ġlot": 817,
      "Ġthrough": 818,
      "lud": 819,
      "Ġnow": 820,
      "Ġhand": 821,
      "ided": 822,
      "Ġpark": 823,
      "ull": 824,
      "Ġrem": 825,
      "ĠâĢĵ": 826,
      "ph": 827,
      "Ġalways": 828,
      "Ġdiff": 829,
      "Ġshould": 830,
      "atch": 831,
      "Ġadd": 832,
      "ĠAnd": 833,
      "Ġcall": 834,
      "Ġmost": 835,
      "ĠThis": 836,
      "Ġop": 837,
      "ates": 838,
      "aking": 839,
      "Ġcomm": 840,
      "Ġend": 841,
      "hes": 842,
      "Ġem": 843,
      "ting": 844,
      "Ġfin": 845,
      "Ġrun": 846,
      "Ġcr": 847,
      "hat": 848,
      "ating": 849,
      "ian": 850,
      "Ġ4": 851,
      "Ġbest": 852,
      "Lily": 853,
      "Ġsk": 854,
      "ered": 855,
      "Ġrep": 856,
      "Ġwr": 857,
      "Ġold": 858,
      "ied": 859,
      "Ġlear": 860,
      "ures": 861,
      "Ġhug": 862,
      "Ġright": 863,
      "Ġ5": 864,
      "ock": 865,
      "ny": 866,
      "lic": 867,
      "Ġeach": 868,
      "Ġwhere": 869,
      "gr": 870,
      "Ġind": 871,
      "ual": 872,
      "Ġsad": 873,
      "Ġinclud": 874,
      "Ġsur": 875,
      "Ġcame": 876,
      "Ġread": 877,
      "Ġthink": 878,
      "Ġwell": 879,
      "Ġgreat": 880,
      "tern": 881,
      "Ġplaying": 882,
      "air": 883,
      "Ġrel": 884,
      "Ġyears": 885,
      "let": 886,
      "Ġatt": 887,
      "Ġche": 888,
      "Ġph": 889,
      "ble": 890,
      "pr": 891,
      "Ġdidn": 892,
      "ife": 893,
      "Ġprov": 894,
      "Ġbefore": 895,
      "Ġprod": 896,
      "ren": 897,
      "Ġthought": 898,
      "iew": 899,
      "Ġown": 900,
      "ci": 901,
      "up": 902,
      "ves": 903,
      "na": 904,
      "Ġthese": 905,
      "Ġ19": 906,
      "ont": 907,
      "ath": 908,
      "Ġbeing": 909,
      "Ġfam": 910,
      "ss": 911,
      "Ġsw": 912,
      "Ġopen": 913,
      "Ġbus": 914,
      "Ġdog": 915,
      "gan": 916,
      "ix": 917,
      "led": 918,
      "It": 919,
      "Ġsay": 920,
      "Ġfr": 921,
      "||": 922,
      "Ġstill": 923,
      "Ġtook": 924,
      "Ġhigh": 925,
      "Ġlove": 926,
      "ool": 927,
      "Ġnever": 928,
      "arm": 929,
      "ert": 930,
      "ara": 931,
      "ities": 932,
      "Ġhere": 933,
      "ased": 934,
      "Ġsmall": 935,
      "Ġspecial": 936,
      "az": 937,
      ").": 938,
      "pect": 939,
      "udd": 940,
      "ollow": 941,
      "erson": 942,
      "ged": 943,
      "Ġsupp": 944,
      "ject": 945,
      "Ġdiffere": 946,
      "ork": 947,
      "Ġdecided": 948,
      "Ġgoing": 949,
      "Ġdoes": 950,
      "ek": 951,
      "Ġexcited": 952,
      "ough": 953,
      "ner": 954,
      "Ġmon": 955,
      "Ġexpl": 956,
      "Ġcle": 957,
      "Ġtry": 958,
      "Ġwhile": 959,
      "Ġlearn": 960,
      "Ġlist": 961,
      "ward": 962,
      "Ġboth": 963,
      "Ġgu": 964,
      "ices": 965,
      "Ġsec": 966,
      "Ġsy": 967,
      "enc": 968,
      "Ġac": 969,
      "ĠRe": 970,
      "Ġbook": 971,
      "Ġlet": 972,
      "Ġwater": 973,
      "Ġbetter": 974,
      "ible": 975,
      "ĠAs": 976,
      "Ġsuch": 977,
      "iness": 978,
      "Ġset": 979,
      "Ġreg": 980,
      "ump": 981,
      "ific": 982,
      "Ġcons": 983,
      "Ġsl": 984,
      "Ġball": 985,
      "ational": 986,
      "ĠSo": 987,
      "Ġinv": 988,
      "We": 989,
      "Ġhouse": 990,
      "ne": 991,
      "Ġcur": 992,
      "They": 993,
      "Ġcome": 994,
      "com": 995,
      "its": 996,
      "Ġwa": 997,
      "ident": 998,
      "bs": 999,
      "self": 1000,
      "ĠJo": 1001,
      ".âĢĿ": 1002,
      "ange": 1003,
      "Ġroom": 1004,
      "erm": 1005,
      "Ġgl": 1006,
      "Ġliked": 1007,
      "Ġreal": 1008,
      "Ġworld": 1009,
      "olog": 1010,
      "alth": 1011,
      "Ġ$": 1012,
      "Ġoutside": 1013,
      "Ġstud": 1014,
      "ments": 1015,
      "ular": 1016,
      "arch": 1017,
      "ility": 1018,
      "ished": 1019,
      "Ġunt": 1020,
      "lease": 1021,
      "Ġ200": 1022,
      "ee": 1023,
      "Ġreally": 1024,
      "ĠUn": 1025,
      "Ġdad": 1026,
      "Ġfollow": 1027,
      "akes": 1028,
      "'m": 1029,
      "Ġpos": 1030,
      "aut": 1031,
      "Ġdr": 1032,
      "Ġtold": 1033,
      "In": 1034,
      "ics": 1035,
      "Ġred": 1036,
      "uring": 1037,
      "be": 1038,
      "But": 1039,
      "any": 1040,
      "Ġinst": 1041,
      "Ġhard": 1042,
      "hip": 1043,
      "Ġ6": 1044,
      "Ġpres": 1045,
      "Ġent": 1046,
      "Ġtree": 1047,
      "Ġused": 1048,
      "ower": 1049,
      "ement": 1050,
      "Ġscared": 1051,
      "Ġuntil": 1052,
      "vice": 1053,
      "thing": 1054,
      "ng": 1055,
      "ually": 1056,
      "Ġdifferent": 1057,
      "ĠSp": 1058,
      "Ġwalk": 1059,
      "Ġkeep": 1060,
      "Ġknew": 1061,
      "ĠMom": 1062,
      "Ġmo": 1063,
      "velop": 1064,
      "Ġplace": 1065,
      "ĠCom": 1066,
      "Ġpol": 1067,
      "formation": 1068,
      "Ġproduct": 1069,
      "Ġexper": 1070,
      "ars": 1071,
      "Ġnext": 1072,
      "und": 1073,
      "Ġthree": 1074,
      "io": 1075,
      "Ġdel": 1076,
      "âĢľ": 1077,
      "Ġkind": 1078,
      "ash": 1079,
      "Ġchild": 1080,
      "by": 1081,
      "ĠSam": 1082,
      "Ġ&": 1083,
      "Ġlaug": 1084,
      "),": 1085,
      "ember": 1086,
      "chool": 1087,
      "Ġperson": 1088,
      "imes": 1089,
      "ason": 1090,
      "ative": 1091,
      "ather": 1092,
      "ized": 1093,
      "Ġlast": 1094,
      "stem": 1095,
      "ever": 1096,
      "fe": 1097,
      "Ġfamily": 1098,
      "ired": 1099,
      "You": 1100,
      "read": 1101,
      "ener": 1102,
      "Ġsim": 1103,
      "Ġeff": 1104,
      "Ġpret": 1105,
      "Ġmin": 1106,
      "Ġthose": 1107,
      "Ġsun": 1108,
      "iel": 1109,
      "Ġtoys": 1110,
      "udden": 1111,
      "pe": 1112,
      "This": 1113,
      "Ġvis": 1114,
      "Ġdisc": 1115,
      "ins": 1116,
      "Ġloc": 1117,
      "Ġbel": 1118,
      "Ġrequ": 1119,
      "ĠIf": 1120,
      "ream": 1121,
      "ĠNew": 1122,
      "irect": 1123,
      "...": 1124,
      "ience": 1125,
      "ues": 1126,
      "Ġimport": 1127,
      "ane": 1128,
      "Ġinside": 1129,
      "Ġav": 1130,
      "Ġmommy": 1131,
      "ier": 1132,
      "Ġgave": 1133,
      "ient": 1134,
      "Ġide": 1135,
      "Ġhead": 1136,
      "Ġcount": 1137,
      "iting": 1138,
      "cess": 1139,
      "der": 1140,
      "Ġcour": 1141,
      "Ġmed": 1142,
      "Ġret": 1143,
      "20": 1144,
      "He": 1145,
      "Ġlife": 1146,
      "orry": 1147,
      "oll": 1148,
      "Ġpoint": 1149,
      "gram": 1150,
      "uddenly": 1151,
      "Ġ10": 1152,
      "ets": 1153,
      "ters": 1154,
      "Ġmod": 1155,
      "Ġweek": 1156,
      "ness": 1157,
      "Ġ7": 1158,
      "Ġbeaut": 1159,
      "ĠAl": 1160,
      "ince": 1161,
      "Ġass": 1162,
      "ched": 1163,
      "Ġlead": 1164,
      "ĠBr": 1165,
      "ional": 1166,
      "ts": 1167,
      "Ġheard": 1168,
      "Ġgive": 1169,
      "ĠMax": 1170,
      "Ġnice": 1171,
      "Ġgame": 1172,
      "bed": 1173,
      "Ġtried": 1174,
      "Ġcareful": 1175,
      "Ġsign": 1176,
      "Ġrest": 1177,
      "man": 1178,
      "Ġcouldn": 1179,
      "aw": 1180,
      "ised": 1181,
      "Ġtop": 1182,
      "Ġbox": 1183,
      "Ġmark": 1184,
      "ott": 1185,
      "br": 1186,
      "line": 1187,
      "Ġinformation": 1188,
      "ute": 1189,
      "Ġref": 1190,
      "oun": 1191,
      "ows": 1192,
      "reen": 1193,
      "ĠWhen": 1194,
      "Ġsame": 1195,
      "Ġnum": 1196,
      "ize": 1197,
      "Ġfew": 1198,
      "Ġanim": 1199,
      "Ġplayed": 1200,
      "Ġcalled": 1201,
      "ĠPro": 1202,
      "Ġpur": 1203,
      "ale": 1204,
      "Ġexp": 1205,
      "ield": 1206,
      "Ġsure": 1207,
      "Ġdet": 1208,
      "Ġbusiness": 1209,
      "Ġtoy": 1210,
      "ĠEvery": 1211,
      "Ġturn": 1212,
      "erest": 1213,
      "roud": 1214,
      "ublic": 1215,
      "ames": 1216,
      "Ġanother": 1217,
      "Ġflow": 1218,
      "Ġproud": 1219,
      "cept": 1220,
      "oud": 1221,
      "Ġtrans": 1222,
      "ex": 1223,
      "Ġmet": 1224,
      "Ġsub": 1225,
      ",âĢĿ": 1226,
      "Ġimportant": 1227,
      "ric": 1228,
      "ages": 1229,
      "Ġconf": 1230,
      "ps": 1231,
      "ple": 1232,
      "Ġdevelop": 1233,
      "Ġtra": 1234,
      "ross": 1235,
      "iful": 1236,
      "Ġteam": 1237,
      "ef": 1238,
      "Ġcontin": 1239,
      "Ġext": 1240,
      "Ġsystem": 1241,
      "Ġ8": 1242,
      "Ġsorry": 1243,
      "ĠSh": 1244,
      "What": 1245,
      "When": 1246,
      "Ġfood": 1247,
      "ĠWh": 1248,
      "land": 1249,
      "Ġed": 1250,
      "Ġinter": 1251,
      "Ġear": 1252,
      "joy": 1253,
      "ines": 1254,
      "ms": 1255,
      "Ġclos": 1256,
      "echn": 1257,
      "ĠCl": 1258,
      "Ġlooking": 1259,
      "ĠHer": 1260,
      "Ġeas": 1261,
      "Ġshare": 1262,
      "Ġart": 1263,
      "ret": 1264,
      "ĠThere": 1265,
      "Ġins": 1266,
      "Ġdef": 1267,
      "Ġfree": 1268,
      "Ġstay": 1269,
      "orn": 1270,
      "ody": 1271,
      "iet": 1272,
      "Ġey": 1273,
      "ike": 1274,
      "Ġdri": 1275,
      "view": 1276,
      "Ġmight": 1277,
      "ks": 1278,
      "Ġsn": 1279,
      "Ġbeautiful": 1280,
      "Ġfore": 1281,
      "Ġdesign": 1282,
      "ened": 1283,
      "ivers": 1284,
      "Ġcat": 1285,
      "ata": 1286,
      "Ġsupport": 1287,
      "Ġhealth": 1288,
      "Ġinterest": 1289,
      "oney": 1290,
      "ween": 1291,
      "aug": 1292,
      "Ġfull": 1293,
      "Ġel": 1294,
      "ling": 1295,
      "ĠJack": 1296,
      "Ġnight": 1297,
      "Ġbeh": 1298,
      "Ġever": 1299,
      "ĠThat": 1300,
      "ĠAr": 1301,
      "less": 1302,
      "Ġeat": 1303,
      "ĠHis": 1304,
      "ital": 1305,
      "Ġcreat": 1306,
      "Ġev": 1307,
      "Ġhop": 1308,
      "raw": 1309,
      "Ġbuild": 1310,
      "Ġ9": 1311,
      "Ġwind": 1312,
      "opped": 1313,
      "Ġpost": 1314,
      "ĠSara": 1315,
      "Ġmust": 1316,
      "uff": 1317,
      "Ġprogram": 1318,
      "Ġless": 1319,
      "Ġenjoy": 1320,
      "els": 1321,
      "rib": 1322,
      "Ġgiv": 1323,
      "Ġcommun": 1324,
      "ger": 1325,
      "aint": 1326,
      "Ġmus": 1327,
      "Ġchar": 1328,
      "Ġpat": 1329,
      "Ġbad": 1330,
      "ature": 1331,
      "ustom": 1332,
      "Ġbit": 1333,
      "Ġnear": 1334,
      "'re": 1335,
      "ants": 1336,
      "Ġsafe": 1337,
      "stand": 1338,
      "000": 1339,
      "Ġbetween": 1340,
      "Ġwithout": 1341,
      "Ġlight": 1342,
      "ract": 1343,
      "Ġplan": 1344,
      "Ġaut": 1345,
      "oot": 1346,
      "emb": 1347,
      "Ġable": 1348,
      "Ġlearned": 1349,
      "vices": 1350,
      "arden": 1351,
      "Ġhur": 1352,
      "ĠFor": 1353,
      "Ġpass": 1354,
      "oice": 1355,
      "Ġlar": 1356,
      "ĠBl": 1357,
      "Ġtell": 1358,
      "Ġcap": 1359,
      "ote": 1360,
      "Ġthing": 1361,
      "So": 1362,
      "ĠAd": 1363,
      "Ġschool": 1364,
      "ering": 1365,
      "Ġstand": 1366,
      "Ġsing": 1367,
      "Ġhugged": 1368,
      "Tom": 1369,
      "Ġform": 1370,
      "Ġdist": 1371,
      "ah": 1372,
      "Ġbro": 1373,
      "Ġfle": 1374,
      "Ġquick": 1375,
      "meric": 1376,
      "Ġfar": 1377,
      "Ġgener": 1378,
      "Ġdep": 1379,
      "Ġmaking": 1380,
      "Ġdirect": 1381,
      "ined": 1382,
      "Ġclean": 1383,
      "gry": 1384,
      "Ġbear": 1385,
      "As": 1386,
      "Ġtre": 1387,
      "Ġusing": 1388,
      "Ġsoon": 1389,
      "ĠAnna": 1390,
      "Ġtalk": 1391,
      "Ġcor": 1392,
      "Mom": 1393,
      "row": 1394,
      "Ġpretty": 1395,
      "Yes": 1396,
      "Ġbre": 1397,
      "ĠJohn": 1398,
      "ĠFrom": 1399,
      "Ġhaving": 1400,
      "Ġprof": 1401,
      "ead": 1402,
      "Ġmonth": 1403,
      "Ġname": 1404,
      "pping": 1405,
      "arent": 1406,
      "Ġleg": 1407,
      "iny": 1408,
      "ailable": 1409,
      "Ġground": 1410,
      "ĠAll": 1411,
      "Ġval": 1412,
      "Ġleft": 1413,
      "Ġjump": 1414,
      "alked": 1415,
      "Ġgrou": 1416,
      "att": 1417,
      "Ġlots": 1418,
      "Ġprocess": 1419,
      "Ġstrong": 1420,
      "ense": 1421,
      "Ġseem": 1422,
      "Ġdays": 1423,
      "ĠThen": 1424,
      "work": 1425,
      "Ġprom": 1426,
      "Ġstory": 1427,
      "Ġwhy": 1428,
      "Ġfil": 1429,
      "ton": 1430,
      "Ġorgan": 1431,
      "ma": 1432,
      "ids": 1433,
      "ĠHow": 1434,
      "Ġgarden": 1435,
      "Ġpower": 1436,
      "Ġidea": 1437,
      "Ġdone": 1438,
      "Ġob": 1439,
      "fect": 1440,
      "Ġstore": 1441,
      "Ġjo": 1442,
      "lo": 1443,
      "Ġfav": 1444,
      "Ġlaw": 1445,
      "Ġsurpr": 1446,
      "Ġsound": 1447,
      "rent": 1448,
      "Ġreport": 1449,
      "Ġbelie": 1450,
      "aring": 1451,
      "Ġwin": 1452,
      "ĠCan": 1453,
      "ically": 1454,
      "Ġmove": 1455,
      "Ġmean": 1456,
      "Ġduring": 1457,
      "to": 1458,
      "rew": 1459,
      "ries": 1460,
      "ially": 1461,
      "ides": 1462,
      "Ġrepl": 1463,
      "Ġpri": 1464,
      "Ġcond": 1465,
      "Ġwatch": 1466,
      "Ġcent": 1467,
      "gy": 1468,
      "Ġsky": 1469,
      "dy": 1470,
      "Ġquest": 1471,
      "str": 1472,
      "19": 1473,
      "Ġtechn": 1474,
      "ern": 1475,
      "Ġjob": 1476,
      "Ġfact": 1477,
      "ĠAmeric": 1478,
      "Ġpay": 1479,
      "outh": 1480,
      "Ġfast": 1481,
      "Ġcustom": 1482,
      "Ġappro": 1483,
      "That": 1484,
      "Ġwond": 1485,
      "Ġcomplet": 1486,
      "Ġresp": 1487,
      "ov": 1488,
      "icked": 1489,
      "Ġ'": 1490,
      "Ġface": 1491,
      "ĠTr": 1492,
      "Ġmanag": 1493,
      "Ġsoft": 1494,
      "Ġmor": 1495,
      "vern": 1496,
      "Ġiss": 1497,
      "aining": 1498,
      "Ġanimals": 1499,
      "ology": 1500,
      "Ġpict": 1501,
      "ider": 1502,
      "Ġavailable": 1503,
      "ats": 1504,
      "atur": 1505,
      "Ġposs": 1506,
      "Ġmarket": 1507,
      "bo": 1508,
      "ster": 1509,
      "ained": 1510,
      "Ġsit": 1511,
      "Ġgrow": 1512,
      "te": 1513,
      "Ġsol": 1514,
      "Ġresult": 1515,
      "Ġwom": 1516,
      "Åĵ": 1517,
      "Ġchildren": 1518,
      "Ġcompany": 1519,
      "ists": 1520,
      "ution": 1521,
      "Ġbuy": 1522,
      "10": 1523,
      "Ġthanked": 1524,
      "Ġrece": 1525,
      "Ġbed": 1526,
      "Ġdata": 1527,
      "Ġlived": 1528,
      "Ġincluding": 1529,
      "Ġlaughed": 1530,
      "Ġperform": 1531,
      "uss": 1532,
      "cent": 1533,
      "Ġsecond": 1534,
      "ours": 1535,
      "ccess": 1536,
      "the": 1537,
      "Ġvar": 1538,
      "Ġexplore": 1539,
      "Ġtoday": 1540,
      "Ġnod": 1541,
      "co": 1542,
      "Ġopt": 1543,
      "Ġfly": 1544,
      "Ġproble": 1545,
      "Ġpartic": 1546,
      "ĠFr": 1547,
      "ugg": 1548,
      "Ġbas": 1549,
      "Ġenough": 1550,
      "Ġspe": 1551,
      "Ġclass": 1552,
      "ces": 1553,
      "ĠBe": 1554,
      "Ġdoll": 1555,
      "Ġeveryone": 1556,
      "con": 1557,
      "Ġunderstand": 1558,
      "ced": 1559,
      "ĠMia": 1560,
      "rol": 1561,
      "ains": 1562,
      "ush": 1563,
      "Ġprot": 1564,
      "cial": 1565,
      "Ġagainst": 1566,
      "ality": 1567,
      "weet": 1568,
      "ĠInd": 1569,
      "Ġty": 1570,
      "ards": 1571,
      "Ġnumber": 1572,
      "Ġrock": 1573,
      "If": 1574,
      "Ġtreat": 1575,
      "Ġeyes": 1576,
      "ample": 1577,
      "No": 1578,
      "Ġhold": 1579,
      "sh": 1580,
      "ĠMay": 1581,
      "aster": 1582,
      "nce": 1583,
      "Ġbra": 1584,
      "iec": 1585,
      "Ġdoor": 1586,
      "Ġsince": 1587,
      "An": 1588,
      "Ġopp": 1589,
      "ately": 1590,
      "Ġword": 1591,
      "Ġair": 1592,
      "Ġhum": 1593,
      "Ġpresent": 1594,
      "Ġdoing": 1595,
      "Ġcost": 1596,
      "ĠÃ¢": 1597,
      "oon": 1598,
      "Ġincre": 1599,
      "ĠLe": 1600,
      "Ġi": 1601,
      "aper": 1602,
      "Ġside": 1603,
      "Ġhands": 1604,
      "Ġfeeling": 1605,
      "illed": 1606,
      "Ġpick": 1607,
      "ĠWhat": 1608,
      "ĠDo": 1609,
      "Wh": 1610,
      "Ġpast": 1611,
      "Ġdro": 1612,
      "Ġgetting": 1613,
      "ior": 1614,
      "Ġmoney": 1615,
      "itc": 1616,
      "Let": 1617,
      "aj": 1618,
      "ently": 1619,
      "iced": 1620,
      "Ġcre": 1621,
      "Ġeffect": 1622,
      "aces": 1623,
      "kay": 1624,
      "ten": 1625,
      "Ġben": 1626,
      "ories": 1627,
      "Ġseen": 1628,
      "Ġkept": 1629,
      "Ġpublic": 1630,
      "illion": 1631,
      "inal": 1632,
      "Ġask": 1633,
      "âĢ¦": 1634,
      "bit": 1635,
      "Ġproject": 1636,
      "Ġlevel": 1637,
      "Ġadv": 1638,
      "ued": 1639,
      "Ġinvest": 1640,
      "ift": 1641,
      "Ġclose": 1642,
      "iversity": 1643,
      "Ġmar": 1644,
      "Ġamaz": 1645,
      "Ġve": 1646,
      "Ġclim": 1647,
      "Ġmag": 1648,
      "Ġfour": 1649,
      "ĠPl": 1650,
      "ots": 1651,
      "Ġmeet": 1652,
      "Ġcry": 1653,
      "ision": 1654,
      "Ġsqu": 1655,
      "kes": 1656,
      "iver": 1657,
      "iqu": 1658,
      "ded": 1659,
      "atter": 1660,
      "Ġz": 1661,
      "Ġhot": 1662,
      "Ġmakes": 1663,
      "ĠAt": 1664,
      "'ll": 1665,
      "Ġsal": 1666,
      "cri": 1667,
      "Ġservice": 1668,
      "ection": 1669,
      "Ġcourse": 1670,
      "gin": 1671,
      "room": 1672,
      "Ġ18": 1673,
      "Ġstate": 1674,
      "Ġtri": 1675,
      "Ġexperience": 1676,
      "ĠâĢĶ": 1677,
      "ism": 1678,
      "ĠFl": 1679,
      "Ġothers": 1680,
      "app": 1681,
      "Ġloud": 1682,
      "rist": 1683,
      "50": 1684,
      "Ġmess": 1685,
      "Ġhurt": 1686,
      "Ġcook": 1687,
      "Ġ12": 1688,
      "ral": 1689,
      "Ġwalked": 1690,
      "St": 1691,
      "Ġpop": 1692,
      "Ġquickly": 1693,
      "ĠQ": 1694,
      "Ġwhe": 1695,
      "âĢĶ": 1696,
      "ĠDe": 1697,
      "Ġanything": 1698,
      "ients": 1699,
      "Ġrecord": 1700,
      "oor": 1701,
      "Ġwon": 1702,
      "ole": 1703,
      "ortun": 1704,
      "irc": 1705,
      "ĠGr": 1706,
      "Ġstop": 1707,
      "She": 1708,
      "Ġprovide": 1709,
      "Ġopened": 1710,
      "Ġmiss": 1711,
      "Ġfavor": 1712,
      "Ġfire": 1713,
      "ĠEx": 1714,
      "way": 1715,
      "Ġtest": 1716,
      "Ġwithin": 1717,
      "âĦ": 1718,
      "Ġcert": 1719,
      "Ġevent": 1720,
      "Tim": 1721,
      "Ġinf": 1722,
      "Ġtruck": 1723,
      "âĦ¢": 1724,
      "illy": 1725,
      "Ġpract": 1726,
      "Ġbrave": 1727,
      "ĠOn": 1728,
      "Ġflew": 1729,
      "Ġcut": 1730,
      "Ġworking": 1731,
      "ER": 1732,
      "Ġcurrent": 1733,
      "ator": 1734,
      "where": 1735,
      "ably": 1736,
      "ases": 1737,
      "raph": 1738,
      "Ġadvent": 1739,
      "Ġblock": 1740,
      "ĠCon": 1741,
      "Ġonline": 1742,
      "Ġvisit": 1743,
      "Ġalong": 1744,
      "Ġcoming": 1745,
      "Ġarea": 1746,
      "ĠâĢĺ": 1747,
      "of": 1748,
      "ucy": 1749,
      "ĠNo": 1750,
      "wards": 1751,
      "ĠCol": 1752,
      "Ġoper": 1753,
      "Ġmusic": 1754,
      "Ġperfect": 1755,
      "Ġaccess": 1756,
      "ĠZ": 1757,
      "leep": 1758,
      "ney": 1759,
      "Ġpiec": 1760,
      "Ġorder": 1761,
      "Ġbecame": 1762,
      "Ġreturn": 1763,
      "Ġchang": 1764,
      "used": 1765,
      "Ġwalking": 1766,
      "ĠBob": 1767,
      "icy": 1768,
      "med": 1769,
      "ached": 1770,
      "orts": 1771,
      "Ġes": 1772,
      "Ġ0": 1773,
      "Ġangry": 1774,
      "Ġeng": 1775,
      "ploy": 1776,
      "Ġbehind": 1777,
      "Ġlisten": 1778,
      "ury": 1779,
      "Ġphot": 1780,
      "Thank": 1781,
      "ww": 1782,
      "Ġproper": 1783,
      "ention": 1784,
      "Ġplease": 1785,
      "ĠIs": 1786,
      "Ġsomeone": 1787,
      "ech": 1788,
      "uit": 1789,
      "Ġparent": 1790,
      "me": 1791,
      "Ġblue": 1792,
      "Ġview": 1793,
      "Ġaff": 1794,
      "ina": 1795,
      "Ġlarge": 1796,
      "Ġconc": 1797,
      "ency": 1798,
      "Ġgroup": 1799,
      "Ġseason": 1800,
      "uce": 1801,
      "oring": 1802,
      "Ġrese": 1803,
      "Ġterm": 1804,
      "ands": 1805,
      "Ġchange": 1806,
      "ĠSer": 1807,
      "Ġthough": 1808,
      "Ġcollect": 1809,
      "por": 1810,
      "eng": 1811,
      "asure": 1812,
      "ĠPh": 1813,
      "Ġann": 1814,
      "Ġpicked": 1815,
      "unch": 1816,
      "ination": 1817,
      "Ġready": 1818,
      "Ġsuccess": 1819,
      "ĠOr": 1820,
      "Ġpot": 1821,
      "ummy": 1822,
      "Ġfield": 1823,
      "ery": 1824,
      "idd": 1825,
      "Ġallow": 1826,
      "Ġcou": 1827,
      "iron": 1828,
      "Ġstopped": 1829,
      "Ġstick": 1830,
      "Ġwat": 1831,
      "Ġnoise": 1832,
      "Ġfur": 1833,
      "ĠUS": 1834,
      "ĠTo": 1835,
      "Ġest": 1836,
      "Ġ15": 1837,
      "more": 1838,
      "Ġmil": 1839,
      "arr": 1840,
      "Ġvide": 1841,
      "Ġstat": 1842,
      "Ġgovern": 1843,
      "Ġpull": 1844,
      "Ġacross": 1845,
      "Ġbegan": 1846,
      "Ġvoice": 1847,
      "Ġdraw": 1848,
      "Ġrunning": 1849,
      "ended": 1850,
      "ley": 1851,
      "Ġhig": 1852,
      "Ġequ": 1853,
      "Ġste": 1854,
      "ĠWith": 1855,
      "30": 1856,
      "ium": 1857,
      "Ġdem": 1858,
      "Ġwarm": 1859,
      "Ġoften": 1860,
      "Ġyoung": 1861,
      "iding": 1862,
      "Ġfish": 1863,
      "Ġelect": 1864,
      "Ġneeded": 1865,
      "ĠAfter": 1866,
      "Ben": 1867,
      "Ġheart": 1868,
      "Ġcla": 1869,
      "ama": 1870,
      "reed": 1871,
      "And": 1872,
      "embers": 1873,
      "ives": 1874,
      "ĠComm": 1875,
      "Ġbreak": 1876,
      "Ġnec": 1877,
      "ĠRes": 1878,
      "Ġnodded": 1879,
      "Ġlad": 1880,
      "Ġteac": 1881,
      "aught": 1882,
      "Ġcomes": 1883,
      "Ġaddition": 1884,
      "Ġshiny": 1885,
      "âĤ¬âĦ¢": 1886,
      "Ġmen": 1887,
      "Ġkids": 1888,
      "Ġeverything": 1889,
      "Ġcomplete": 1890,
      "Ġwait": 1891,
      "Ġheld": 1892,
      "Ġwebs": 1893,
      "Ġbecome": 1894,
      ".,": 1895,
      "omm": 1896,
      "Ġsat": 1897,
      "ape": 1898,
      "Ġtimes": 1899,
      "Ġdress": 1900,
      "Ġfall": 1901,
      "ready": 1902,
      "icle": 1903,
      "ills": 1904,
      "Ġtrying": 1905,
      "ising": 1906,
      "Ġcheck": 1907,
      "Ġnoticed": 1908,
      "Ġkey": 1909,
      "IN": 1910,
      "ister": 1911,
      "Ġbody": 1912,
      "Ġsmile": 1913,
      "orth": 1914,
      "Ġline": 1915,
      "zy": 1916,
      "Ġdi": 1917,
      "Ġlocal": 1918,
      "ware": 1919,
      "Ġlooks": 1920,
      "Ġshowed": 1921,
      "Ġsite": 1922,
      "Ġcase": 1923,
      "soci": 1924,
      "utes": 1925,
      "Ġlive": 1926,
      "Ġprofess": 1927,
      "itchen": 1928,
      "oint": 1929,
      "Ġhist": 1930,
      "Ġfavorite": 1931,
      "alf": 1932,
      "Ġgrab": 1933,
      "After": 1934,
      "Ġbring": 1935,
      "16": 1936,
      "ivid": 1937,
      "Ġadm": 1938,
      "Ġoffer": 1939,
      "Ġforest": 1940,
      "Ġelse": 1941,
      "Ġfell": 1942,
      "ability": 1943,
      "Ġmeans": 1944,
      "ĠPr": 1945,
      "Ġpain": 1946,
      "Ġexpect": 1947,
      "Ġ.": 1948,
      "Ġwonder": 1949,
      "Ġbar": 1950,
      "istr": 1951,
      "Ġtouch": 1952,
      "not": 1953,
      "une": 1954,
      "Jo": 1955,
      "Ġservices": 1956,
      "ording": 1957,
      "Ġnews": 1958,
      "Ġapplic": 1959,
      "Ġcool": 1960,
      "Ġfac": 1961,
      "ify": 1962,
      "hor": 1963,
      "Ġeasy": 1964,
      "urs": 1965,
      "pos": 1966,
      "err": 1967,
      "âĢ¢": 1968,
      "aves": 1969,
      "ither": 1970,
      "Ġcirc": 1971,
      "Ġflowers": 1972,
      "ending": 1973,
      "Ġalready": 1974,
      "Ġ11": 1975,
      "Ġproducts": 1976,
      "ĠCent": 1977,
      "olly": 1978,
      "Ġcontrol": 1979,
      "Ġtable": 1980,
      "Ġinclude": 1981,
      "af": 1982,
      "itive": 1983,
      "ored": 1984,
      "Ġimpro": 1985,
      "ĠEm": 1986,
      "cl": 1987,
      "Ġworked": 1988,
      "Ġhelped": 1989,
      "wer": 1990,
      "rap": 1991,
      "Ġmind": 1992,
      "Ġstudents": 1993,
      "Ġ|": 1994,
      "rel": 1995,
      "Ġpaper": 1996,
      "ĠEng": 1997,
      "uction": 1998,
      "ox": 1999,
      "Ġgames": 2000,
      "Ġstep": 2001,
      "Ġpress": 2002,
      "There": 2003,
      "pec": 2004,
      "Ġhimself": 2005,
      "Ġhours": 2006,
      "Ġyell": 2007,
      "Ġlost": 2008,
      "Ġsever": 2009,
      "Ġneeds": 2010,
      "Ġet": 2011,
      "Ġsweet": 2012,
      "ĠChrist": 2013,
      "For": 2014,
      "'ve": 2015,
      "ĠLucy": 2016,
      "Ġintern": 2017,
      "Ġhappened": 2018,
      "Ġoffic": 2019,
      "gle": 2020,
      "ron": 2021,
      "Ġsong": 2022,
      "most": 2023,
      "Ġdeep": 2024,
      "ĠLet": 2025,
      "Ġhun": 2026,
      "Ġfollowing": 2027,
      "Ġbelieve": 2028,
      "Ġtast": 2029,
      "Ġgrand": 2030,
      "Ġdoesn": 2031,
      "Ġkitchen": 2032,
      "Ġlater": 2033,
      "ĠMan": 2034,
      "ified": 2035,
      "ĠUniversity": 2036,
      "Ġ30": 2037,
      "ances": 2038,
      "Ġcommunity": 2039,
      "ajor": 2040,
      "Ġdin": 2041,
      "Ġlow": 2042,
      "Ġele": 2043,
      "Ġrab": 2044,
      "vious": 2045,
      "eter": 2046,
      "Ġwhite": 2047,
      "ured": 2048,
      "Ġblack": 2049,
      "Ġ[": 2050,
      "Ġrain": 2051,
      "AN": 2052,
      "Ġarri": 2053,
      "12": 2054,
      "Ġans": 2055,
      "aby": 2056,
      "Ġindust": 2057,
      "sel": 2058,
      "ON": 2059,
      "over": 2060,
      "Ġfair": 2061,
      "irt": 2062,
      "Ġcolor": 2063,
      "ĠMar": 2064,
      "erv": 2065,
      "Ġactiv": 2066,
      "itions": 2067,
      "aken": 2068,
      "aps": 2069,
      "ety": 2070,
      "Ġcountry": 2071,
      "ĠMy": 2072,
      "ĠNow": 2073,
      "aterial": 2074,
      "aff": 2075,
      "ization": 2076,
      "ubl": 2077,
      "Ġslow": 2078,
      "port": 2079,
      "Ġsand": 2080,
      "ction": 2081,
      "ique": 2082,
      "upp": 2083,
      "Ġtax": 2084,
      "ĠSe": 2085,
      "Ġbooks": 2086,
      "Ġcloser": 2087,
      "Ġwood": 2088,
      "ik": 2089,
      "Ġshort": 2090,
      "Ġsocial": 2091,
      "Ġaccount": 2092,
      "Ġseveral": 2093,
      "come": 2094,
      "reet": 2095,
      "Ġsho": 2096,
      "ĠSuddenly": 2097,
      "Ġconn": 2098,
      "Ġslide": 2099,
      "Ġparents": 2100,
      "Ġonce": 2101,
      "rod": 2102,
      "Ġmoment": 2103,
      "book": 2104,
      "11": 2105,
      "Ġcomput": 2106,
      "Ġnet": 2107,
      "Ġdark": 2108,
      "ĠEd": 2109,
      "Ġemploy": 2110,
      "Ġbrother": 2111,
      "Ġdetail": 2112,
      "Ġwatched": 2113,
      "Ġgreen": 2114,
      "Ġwrong": 2115,
      "ned": 2116,
      "Ġfront": 2117,
      "Ġhair": 2118,
      "Ġcamp": 2119,
      "Ġreplied": 2120,
      "Ġfix": 2121,
      "Ġokay": 2122,
      "Ġbased": 2123,
      "Ġliving": 2124,
      "ball": 2125,
      "Ġmorning": 2126,
      "ones": 2127,
      "Ġyet": 2128,
      "osp": 2129,
      "Ġcreate": 2130,
      "Ġ199": 2131,
      "At": 2132,
      "use": 2133,
      "oke": 2134,
      "ĠDad": 2135,
      "ensive": 2136,
      "Ġclear": 2137,
      "atures": 2138,
      "Ġcompet": 2139,
      "Ġbright": 2140,
      "Ġhope": 2141,
      "Ġmembers": 2142,
      "Look": 2143,
      "conom": 2144,
      "ĠCar": 2145,
      "anger": 2146,
      "viron": 2147,
      "Ġhear": 2148,
      "fort": 2149,
      "yle": 2150,
      "Ġforg": 2151,
      "Ġsearch": 2152,
      "play": 2153,
      "Ġleast": 2154,
      "Ġcity": 2155,
      "Ġsleep": 2156,
      "Can": 2157,
      "Ġselect": 2158,
      "Ġfoc": 2159,
      "uro": 2160,
      "key": 2161,
      "oose": 2162,
      "Ġwebsite": 2163,
      "ken": 2164,
      "ential": 2165,
      "Ġorig": 2166,
      "Ġboat": 2167,
      "ila": 2168,
      "ission": 2169,
      "oss": 2170,
      "Ġlim": 2171,
      "Ġshout": 2172,
      "uary": 2173,
      "Ġmother": 2174,
      "Ġwasn": 2175,
      "Ġreview": 2176,
      "Ġearly": 2177,
      "Ġpossible": 2178,
      "Ġcertain": 2179,
      "Ġpage": 2180,
      "Ġmillion": 2181,
      "Ġwhole": 2182,
      "Ġproblem": 2183,
      "Ġpercent": 2184,
      "Ġemail": 2185,
      "Ġtem": 2186,
      "Ġwall": 2187,
      "Ġocc": 2188,
      "Suddenly": 2189,
      "Ġtaking": 2190,
      "Ġbag": 2191,
      "acks": 2192,
      "Ġeduc": 2193,
      "ES": 2194,
      "Ġ16": 2195,
      "Ġwar": 2196,
      "Ġra": 2197,
      "Ġresearch": 2198,
      "erence": 2199,
      "Ġri": 2200,
      "Ġmajor": 2201,
      "Ġvideo": 2202,
      "How": 2203,
      "ians": 2204,
      "ises": 2205,
      "Ġindivid": 2206,
      "Ġcand": 2207,
      "Ġactually": 2208,
      "ony": 2209,
      "Ġnon": 2210,
      "acy": 2211,
      "ĠRep": 2212,
      "ode": 2213,
      "Ġbutter": 2214,
      "Ġquality": 2215,
      "Ġhuman": 2216,
      "rog": 2217,
      "ĠApp": 2218,
      "for": 2219,
      "Ġfund": 2220,
      "Ġbelow": 2221,
      "bye": 2222,
      "AT": 2223,
      "\".": 2224,
      "Ġanymore": 2225,
      "Ġfive": 2226,
      "Ġland": 2227,
      "Ġfight": 2228,
      "artment": 2229,
      "Ġitem": 2230,
      "Ġcontent": 2231,
      "Ġbenef": 2232,
      "Ġreached": 2233,
      "ites": 2234,
      "Ġ2012": 2235,
      "Ġdeal": 2236,
      "fer": 2237,
      "ĠAm": 2238,
      "Ġleave": 2239,
      "Ġpersonal": 2240,
      "rought": 2241,
      "Ġgovernment": 2242,
      "Ġtrad": 2243,
      "cle": 2244,
      "Ġmaterial": 2245,
      "Ġhigher": 2246,
      "uture": 2247,
      "Ġcover": 2248,
      "Ġwords": 2249,
      "Ġcold": 2250,
      "isk": 2251,
      "ived": 2252,
      "oom": 2253,
      "ĠÂ": 2254,
      "inally": 2255,
      "ele": 2256,
      "Ġopportun": 2257,
      "son": 2258,
      "uly": 2259,
      "Ġfinished": 2260,
      "Ġworry": 2261,
      "Ġfloor": 2262,
      "ption": 2263,
      "Her": 2264,
      "Ġparty": 2265,
      "Ġcurious": 2266,
      "itch": 2267,
      "Ġcatch": 2268,
      "iter": 2269,
      "Ġamazing": 2270,
      "Ġpar": 2271,
      "Don": 2272,
      "ging": 2273,
      "Ġprotect": 2274,
      "itting": 2275,
      "ĠCo": 2276,
      "Ġexample": 2277,
      "eth": 2278,
      "go": 2279,
      "Ġroll": 2280,
      "vironment": 2281,
      "iday": 2282,
      "ners": 2283,
      "Ġant": 2284,
      "Ġhappen": 2285,
      "ĠSc": 2286,
      "Ġdoct": 2287,
      "Ġ--": 2288,
      "Ġyes": 2289,
      "Ġcharac": 2290,
      "Ġcake": 2291,
      "Ġcal": 2292,
      "OR": 2293,
      "itten": 2294,
      "ilt": 2295,
      "Ġcomb": 2296,
      "ĠJoe": 2297,
      "ĠGod": 2298,
      "pecially": 2299,
      "Ġbott": 2300,
      "aur": 2301,
      "Ġabove": 2302,
      "Ġparticular": 2303,
      "Ġsour": 2304,
      "ges": 2305,
      "Ġreason": 2306,
      "Ġcontact": 2307,
      "ĠState": 2308,
      "Ġwomen": 2309,
      "umb": 2310,
      "Ġmult": 2311,
      "!!": 2312,
      "Ġlonger": 2313,
      "ĠMed": 2314,
      "Ġfollowed": 2315,
      "Ġdevelopment": 2316,
      "asing": 2317,
      "Ġspace": 2318,
      "Ġsometimes": 2319,
      "ison": 2320,
      "iety": 2321,
      "Ġ:": 2322,
      "Ġtaken": 2323,
      "Ġnothing": 2324,
      "Ġbrought": 2325,
      "lex": 2326,
      "AR": 2327,
      "Ġlay": 2328,
      "Ġrabbit": 2329,
      "Ġsum": 2330,
      "Ġ14": 2331,
      "Ġtyp": 2332,
      "Ġpurch": 2333,
      "ffic": 2334,
      "Ġgoodbye": 2335,
      "ĠComp": 2336,
      "Ġglad": 2337,
      "ĠYork": 2338,
      "Ġspecific": 2339,
      "isy": 2340,
      "Ġalmost": 2341,
      "Ġsees": 2342,
      "ears": 2343,
      "Ġminutes": 2344,
      "icult": 2345,
      "load": 2346,
      "mb": 2347,
      "Ġinvol": 2348,
      "Ġstudy": 2349,
      "Ġbuilding": 2350,
      "Ġchall": 2351,
      "ok": 2352,
      "Ġknown": 2353,
      "Ġvers": 2354,
      "Ġhalf": 2355,
      "nes": 2356,
      "tt": 2357,
      "ateg": 2358,
      "Ġprice": 2359,
      "anced": 2360,
      "Ġgrass": 2361,
      "Ġpicture": 2362,
      "Ġcast": 2363,
      "ĠJane": 2364,
      "aid": 2365,
      "Ġself": 2366,
      "ĠSue": 2367,
      "Ġdelic": 2368,
      "Ġtool": 2369,
      "Ġmix": 2370,
      "Ġfuture": 2371,
      "Ġgone": 2372,
      "Ġprin": 2373,
      "lish": 2374,
      "Ġcard": 2375,
      "Ġhon": 2376,
      "Ġbirds": 2377,
      "Ġmonths": 2378,
      "selves": 2379,
      "Ġident": 2380,
      "atic": 2381,
      "Ġpack": 2382,
      "ishing": 2383,
      "Ġwants": 2384,
      "ches": 2385,
      "ule": 2386,
      "ĠIntern": 2387,
      "Ġlady": 2388,
      "ument": 2389,
      "raft": 2390,
      "uation": 2391,
      "icro": 2392,
      "ĠThese": 2393,
      "âĢĵ": 2394,
      "ming": 2395,
      "Ġmot": 2396,
      "Ġenc": 2397,
      "Ġfinally": 2398,
      "Ġpriv": 2399,
      "Ġadventure": 2400,
      "ĠX": 2401,
      "Ġca": 2402,
      "ulation": 2403,
      "ining": 2404,
      "ĠDa": 2405,
      "Ġvol": 2406,
      "pper": 2407,
      "avy": 2408,
      "ober": 2409,
      "Ġremember": 2410,
      "Ġsuper": 2411,
      "Ġturned": 2412,
      "ought": 2413,
      "Ġquestion": 2414,
      "ights": 2415,
      "Sara": 2416,
      "ĠMr": 2417,
      "Ġbal": 2418,
      "Ġfit": 2419,
      "Ġdiscuss": 2420,
      "ees": 2421,
      "aced": 2422,
      "ĠCal": 2423,
      "Ġrequire": 2424,
      "Ġcult": 2425,
      "time": 2426,
      "Ġtot": 2427,
      "ĠSpot": 2428,
      "ze": 2429,
      "Ġbegin": 2430,
      "ograph": 2431,
      "Ġprob": 2432,
      "uced": 2433,
      "Ġtowards": 2434,
      "Ġhit": 2435,
      "lege": 2436,
      "ĠUnited": 2437,
      "Ġeither": 2438,
      "Ġcontinued": 2439,
      "Ġwonderful": 2440,
      "par": 2441,
      "urch": 2442,
      "Ġmain": 2443,
      "roll": 2444,
      "Ġdream": 2445,
      "ĠAmerican": 2446,
      "Ġjumped": 2447,
      "ĠHowever": 2448,
      "orld": 2449,
      "ĠNot": 2450,
      "Ġphys": 2451,
      "Ġgiven": 2452,
      "Ġport": 2453,
      "Ġswim": 2454,
      "ural": 2455,
      "Ġrad": 2456,
      "ĠMommy": 2457,
      "ĠYour": 2458,
      "Ġrespons": 2459,
      "hers": 2460,
      "Ġice": 2461,
      "Ġtakes": 2462,
      "lement": 2463,
      "ĠFe": 2464,
      "Ġroad": 2465,
      "Ġbow": 2466,
      "ĠGo": 2467,
      "Ġeconom": 2468,
      "Ġround": 2469,
      "ledge": 2470,
      "sy": 2471,
      "Ġ/": 2472,
      "15": 2473,
      "ept": 2474,
      "ogn": 2475,
      "Ġfoot": 2476,
      "Ġlab": 2477,
      "Ġrecomm": 2478,
      "Ġbaby": 2479,
      "Ġrealized": 2480,
      "Ġsurprise": 2481,
      "Ġtown": 2482,
      "Ġenjoyed": 2483,
      "John": 2484,
      "Ġlate": 2485,
      "Ġquestions": 2486,
      "uggest": 2487,
      "From": 2488,
      "Ġ2013": 2489,
      "Ġblocks": 2490,
      "Ġmatter": 2491,
      "ĠCont": 2492,
      "Ġanal": 2493,
      "ume": 2494,
      "Ġ100": 2495,
      "head": 2496,
      "Ġsnow": 2497,
      "Ġespecially": 2498,
      "Al": 2499,
      "Ġcomputer": 2500,
      "Ġtrees": 2501,
      "anies": 2502,
      "Ġdig": 2503,
      "ene": 2504,
      "Ġcannot": 2505,
      "Ġago": 2506,
      "utions": 2507,
      "Ġfunny": 2508,
      "Ġphone": 2509,
      "Ch": 2510,
      "Ġthank": 2511,
      "ables": 2512,
      "Ġcars": 2513,
      "Ġforward": 2514,
      "ilities": 2515,
      "Ġcop": 2516,
      "ilar": 2517,
      "itical": 2518,
      "ĠEn": 2519,
      "ibility": 2520,
      "IS": 2521,
      "Ġcup": 2522,
      "amer": 2523,
      "Ġens": 2524,
      "iod": 2525,
      "ĠChe": 2526,
      "Anna": 2527,
      "Ġalone": 2528,
      "Ġoffice": 2529,
      "Ġclaim": 2530,
      "Ġprint": 2531,
      "ienc": 2532,
      "Ġamong": 2533,
      "Ġtired": 2534,
      "ĠSarah": 2535,
      "ED": 2536,
      "ille": 2537,
      "unny": 2538,
      "Ġsell": 2539,
      "Ġspr": 2540,
      "Ġamount": 2541,
      "Ġwhether": 2542,
      "Ġdeterm": 2543,
      "though": 2544,
      "Ġanyone": 2545,
      "Ġjour": 2546,
      "Ġrele": 2547,
      "Ġyellow": 2548,
      "vert": 2549,
      "stit": 2550,
      "Ġcomfort": 2551,
      "ĠJust": 2552,
      "Ġindustry": 2553,
      "Ġfurther": 2554,
      "ai": 2555,
      "Ġpaint": 2556,
      "ĠNe": 2557,
      "Ġflower": 2558,
      "ips": 2559,
      "Ġmum": 2560,
      "Ġhistory": 2561,
      "Ġgrabbed": 2562,
      "gg": 2563,
      "Ġlink": 2564,
      "ĠDr": 2565,
      "Ġworks": 2566,
      "ĠCount": 2567,
      "Ġ17": 2568,
      "Ġfilled": 2569,
      "Ġvalue": 2570,
      "atural": 2571,
      "eral": 2572,
      "Ġener": 2573,
      "Ġtrain": 2574,
      "--": 2575,
      "Ġhole": 2576,
      "Ġauthor": 2577,
      "Ġwide": 2578,
      "Ġblog": 2579,
      "Ġsuggest": 2580,
      "ĠAb": 2581,
      "ĠMin": 2582,
      "Ġareas": 2583,
      "Ġ25": 2584,
      "resent": 2585,
      "Ġlaugh": 2586,
      "Ġfriendly": 2587,
      "ĠEveryone": 2588,
      "Ġpet": 2589,
      "apt": 2590,
      "Ġadded": 2591,
      "Ġcompl": 2592,
      "Ġrespect": 2593,
      "ament": 2594,
      "Ġsent": 2595,
      "ĠSome": 2596,
      "osed": 2597,
      "Ġ50": 2598,
      "EN": 2599,
      "arth": 2600,
      "//": 2601,
      "ply": 2602,
      "Ġsix": 2603,
      "ask": 2604,
      "agon": 2605,
      ".)": 2606,
      "Ġaud": 2607,
      "irm": 2608,
      "gest": 2609,
      "Ġap": 2610,
      "Ġsingle": 2611,
      "Ġsimple": 2612,
      "Ġwindow": 2613,
      "ĠCity": 2614,
      "Ġclot": 2615,
      "year": 2616,
      "ĠSy": 2617,
      "ighb": 2618,
      "Ġdifficult": 2619,
      "Ġtall": 2620,
      "Ġfig": 2621,
      "Ġ13": 2622,
      "eal": 2623,
      "Ġpictures": 2624,
      "Ġdisplay": 2625,
      "Ġcommon": 2626,
      "itor": 2627,
      "Ġissues": 2628,
      "Ġate": 2629,
      "Ġenvironment": 2630,
      "://": 2631,
      "Ġsize": 2632,
      "Ġrelations": 2633,
      "board": 2634,
      "Ġreach": 2635,
      "elcome": 2636,
      "Ġaccept": 2637,
      "Ġmov": 2638,
      "Ġfocus": 2639,
      "isc": 2640,
      "ief": 2641,
      "aving": 2642,
      "13": 2643,
      "Ġpond": 2644,
      "ese": 2645,
      "Ġfeatures": 2646,
      "Ġarrived": 2647,
      "pro": 2648,
      "org": 2649,
      "idge": 2650,
      "Ġresults": 2651,
      "To": 2652,
      "Ġ24": 2653,
      "urity": 2654,
      "ĠNational": 2655,
      "ler": 2656,
      "Ġmem": 2657,
      "Ġdinner": 2658,
      "Ġthird": 2659,
      "ĠMc": 2660,
      "Ġupd": 2661,
      "Ġcarefully": 2662,
      "Ġconnect": 2663,
      "ĠEuro": 2664,
      "Ġquite": 2665,
      "Ġrange": 2666,
      "Ġclimb": 2667,
      "ello": 2668,
      "Ġtravel": 2669,
      "Ġherself": 2670,
      "Ġlikes": 2671,
      "Ġcolors": 2672,
      "Ġdue": 2673,
      "Ġaddress": 2674,
      "Ġpoints": 2675,
      "Ġple": 2676,
      "resh": 2677,
      "Ġshouted": 2678,
      "ators": 2679,
      "ĠSm": 2680,
      "Ġabs": 2681,
      "ucky": 2682,
      "iol": 2683,
      "uz": 2684,
      "fact": 2685,
      "aging": 2686,
      "ude": 2687,
      "Ġinstead": 2688,
      "Ġmedia": 2689,
      "ĠWill": 2690,
      "200": 2691,
      "ires": 2692,
      "Ġrace": 2693,
      "Ġtrue": 2694,
      "Ġmodel": 2695,
      "Ġess": 2696,
      "Ġleaves": 2697,
      "Ġwoman": 2698,
      "Ġdoctor": 2699,
      "ĠDep": 2700,
      "Ġblood": 2701,
      "Ġwaved": 2702,
      "Ġtechnology": 2703,
      "Ġways": 2704,
      "ication": 2705,
      "Ġshop": 2706,
      "itted": 2707,
      "Ġcompanies": 2708,
      "Ġneighb": 2709,
      "back": 2710,
      "Ġtight": 2711,
      "Ġsurprised": 2712,
      "My": 2713,
      "Ġperiod": 2714,
      "Ġaccording": 2715,
      "Ġexam": 2716,
      "ĠOur": 2717,
      "ules": 2718,
      "Then": 2719,
      "Ġswing": 2720,
      "Ġinstall": 2721,
      "set": 2722,
      "Ġ#": 2723,
      "ĠDec": 2724,
      "May": 2725,
      "Ġyummy": 2726,
      "Ġconsider": 2727,
      "Ġentire": 2728,
      "Ġfilm": 2729,
      "'d": 2730,
      "25": 2731,
      "Wow": 2732,
      "val": 2733,
      "ĠPres": 2734,
      "Ġdrink": 2735,
      "Ġmanagement": 2736,
      "Ġperformance": 2737,
      "la": 2738,
      "Ġdry": 2739,
      "Ġyourself": 2740,
      "idence": 2741,
      "aged": 2742,
      "Ġunique": 2743,
      "Ġskin": 2744,
      "Ġbroken": 2745,
      "augh": 2746,
      "elebr": 2747,
      "Ġcred": 2748,
      "Ġshows": 2749,
      "Ġhuge": 2750,
      "Ġnetwork": 2751,
      "Ġcontinue": 2752,
      "Ġbug": 2753,
      "Ġinteresting": 2754,
      "Ġlikely": 2755,
      "ĠJan": 2756,
      "Ġdelicious": 2757,
      "14": 2758,
      "hel": 2759,
      "Ġweb": 2760,
      "astic": 2761,
      "Ġhowever": 2762,
      "Ġrequired": 2763,
      "Ġmatch": 2764,
      "18": 2765,
      "Ġmach": 2766,
      "Ġagreed": 2767,
      "ground": 2768,
      "uffy": 2769,
      "iant": 2770,
      "chie": 2771,
      "sc": 2772,
      "Ġdoc": 2773,
      "ĠPart": 2774,
      "Ġpen": 2775,
      "ĠAust": 2776,
      "ushed": 2777,
      "airs": 2778,
      "Ġoil": 2779,
      "Ġseries": 2780,
      "Ġbutterf": 2781,
      "Ġhat": 2782,
      "wh": 2783,
      "Mommy": 2784,
      "ID": 2785,
      "IT": 2786,
      "acked": 2787,
      "Ġpubl": 2788,
      "Ġhor": 2789,
      "Ġmouse": 2790,
      "Ġdou": 2791,
      "Ġhost": 2792,
      "Ġsens": 2793,
      "ively": 2794,
      "Ġmeth": 2795,
      "obile": 2796,
      "Ġdrive": 2797,
      "Ġprobably": 2798,
      "Ġisn": 2799,
      "Ġspot": 2800,
      "iving": 2801,
      "Ġlesson": 2802,
      "Ġjoin": 2803,
      "AL": 2804,
      "ĠTe": 2805,
      "Ġcried": 2806,
      "Ġdanger": 2807,
      "Ġsmart": 2808,
      "Ġrequest": 2809,
      "Ġage": 2810,
      "Ġextra": 2811,
      "Ġsmell": 2812,
      "IC": 2813,
      "Ġsex": 2814,
      "Ġchoose": 2815,
      "Ġhelping": 2816,
      "Ġdisapp": 2817,
      "Ġstri": 2818,
      "ĠMark": 2819,
      "embered": 2820,
      "ĠPe": 2821,
      "Ġwriting": 2822,
      "Ġengine": 2823,
      "ĠCr": 2824,
      "ecut": 2825,
      "Ġgoes": 2826,
      "Ġoffers": 2827,
      "ification": 2828,
      "rect": 2829,
      "ancial": 2830,
      "Ġcustomers": 2831,
      "ĠOct": 2832,
      "Ġcontract": 2833,
      "Ġprep": 2834,
      "Ġimprove": 2835,
      "Ġbeach": 2836,
      "angu": 2837,
      "Ġ2011": 2838,
      "Ġpiece": 2839,
      "ĠMe": 2840,
      "Ġweeks": 2841,
      "Ġwish": 2842,
      "Ġenergy": 2843,
      "Ġsend": 2844,
      "Ġremembered": 2845,
      "Ġbur": 2846,
      "Ġheavy": 2847,
      "ĠInc": 2848,
      "Ġfrog": 2849,
      "Ġdest": 2850,
      "Ġincludes": 2851,
      "Ġpan": 2852,
      "Ġwear": 2853,
      "Ġride": 2854,
      "Ġhappily": 2855,
      "Ġrecogn": 2856,
      "Ġobject": 2857,
      "Ġcarry": 2858,
      "anch": 2859,
      "ĠNorth": 2860,
      "eared": 2861,
      "Ġtail": 2862,
      "ĠDon": 2863,
      "Ġoriginal": 2864,
      "Ġhopped": 2865,
      "ĠTw": 2866,
      "ĠIm": 2867,
      "now": 2868,
      "ann": 2869,
      "Ġprovided": 2870,
      "Ġcream": 2871,
      "Ġnorm": 2872,
      "Sam": 2873,
      "US": 2874,
      "Ġfail": 2875,
      "ĠEl": 2876,
      "Ġsil": 2877,
      "ĠSec": 2878,
      "Ġpieces": 2879,
      "omes": 2880,
      "urance": 2881,
      "yr": 2882,
      "Ġpath": 2883,
      "ĠPre": 2884,
      "fully": 2885,
      "ili": 2886,
      "ples": 2887,
      "Ġposition": 2888,
      "ĠTH": 2889,
      "ino": 2890,
      "Ġboard": 2891,
      "Ġgives": 2892,
      "gress": 2893,
      "Ġvarious": 2894,
      "erc": 2895,
      "Ġrather": 2896,
      "Ġplayers": 2897,
      "ĠGu": 2898,
      "icated": 2899,
      "ĠBar": 2900,
      "ĠRec": 2901,
      "Ġtext": 2902,
      "Ġtur": 2903,
      "ĠGe": 2904,
      "Ġnecess": 2905,
      "Ġpopular": 2906,
      "ucture": 2907,
      "Ġshared": 2908,
      "Ġprofessional": 2909,
      "Ġrelationship": 2910,
      "ana": 2911,
      "Ġfinal": 2912,
      "ope": 2913,
      "Ġstaff": 2914,
      "Ġjoy": 2915,
      "pril": 2916,
      "AS": 2917,
      "Do": 2918,
      "Ġ...": 2919,
      "eds": 2920,
      "Ġrate": 2921,
      "Ġmeasure": 2922,
      "epend": 2923,
      "Ġprovides": 2924,
      "irth": 2925,
      "ĠCor": 2926,
      "ĠJen": 2927,
      "Ġtrust": 2928,
      "iam": 2929,
      "orrow": 2930,
      "Ġknowledge": 2931,
      "Ġcell": 2932,
      "Ġbunny": 2933,
      "ĠWorld": 2934,
      "ĠThank": 2935,
      "Ġpractice": 2936,
      "Ġcharacter": 2937,
      "Ġmaint": 2938,
      "olf": 2939,
      "Ġevents": 2940,
      "verage": 2941,
      "rop": 2942,
      "Ġrisk": 2943,
      "nal": 2944,
      "Ġspeak": 2945,
      "iddle": 2946,
      "ague": 2947,
      "hib": 2948,
      "Ġcelebr": 2949,
      "Ġgift": 2950,
      "Ġresour": 2951,
      "Ġfarm": 2952,
      "Ġdam": 2953,
      "ĠPark": 2954,
      "obal": 2955,
      "ipped": 2956,
      "Ġwet": 2957,
      "Ġdeath": 2958,
      "ival": 2959,
      "medi": 2960,
      "AC": 2961,
      "ĠSchool": 2962,
      "ĠGl": 2963,
      "ĠKe": 2964,
      "Ġregular": 2965,
      "Ġcloud": 2966,
      "Ġsimilar": 2967,
      "Ġconduct": 2968,
      "ipping": 2969,
      "Ġwouldn": 2970,
      "Ġwrite": 2971,
      "ĠPar": 2972,
      "Ġspl": 2973,
      "Ġchanges": 2974,
      "Ġduck": 2975,
      "Ġruns": 2976,
      "Ġpers": 2977,
      "Ġmoved": 2978,
      "Ġproperty": 2979,
      "king": 2980,
      "ĠTV": 2981,
      "Ġissue": 2982,
      "Ġda": 2983,
      "Ġinj": 2984,
      "irit": 2985,
      "ĠDes": 2986,
      "Ġparticip": 2987,
      "Ġtype": 2988,
      "ĠStates": 2989,
      "Ġclosed": 2990,
      "Ġplaces": 2991,
      "Ġexist": 2992,
      "Hello": 2993,
      "Ġinit": 2994,
      "ĠEurope": 2995,
      "ĠAct": 2996,
      "face": 2997,
      "ĠJune": 2998,
      "Oh": 2999,
      "Ġstories": 3000,
      "Ġassist": 3001,
      "Timmy": 3002,
      "Ġtraining": 3003,
      "22": 3004,
      "Ġclothes": 3005,
      "ĠPer": 3006,
      "ĠCenter": 3007,
      "Ġtrou": 3008,
      "Ġthemselves": 3009,
      "Ġsimply": 3010,
      "Ġsignific": 3011,
      "His": 3012,
      "Ġachie": 3013,
      "ĠQu": 3014,
      "ĠSouth": 3015,
      "Ġord": 3016,
      "Ġgets": 3017,
      "Be": 3018,
      "Ġcoll": 3019,
      "17": 3020,
      "Ġwished": 3021,
      "ada": 3022,
      "Ġspent": 3023,
      "ĠBenny": 3024,
      "Ġproblems": 3025,
      "Ġmouth": 3026,
      "Ġdescri": 3027,
      "Ġusually": 3028,
      "Ġsave": 3029,
      "Ġreceive": 3030,
      "che": 3031,
      "ental": 3032,
      "sing": 3033,
      "ung": 3034,
      "Why": 3035,
      "oid": 3036,
      "eddy": 3037,
      "Ġexperienc": 3038,
      "Ġseems": 3039,
      "body": 3040,
      "light": 3041,
      "Ġanswer": 3042,
      "Ġstrange": 3043,
      "Ġscreen": 3044,
      "RE": 3045,
      "Ġtit": 3046,
      "Ġbase": 3047,
      "Ġtalking": 3048,
      "Ġbutterfly": 3049,
      "Ġmember": 3050,
      "Ġplayer": 3051,
      "Ġsett": 3052,
      "Ġplant": 3053,
      "Ġsales": 3054,
      "ĠPlease": 3055,
      "reme": 3056,
      "Ġband": 3057,
      "Ġworth": 3058,
      "Ġdefin": 3059,
      "Ġannoun": 3060,
      "ĠAmerica": 3061,
      "Ġdance": 3062,
      "Ġgold": 3063,
      "Ġdead": 3064,
      "Ġhy": 3065,
      "Ġhill": 3066,
      "Ġreading": 3067,
      "Ġgeneral": 3068,
      "inary": 3069,
      "Ġsou": 3070,
      "empt": 3071,
      "reg": 3072,
      "itional": 3073,
      "Ġincrease": 3074,
      "Ġterms": 3075,
      "Ġimag": 3076,
      "Ġfeature": 3077,
      "Ġeducation": 3078,
      "aughter": 3079,
      "izing": 3080,
      "Ġsecret": 3081,
      "Ġtrip": 3082,
      "earch": 3083,
      "Ġuser": 3084,
      "Ġowner": 3085,
      "ological": 3086,
      "Ġmedical": 3087,
      "Ġcross": 3088,
      "oogle": 3089,
      "Ġviol": 3090,
      "80": 3091,
      "Ġdate": 3092,
      "ospital": 3093,
      "Sh": 3094,
      "yn": 3095,
      "Ġappear": 3096,
      "Ġconsum": 3097,
      "Ġfeed": 3098,
      "Ġseemed": 3099,
      "Ġobs": 3100,
      "ades": 3101,
      "Ġdeb": 3102,
      "Ġtrack": 3103,
      "Ġreceived": 3104,
      "Ġmethod": 3105,
      "de": 3106,
      "ĠReg": 3107,
      "aturday": 3108,
      "Ġvict": 3109,
      "Ġlog": 3110,
      "Ġpolice": 3111,
      "Ġmat": 3112,
      "iction": 3113,
      "Ġcreated": 3114,
      "Ġofficial": 3115,
      "ĠDaisy": 3116,
      "bers": 3117,
      "Ã©": 3118,
      "Ġble": 3119,
      "arget": 3120,
      "Ġimpact": 3121,
      "Ġrepresent": 3122,
      "Ġnatural": 3123,
      "ĠPat": 3124,
      "Ġarticle": 3125,
      "ĠCounty": 3126,
      "Ġbigger": 3127,
      "With": 3128,
      "Ġstar": 3129,
      "Ġsaf": 3130,
      "Ġsubject": 3131,
      "ru": 3132,
      "Ġinn": 3133,
      "Ġstuff": 3134,
      "Ġaction": 3135,
      "Ġindividual": 3136,
      "Ġhol": 3137,
      "ĠAug": 3138,
      "Ġrecently": 3139,
      "Ġrecent": 3140,
      "Ġtotal": 3141,
      "ĠHar": 3142,
      "Ġnote": 3143,
      "Ġcouple": 3144,
      "Ġbath": 3145,
      "ĠBy": 3146,
      "Ġserious": 3147,
      "inger": 3148,
      "Ġsoftware": 3149,
      "Jack": 3150,
      "ĠSally": 3151,
      "Ġleaders": 3152,
      "Ġdesigned": 3153,
      "ĠSu": 3154,
      "ĠDav": 3155,
      "Ġju": 3156,
      "Ġcookies": 3157,
      "istration": 3158,
      "Ġsail": 3159,
      "Ġill": 3160,
      "Ġfre": 3161,
      "Ġassoci": 3162,
      "Ġpatient": 3163,
      "AM": 3164,
      "Ph": 3165,
      "Ġsense": 3166,
      "Ġimpress": 3167,
      "Ġemb": 3168,
      "ĠWhile": 3169,
      "Ġconcern": 3170,
      "Ġones": 3171,
      "Ġloss": 3172,
      "Ġitems": 3173,
      "ĠBo": 3174,
      "egr": 3175,
      "Ġthroughout": 3176,
      "Ġbreat": 3177,
      "Ġbike": 3178,
      "Ġsaying": 3179,
      "Ġanimal": 3180,
      "Ġhealthy": 3181,
      "Ġversion": 3182,
      "ĠPresident": 3183,
      "Ġwild": 3184,
      "Ġmount": 3185,
      "OS": 3186,
      "cy": 3187,
      "hood": 3188,
      "Ġfaster": 3189,
      "ĠMaybe": 3190,
      "cast": 3191,
      "Ġetc": 3192,
      "ĠAf": 3193,
      "Ġapplication": 3194,
      "erve": 3195,
      "ĠHouse": 3196,
      "Ġlearning": 3197,
      "OU": 3198,
      "ĠMore": 3199,
      "ĠMarch": 3200,
      "Ġgoal": 3201,
      "Ġbuilt": 3202,
      "based": 3203,
      "Ġbi": 3204,
      "ĠApril": 3205,
      "Ġconstr": 3206,
      "Ġinstr": 3207,
      "Ġsignificant": 3208,
      "atest": 3209,
      "Ġmaybe": 3210,
      "Ġdrug": 3211,
      "ederal": 3212,
      "Ġquiet": 3213,
      "ĠWeb": 3214,
      "Ġestab": 3215,
      "Ġcoun": 3216,
      "Ġeating": 3217,
      "Ġdetails": 3218,
      "Ġrecommend": 3219,
      "Ġpink": 3220,
      "Ġdom": 3221,
      "Ġpupp": 3222,
      "ulated": 3223,
      "ĠRed": 3224,
      "Ġcapt": 3225,
      "Ġopportunity": 3226,
      "Ġcause": 3227,
      "Ġled": 3228,
      "Ġprograms": 3229,
      "uth": 3230,
      "Ġcourt": 3231,
      "Ġoptions": 3232,
      "Ġchance": 3233,
      "Ġtom": 3234,
      "Ġforget": 3235,
      "Ġ2010": 3236,
      "Ġonto": 3237,
      "ĠNews": 3238,
      "ager": 3239,
      "Ġstayed": 3240,
      "Ġcurrently": 3241,
      "Ġensure": 3242,
      "unt": 3243,
      "Ġlegal": 3244,
      "60": 3245,
      "ocol": 3246,
      "Ġsold": 3247,
      "Ġprevious": 3248,
      "Ġtele": 3249,
      "ying": 3250,
      "Ġcamer": 3251,
      "ĠGrand": 3252,
      "Ġinfl": 3253,
      "Ġx": 3254,
      "iple": 3255,
      "Ġfresh": 3256,
      "Ġclick": 3257,
      "....": 3258,
      "Ġsummer": 3259,
      "ding": 3260,
      "lt": 3261,
      "ashing": 3262,
      "Ġitself": 3263,
      "Now": 3264,
      "Ġwelcome": 3265,
      "Ġnational": 3266,
      "ĠPol": 3267,
      "ĠFace": 3268,
      "ĠJim": 3269,
      "ĠChar": 3270,
      "ancy": 3271,
      "Ġattention": 3272,
      "stant": 3273,
      "ville": 3274,
      "Ġful": 3275,
      "Ġbrand": 3276,
      "ancing": 3277,
      "ufact": 3278,
      "Ġhtt": 3279,
      "Ġlion": 3280,
      "40": 3281,
      "adem": 3282,
      "ĠHere": 3283,
      "Ġ21": 3284,
      "Ġglass": 3285,
      "Ġflying": 3286,
      "oday": 3287,
      "Ġrights": 3288,
      "Ġregard": 3289,
      "Ġgrandma": 3290,
      "Ġ*": 3291,
      "Ġintrod": 3292,
      "lier": 3293,
      "ĠLila": 3294,
      "Ġpulled": 3295,
      "Ġbowl": 3296,
      "Ġstock": 3297,
      "Ġjud": 3298,
      "Ġscary": 3299,
      "Ġ40": 3300,
      "ham": 3301,
      "ĠEven": 3302,
      "Ġteacher": 3303,
      "aign": 3304,
      "lus": 3305,
      "unk": 3306,
      "unn": 3307,
      "Ġsea": 3308,
      "Ġdriver": 3309,
      "All": 3310,
      "Ġarg": 3311,
      "Ġincluded": 3312,
      "Ġdangerous": 3313,
      "haps": 3314,
      "Ġ,": 3315,
      "Ġbank": 3316,
      "Ġfine": 3317,
      "ĠAssoci": 3318,
      "Ġtrail": 3319,
      "Ġmyself": 3320,
      "ocked": 3321,
      "Ġveh": 3322,
      "Ġasks": 3323,
      "Ġlangu": 3324,
      "Ġfeet": 3325,
      "Ġexact": 3326,
      "Ġadditional": 3327,
      "kend": 3328,
      "Ġcastle": 3329,
      "aul": 3330,
      "ĠSept": 3331,
      "Ġskills": 3332,
      "ĠSoc": 3333,
      "Ġsystems": 3334,
      "Ġbrown": 3335,
      "Ġow": 3336,
      "Ġhide": 3337,
      "Ġeye": 3338,
      "Ġtick": 3339,
      "unday": 3340,
      "ĠWest": 3341,
      "Ġeasily": 3342,
      "Our": 3343,
      "mit": 3344,
      "ato": 3345,
      "ipment": 3346,
      "Ġcontrib": 3347,
      "Ġtreatment": 3348,
      "Ġmeeting": 3349,
      "Ġbirth": 3350,
      "Ġur": 3351,
      "Ġprivate": 3352,
      "Ġshoot": 3353,
      "Ġusers": 3354,
      "ĠStud": 3355,
      "Re": 3356,
      "put": 3357,
      "ipe": 3358,
      "Ġdecision": 3359,
      "Ġfeels": 3360,
      "ĠWar": 3361,
      "Ġ22": 3362,
      "Ġpeace": 3363,
      "ecause": 3364,
      "Ġfinish": 3365,
      "Ġencour": 3366,
      "itation": 3367,
      "Ġsepar": 3368,
      "Ġlives": 3369,
      "Ġsecurity": 3370,
      "Ġsafety": 3371,
      "arter": 3372,
      "ications": 3373,
      "Ġrelease": 3374,
      "ĠHigh": 3375,
      "ender": 3376,
      "Ġhungry": 3377,
      "Ġwoods": 3378,
      "Ġut": 3379,
      "orge": 3380,
      "Ġstyle": 3381,
      "Ġrole": 3382,
      "ocr": 3383,
      "Ġslowly": 3384,
      "inc": 3385,
      "Ġmention": 3386,
      "ustr": 3387,
      "Ġability": 3388,
      "Ġneck": 3389,
      "Ġhelps": 3390,
      "reng": 3391,
      "ING": 3392,
      "onday": 3393,
      "Ġfill": 3394,
      "Ġdaughter": 3395,
      "imum": 3396,
      "Ġmovie": 3397,
      "Ġrent": 3398,
      "Ġformer": 3399,
      "Ġcanc": 3400,
      "Ġaffect": 3401,
      "Ġmist": 3402,
      "icles": 3403,
      "eed": 3404,
      "ooth": 3405,
      "Ġcareer": 3406,
      "Ġgiving": 3407,
      "ext": 3408,
      "Ġlake": 3409,
      "Ġneg": 3410,
      "Ġchoice": 3411,
      "action": 3412,
      "Ġattract": 3413,
      "Cl": 3414,
      "Ġbite": 3415,
      "Ġfile": 3416,
      "enn": 3417,
      "Ġnature": 3418,
      "Ġvac": 3419,
      "istic": 3420,
      "Ġimmedi": 3421,
      "Ġfinancial": 3422,
      "Ġthinking": 3423,
      "ĠAustral": 3424,
      "rict": 3425,
      "ceed": 3426,
      "Ġprevent": 3427,
      "Ġcy": 3428,
      "Ġspark": 3429,
      "Ġwrote": 3430,
      "Ġsoci": 3431,
      "irr": 3432,
      "Ġexpress": 3433,
      "OT": 3434,
      "adu": 3435,
      "Ġblank": 3436,
      "Ġstarting": 3437,
      "ĠCalif": 3438,
      "ĠDepartment": 3439,
      "Ġsister": 3440,
      "ĠDay": 3441,
      "Ġautom": 3442,
      "ket": 3443,
      "sp": 3444,
      "Ġcases": 3445,
      "Ġemer": 3446,
      "Ġvia": 3447,
      "Ġban": 3448,
      "ĠSci": 3449,
      "Ġpolicy": 3450,
      "Ġmoral": 3451,
      "like": 3452,
      "Ġdiv": 3453,
      "Ġthrow": 3454,
      "ession": 3455,
      "Ġsus": 3456,
      "irty": 3457,
      "mon": 3458,
      "ales": 3459,
      "Ġexcept": 3460,
      "ateful": 3461,
      "Ġwritten": 3462,
      "ault": 3463,
      "min": 3464,
      "mber": 3465,
      "ĠArt": 3466,
      "Ġpotential": 3467,
      "ipp": 3468,
      "Ġlower": 3469,
      "ĠOff": 3470,
      "Ġbought": 3471,
      "Ġcaught": 3472,
      "Ġfather": 3473,
      "ĠGoogle": 3474,
      "Ġdeg": 3475,
      "Ġprior": 3476,
      "Ġinvestig": 3477,
      "21": 3478,
      "off": 3479,
      "Ġlunch": 3480,
      "Ġstreet": 3481,
      "Ġmoving": 3482,
      "Ġtarget": 3483,
      "Ġthinks": 3484,
      "Ġlevels": 3485,
      "Ġinternational": 3486,
      "Ġstuck": 3487,
      "Ġparts": 3488,
      "Ġsounds": 3489,
      "ĠSte": 3490,
      "Ġinvolved": 3491,
      "dd": 3492,
      "olution": 3493,
      "ords": 3494,
      "Ġletter": 3495,
      "Ġreported": 3496,
      "Ġforgot": 3497,
      "uel": 3498,
      "raig": 3499,
      "Ġdevice": 3500,
      "ekend": 3501,
      "onse": 3502,
      "irrel": 3503,
      "Ġlatest": 3504,
      "ĠWell": 3505,
      "Ġworried": 3506,
      "Ġapply": 3507,
      "Ġegg": 3508,
      "Ġgroups": 3509,
      "oph": 3510,
      "Ġgrowth": 3511,
      "Ġshoes": 3512,
      "Ġgar": 3513,
      "ĠSen": 3514,
      "attle": 3515,
      "Ġpowerful": 3516,
      "Ġcosts": 3517,
      "Ġaverage": 3518,
      "ĠMary": 3519,
      "Ġbusy": 3520,
      "Ġgen": 3521,
      "Ġstra": 3522,
      "ests": 3523,
      "Ġrelated": 3524,
      "Ġgun": 3525,
      "ett": 3526,
      "ĠJuly": 3527,
      "Ġpock": 3528,
      "Ġactivities": 3529,
      "Ġpurchase": 3530,
      "Ġmass": 3531,
      "Ġallows": 3532,
      "Ġrob": 3533,
      "ĠBrown": 3534,
      "ald": 3535,
      "Ġpoor": 3536,
      "Ġexplained": 3537,
      "Ġwaited": 3538,
      "Ġpuppy": 3539,
      "Ġlic": 3540,
      "Ġgas": 3541,
      "Ġaccident": 3542,
      "OM": 3543,
      "ĠAg": 3544,
      "Ġspend": 3545,
      "Ġcustomer": 3546,
      "gel": 3547,
      "imate": 3548,
      "ĠBilly": 3549,
      "ĠFacebook": 3550,
      "99": 3551,
      "Ġsort": 3552,
      "atory": 3553,
      "Ġgrateful": 3554,
      "ubb": 3555,
      "ornia": 3556,
      "ovember": 3557,
      "Ġsilly": 3558,
      "Ġ+": 3559,
      "Ġ23": 3560,
      "Ġclimbed": 3561,
      "Maybe": 3562,
      "Ġ=": 3563,
      "alt": 3564,
      "Ġsmiles": 3565,
      "Ġpressure": 3566,
      "Ġleading": 3567,
      "Ġwatching": 3568,
      "uses": 3569,
      "Ġmodern": 3570,
      "Ġpatients": 3571,
      "Ġson": 3572,
      "Ġfox": 3573,
      "enge": 3574,
      "iger": 3575,
      "ĠAre": 3576,
      "Ġnation": 3577,
      "ĠLa": 3578,
      "Ġarm": 3579,
      "Ġeverywhere": 3580,
      "Ġlistened": 3581,
      "Ġsquirrel": 3582,
      "Please": 3583,
      "arp": 3584,
      "ĠCour": 3585,
      "Ġpool": 3586,
      "Ġindepend": 3587,
      "Ġpromised": 3588,
      "Ġcredit": 3589,
      "ĠMich": 3590,
      "Ġproduction": 3591,
      "Ġadmin": 3592,
      "night": 3593,
      "usiness": 3594,
      "Ġmeant": 3595,
      "Ġamazed": 3596,
      "Ġmid": 3597,
      "Ġstates": 3598,
      "li": 3599,
      "ĠNet": 3600,
      "Ġpresident": 3601,
      "ky": 3602,
      "Ġbuck": 3603,
      "ĠSw": 3604,
      "ĠSunday": 3605,
      "ĠFriday": 3606,
      "ĠDirect": 3607,
      "Ġwaiting": 3608,
      "Ġstandard": 3609,
      "ray": 3610,
      "ĠSaturday": 3611,
      "acing": 3612,
      "Ġstars": 3613,
      "Ġstudent": 3614,
      "Ġmachine": 3615,
      "Ġaf": 3616,
      "vest": 3617,
      "itter": 3618,
      "Ġclub": 3619,
      "Ġimage": 3620,
      "Ġdownload": 3621,
      "Ġattempt": 3622,
      "Ġpred": 3623,
      "ĠSan": 3624,
      "ĠRo": 3625,
      "Ġturns": 3626,
      "ĠAugust": 3627,
      "omp": 3628,
      "Ġing": 3629,
      "Ġmine": 3630,
      "Ġbeg": 3631,
      "Ġpropos": 3632,
      "Ġsched": 3633,
      "Ġnumbers": 3634,
      "Ġoption": 3635,
      "ux": 3636,
      "Ġnut": 3637,
      "ĠAmy": 3638,
      "Ġprim": 3639,
      "Ġbroke": 3640,
      "Ġprojects": 3641,
      "just": 3642,
      "Ġhous": 3643,
      "www": 3644,
      "Ġmail": 3645,
      "Ġvill": 3646,
      "Ġsuff": 3647,
      "Ġchanged": 3648,
      "Ġdaddy": 3649,
      "rest": 3650,
      "Ġgent": 3651,
      "Ġexpected": 3652,
      "Ġcampaign": 3653,
      "Ġer": 3654,
      "Ġhospital": 3655,
      "asons": 3656,
      "uesday": 3657,
      "uk": 3658,
      "agement": 3659,
      "aches": 3660,
      "Ġexciting": 3661,
      "Ġ2014": 3662,
      "Ġresources": 3663,
      "Ġfirm": 3664,
      "enty": 3665,
      "ysis": 3666,
      "Ġriver": 3667,
      "ivery": 3668,
      "Ġmiddle": 3669,
      "ĠMon": 3670,
      "Ġplat": 3671,
      "ha": 3672,
      "Ġshot": 3673,
      "Ġcomment": 3674,
      "Ġbelong": 3675,
      "Ġspo": 3676,
      "Ġ2015": 3677,
      "Ġsuccessful": 3678,
      "ĠEnglish": 3679,
      "een": 3680,
      "icks": 3681,
      "iable": 3682,
      "pose": 3683,
      "Ġsitting": 3684,
      "Ġtour": 3685,
      "aly": 3686,
      "ĠBlack": 3687,
      "Here": 3688,
      "Ġpaid": 3689,
      "ĠDis": 3690,
      "Ġdise": 3691,
      "mercial": 3692,
      "ĠWhy": 3693,
      "Ġchalleng": 3694,
      "amb": 3695,
      "ĠTommy": 3696,
      "Ġconditions": 3697,
      "Ġcenter": 3698,
      "Ġvariety": 3699,
      "pri": 3700,
      "idents": 3701,
      "aker": 3702,
      "Ġrestaur": 3703,
      "Ġinsp": 3704,
      "Ġbasket": 3705,
      "Ġholding": 3706,
      "ĠOctober": 3707,
      "Ġnecessary": 3708,
      "OK": 3709,
      "Ġcorner": 3710,
      "Ġtools": 3711,
      "wood": 3712,
      "hern": 3713,
      "Ġintegr": 3714,
      "ĠUp": 3715,
      "Ġdifference": 3716,
      "Ġeffective": 3717,
      "ĠHealth": 3718,
      "abor": 3719,
      "Ġspread": 3720,
      "24": 3721,
      "Ġfear": 3722,
      "Ġremind": 3723,
      "Ġbehav": 3724,
      "Ġnormal": 3725,
      "ĠCalifornia": 3726,
      "vey": 3727,
      "Ġweekend": 3728,
      "Ġclients": 3729,
      "Ġmanufact": 3730,
      "Ġimm": 3731,
      "By": 3732,
      "Max": 3733,
      "Ġwife": 3734,
      "Ġoffered": 3735,
      "Ġstrugg": 3736,
      "Ġdropped": 3737,
      "ĠJanuary": 3738,
      "dom": 3739,
      "ims": 3740,
      "Ġweight": 3741,
      "ĠOb": 3742,
      "Ġmagic": 3743,
      "Ġcamera": 3744,
      "Ġstage": 3745,
      "Ġaware": 3746,
      "Ġ2017": 3747,
      "ĠInternational": 3748,
      "iring": 3749,
      "Ġplans": 3750,
      "Ġenter": 3751,
      "Ġcompletely": 3752,
      "ĠInt": 3753,
      "Ġshel": 3754,
      "Ġpartners": 3755,
      "rs": 3756,
      "Ġstreng": 3757,
      "Ġqual": 3758,
      "Ġsick": 3759,
      "Ġgrowing": 3760,
      "Ġbutton": 3761,
      "overed": 3762,
      "Ġdepend": 3763,
      "Ġjourney": 3764,
      "?âĢĿ": 3765,
      "name": 3766,
      "ym": 3767,
      "ĠFin": 3768,
      "Ġsuit": 3769,
      "Ġideas": 3770,
      "Ex": 3771,
      "icine": 3772,
      "Ġreflect": 3773,
      "uzz": 3774,
      "Ġdaily": 3775,
      "elly": 3776,
      "Ġserve": 3777,
      "Ġ60": 3778,
      "Ġequipment": 3779,
      "Ġgentle": 3780,
      "Ġspirit": 3781,
      "ĠSeptember": 3782,
      "70": 3783,
      "pite": 3784,
      "Ġreve": 3785,
      "Ġchurch": 3786,
      "Ġeval": 3787,
      "Ġbenefits": 3788,
      "uals": 3789,
      "Ġarms": 3790,
      "ĠVal": 3791,
      "ĠCommun": 3792,
      "Ġdocument": 3793,
      "mas": 3794,
      "Ġpush": 3795,
      "Ġrules": 3796,
      "Ġ28": 3797,
      "Ġchair": 3798,
      "ĠOf": 3799,
      "izz": 3800,
      "ension": 3801,
      "Ġinsurance": 3802,
      "Of": 3803,
      "hold": 3804,
      "Ġattack": 3805,
      "LE": 3806,
      "Ġep": 3807,
      "itely": 3808,
      "Ġpattern": 3809,
      "Ġrout": 3810,
      "Ġpassed": 3811,
      "field": 3812,
      "Ġsubs": 3813,
      "Ġpray": 3814,
      "ios": 3815,
      "ĠWork": 3816,
      "Ġshall": 3817,
      "Ġballoon": 3818,
      "Ġmagical": 3819,
      "Ġcandy": 3820,
      "Ġfigure": 3821,
      "Ġvot": 3822,
      "Ġphotos": 3823,
      "Ġsource": 3824,
      "Ġreleased": 3825,
      "Ġten": 3826,
      "izes": 3827,
      "phone": 3828,
      "Ġhighly": 3829,
      "Ġspeed": 3830,
      "Ġcollection": 3831,
      "Hi": 3832,
      "Ġmessage": 3833,
      "echan": 3834,
      "Ġmaterials": 3835,
      "agn": 3836,
      "Ġapproach": 3837,
      "ida": 3838,
      "ĠLaw": 3839,
      "Ġ2016": 3840,
      "Ġ2008": 3841,
      "Ġeffort": 3842,
      "box": 3843,
      "Ġstepped": 3844,
      "ĠAfric": 3845,
      "iles": 3846,
      "ston": 3847,
      "Ġscore": 3848,
      "Ġdirectly": 3849,
      "Ġlimited": 3850,
      "atives": 3851,
      "Ġlocated": 3852,
      "Ġtaste": 3853,
      "Ġign": 3854,
      "Ġpig": 3855,
      "oming": 3856,
      "ĠDem": 3857,
      ")||": 3858,
      "Ġtiny": 3859,
      "Ġsuddenly": 3860,
      "Ġlif": 3861,
      "ivity": 3862,
      "Ġdigital": 3863,
      "EO": 3864,
      "Just": 3865,
      "Ġterr": 3866,
      "ĠFirst": 3867,
      "ĠKing": 3868,
      "ĠAnn": 3869,
      "Ġ2009": 3870,
      "Ġfarmer": 3871,
      "Every": 3872,
      "Ġallowed": 3873,
      "ĠAcc": 3874,
      "Ġkiss": 3875,
      "Ġpushed": 3876,
      "Ġincred": 3877,
      "Ġmill": 3878,
      "Ġthr": 3879,
      "ĠMus": 3880,
      "Ġexcell": 3881,
      "Ġpolitical": 3882,
      "Ġstraight": 3883,
      "arc": 3884,
      "ops": 3885,
      "ĠNovember": 3886,
      "Ġhelpful": 3887,
      "Ġappeared": 3888,
      "erved": 3889,
      "ĠMonday": 3890,
      "Ġload": 3891,
      "Ġresponse": 3892,
      "Ġcrying": 3893,
      "Ġdemand": 3894,
      "Ġbottom": 3895,
      "Ġbul": 3896,
      "asc": 3897,
      "Ġeight": 3898,
      "Ġshap": 3899,
      "Ġsituation": 3900,
      "Ġ26": 3901,
      "ĠIndian": 3902,
      "Ġeventually": 3903,
      "Ð¾": 3904,
      "isions": 3905,
      "ĠBro": 3906,
      "Ġcountries": 3907,
      "Ġadvant": 3908,
      "yard": 3909,
      "Ġcode": 3910,
      "Ġpages": 3911,
      "ibly": 3912,
      "Ġesc": 3913,
      "Ġteddy": 3914,
      "apers": 3915,
      "sidered": 3916,
      "Ġmarketing": 3917,
      "ram": 3918,
      "iment": 3919,
      "Ġmiles": 3920,
      "Ġtypes": 3921,
      "Ġplatform": 3922,
      "AP": 3923,
      "ris": 3924,
      "Ġship": 3925,
      "ivil": 3926,
      "Ġlocation": 3927,
      "ses": 3928,
      "aries": 3929,
      "apan": 3930,
      "ĠRead": 3931,
      "ĠAdd": 3932,
      "EC": 3933,
      "ĠCons": 3934,
      "Ġcreative": 3935,
      "ael": 3936,
      "Ġver": 3937,
      "Ġmicro": 3938,
      "Ġyard": 3939,
      "Ġarch": 3940,
      "Ġstructure": 3941,
      "ĠFlor": 3942,
      "Ġlanguage": 3943,
      "Craig": 3944,
      "erry": 3945,
      "Ġmobile": 3946,
      "vered": 3947,
      "Ġinterview": 3948,
      "cil": 3949,
      "Ġrare": 3950,
      "ĠStr": 3951,
      "Ġinterested": 3952,
      "Ġreturned": 3953,
      "23": 3954,
      "Ġcorrect": 3955,
      "ography": 3956,
      "ration": 3957,
      "Ġmis": 3958,
      "arn": 3959,
      "ements": 3960,
      "Ġorganiz": 3961,
      "ĠHel": 3962,
      "bruary": 3963,
      "Ġpublished": 3964,
      "Okay": 3965,
      "yl": 3966,
      "ĠMolly": 3967,
      "ube": 3968,
      "Ġimplement": 3969,
      "Ġbroad": 3970,
      "ursday": 3971,
      "ĠJill": 3972,
      "Ġseek": 3973,
      "Ġcollege": 3974,
      "ences": 3975,
      "Ġeffects": 3976,
      "ĠPM": 3977,
      "estern": 3978,
      "Ġcolorful": 3979,
      "ĠAssociation": 3980,
      "band": 3981,
      "Ġtag": 3982,
      "Ġexerc": 3983,
      "Ġglobal": 3984,
      "Ġinstit": 3985,
      "Ġeffic": 3986,
      "1916": 3987,
      "Ġhttp": 3988,
      "ped": 3989,
      "Ġthrew": 3990,
      "Ġconsidered": 3991,
      "Ġdevices": 3992,
      "Ġpretend": 3993,
      "Ġnearby": 3994,
      "reci": 3995,
      "Ġtower": 3996,
      "onstr": 3997,
      "Ġheat": 3998,
      "olute": 3999,
      "Ġproviding": 4000,
      "Ġfruit": 4001,
      "Ġconsist": 4002,
      "athe": 4003,
      "Ġdeliver": 4004,
      "Ġphysical": 4005,
      "Ġsmooth": 4006,
      "Ġdragon": 4007,
      "Ġbalance": 4008,
      "ocolate": 4009,
      "BC": 4010,
      "fl": 4011,
      "Ġswe": 4012,
      "ednes": 4013,
      "ĠAc": 4014,
      "ounds": 4015,
      "Ġpocket": 4016,
      "pen": 4017,
      "Ġthous": 4018,
      "ado": 4019,
      "Ġ27": 4020,
      "Ġgoals": 4021,
      "ĠProf": 4022,
      "Ġneighbor": 4023,
      "Ġhour": 4024,
      "Ġseat": 4025,
      "While": 4026,
      "ĠRepublic": 4027,
      "Ġcomfortable": 4028,
      "Ġpow": 4029,
      "ĠWind": 4030,
      "Ġking": 4031,
      "ecutive": 4032,
      "Ġfat": 4033,
      "venue": 4034,
      "Ġradio": 4035,
      "Ġimages": 4036,
      "Ġnearly": 4037,
      "Ġveget": 4038,
      "Ġexactly": 4039,
      "Ġfederal": 4040,
      "ĠSim": 4041,
      "ulations": 4042,
      "Ġconvers": 4043,
      "ĠOut": 4044,
      "Ġguess": 4045,
      "Ġsen": 4046,
      "Ġcart": 4047,
      "Ġorange": 4048,
      "Ġcovered": 4049,
      "idden": 4050,
      "LL": 4051,
      "ĠTuesday": 4052,
      "atever": 4053,
      "Ġcarr": 4054,
      "Ġpositive": 4055,
      "Ġearlier": 4056,
      "Ġhoped": 4057,
      "wise": 4058,
      "yond": 4059,
      "ometimes": 4060,
      "Ġhotel": 4061,
      "bl": 4062,
      "Ġahead": 4063,
      "Ġsection": 4064,
      "raid": 4065,
      "ĠInst": 4066,
      "Ġindic": 4067,
      "Ġmilk": 4068,
      "ĠÂ£": 4069,
      "Ġmultiple": 4070,
      "ĠDavid": 4071,
      "Ġharm": 4072,
      "Ġdirty": 4073,
      "Ġsharing": 4074,
      "uments": 4075,
      "roup": 4076,
      "Ġuses": 4077,
      "Ġtreasure": 4078,
      "ength": 4079,
      "Ġfold": 4080,
      "omen": 4081,
      "Ġlaws": 4082,
      "hol": 4083,
      "Ġprogress": 4084,
      "Ġadult": 4085,
      "Ġtrade": 4086,
      "Ġmonster": 4087,
      "Ġexpensive": 4088,
      "bow": 4089,
      "ĠPeter": 4090,
      "Ġprec": 4091,
      "ashion": 4092,
      "Ġculture": 4093,
      "mp": 4094,
      "ilies": 4095,
      "Ġrev": 4096,
      "Ġagre": 4097,
      "Ġcondition": 4098,
      "Ġdrove": 4099,
      "Ġprincess": 4100,
      "bur": 4101,
      "rench": 4102,
      "Ġbench": 4103,
      "Ġsongs": 4104,
      "ET": 4105,
      "mark": 4106,
      "vin": 4107,
      "ittee": 4108,
      "udget": 4109,
      "Ġexploring": 4110,
      "Sure": 4111,
      "cean": 4112,
      "ĠDel": 4113,
      "Ġhang": 4114,
      "ĠPost": 4115,
      "Ġafraid": 4116,
      "imately": 4117,
      "ĠBu": 4118,
      "âĢĿ.": 4119,
      "ĠThom": 4120,
      "Ġprices": 4121,
      "Ġapple": 4122,
      "Ġachieve": 4123,
      "inated": 4124,
      "Ġshown": 4125,
      "Ġupset": 4126,
      "arant": 4127,
      "Ġlift": 4128,
      "Ġearth": 4129,
      "Ġcomplex": 4130,
      "Ġextreme": 4131,
      "ĠTHE": 4132,
      "rast": 4133,
      "Ġbill": 4134,
      "Ġded": 4135,
      "ĠJe": 4136,
      "Ġresist": 4137,
      "Ġknows": 4138,
      "Ġlovely": 4139,
      "Finally": 4140,
      "iber": 4141,
      "see": 4142,
      "Ġarr": 4143,
      "Ġtwins": 4144,
      "example": 4145,
      "Ġdolls": 4146,
      "AD": 4147,
      "ĠUs": 4148,
      "Ġ198": 4149,
      "Ġdelivery": 4150,
      "Ġasking": 4151,
      "ĠCollege": 4152,
      "ednesday": 4153,
      "ND": 4154,
      "Ġplaced": 4155,
      "Ġnose": 4156,
      "Ġbranch": 4157,
      "Ġdecor": 4158,
      "Ġremain": 4159,
      "Ġolder": 4160,
      "Ġtrouble": 4161,
      "down": 4162,
      "ference": 4163,
      "ĠTheir": 4164,
      "Ġplants": 4165,
      "ĠStreet": 4166,
      "Ġbeginning": 4167,
      "ns": 4168,
      "Ġsect": 4169,
      "arily": 4170,
      "aled": 4171,
      "ĠâĢ¦": 4172,
      "Ġcapital": 4173,
      "Ġphoto": 4174,
      "Ġhonest": 4175,
      "Ġtitle": 4176,
      "Ġingred": 4177,
      "nown": 4178,
      "Ġrub": 4179,
      "Ġrespond": 4180,
      "Ġsites": 4181,
      "Ġmechan": 4182,
      "ĠCle": 4183,
      "Ġkill": 4184,
      "Ġadvice": 4185,
      "Ġbrain": 4186,
      "Ġappreci": 4187,
      "ĠDecember": 4188,
      "ted": 4189,
      "ĠSch": 4190,
      "house": 4191,
      "Ġbillion": 4192,
      "Ġcute": 4193,
      "elling": 4194,
      "Ġmyster": 4195,
      "Ġincome": 4196,
      "Ġsolution": 4197,
      "Ġinvestment": 4198,
      "Ġparticularly": 4199,
      "Ġinnov": 4200,
      "Ġpros": 4201,
      "Ġreports": 4202,
      "Ġfully": 4203,
      "mission": 4204,
      "ĠHall": 4205,
      "ondon": 4206,
      "Ġdelight": 4207,
      "Ġmotor": 4208,
      "Ġwearing": 4209,
      "Ġorganization": 4210,
      "Ġfan": 4211,
      "ĠAut": 4212,
      "ffee": 4213,
      "Ġunderstanding": 4214,
      "Ġnotice": 4215,
      "Ġprefer": 4216,
      "Ġblanket": 4217,
      "ĠTechn": 4218,
      "Ġscience": 4219,
      "kin": 4220,
      "itary": 4221,
      "ĠTex": 4222,
      "ĠBusiness": 4223,
      "Ġseven": 4224,
      "Ġowners": 4225,
      "undred": 4226,
      "Ġcharge": 4227,
      "Ġtalked": 4228,
      "Ġlone": 4229,
      "uted": 4230,
      "ĠGreen": 4231,
      "ugar": 4232,
      "IG": 4233,
      "Un": 4234,
      "hest": 4235,
      "Ġwings": 4236,
      "Ġtow": 4237,
      "Ġ29": 4238,
      "Ġloves": 4239,
      "vention": 4240,
      "Ġuseful": 4241,
      "Ġrelax": 4242,
      "Ġfamous": 4243,
      "Ġbread": 4244,
      "Ġforce": 4245,
      "ĠRem": 4246,
      "ibr": 4247,
      "Ġannounced": 4248,
      "Ġconcept": 4249,
      "Ġaward": 4250,
      "Ġsinging": 4251,
      "Ġsteps": 4252,
      "nces": 4253,
      "Ġaltern": 4254,
      "ĠDan": 4255,
      "Ġframe": 4256,
      "Ġcorpor": 4257,
      "):": 4258,
      "ION": 4259,
      "ĠMor": 4260,
      "Ġrates": 4261,
      "Ġobt": 4262,
      "useum": 4263,
      "Ġdefinitely": 4264,
      "Ġjuice": 4265,
      "Ġfa": 4266,
      "Ġtouc": 4267,
      "ĠFree": 4268,
      "ĠGener": 4269,
      "27": 4270,
      "aching": 4271,
      "Ġstatement": 4272,
      "Ġemployees": 4273,
      "ishes": 4274,
      "Ġsatis": 4275,
      "Ġthreat": 4276,
      "Ġemot": 4277,
      "Ġsurround": 4278,
      "Ġavoid": 4279,
      "Ġpurpose": 4280,
      "Ġincreasing": 4281,
      "Ġoccur": 4282,
      "uing": 4283,
      "Ġcateg": 4284,
      "ams": 4285,
      "andy": 4286,
      "Ġ2020": 4287,
      "cient": 4288,
      "ĠFluffy": 4289,
      "lies": 4290,
      "Ġfans": 4291,
      "Ġoverall": 4292,
      "Ġfunct": 4293,
      "Ġsmaller": 4294,
      "ĠBrit": 4295,
      "Ġdistrib": 4296,
      "Ġproced": 4297,
      "Ġhorse": 4298,
      "Ġimmediately": 4299,
      "Ġboo": 4300,
      "Ġcomments": 4301,
      "ĠRob": 4302,
      "Ġrelig": 4303,
      "Ġbusinesses": 4304,
      "Ġteams": 4305,
      "Ġcreating": 4306,
      "Ġdrop": 4307,
      "Ġdoub": 4308,
      "Me": 4309,
      "Well": 4310,
      "Ġlucky": 4311,
      "ĠPaul": 4312,
      "Ġeasier": 4313,
      "igg": 4314,
      "sequ": 4315,
      "rief": 4316,
      "ĠProgram": 4317,
      "Ġapplications": 4318,
      "Ġtemper": 4319,
      "mm": 4320,
      "emon": 4321,
      "Ġcommercial": 4322,
      "Ġperhaps": 4323,
      "ĠAlso": 4324,
      "Ġdeveloped": 4325,
      "Ġtells": 4326,
      "28": 4327,
      "35": 4328,
      "Ġcas": 4329,
      "Ġstret": 4330,
      "ĠUK": 4331,
      "ĠChina": 4332,
      "ashington": 4333,
      "imed": 4334,
      "ĠIN": 4335,
      "Ġstream": 4336,
      "ĠCome": 4337,
      "Ġlock": 4338,
      "Ġchick": 4339,
      "azine": 4340,
      "Ġmanaged": 4341,
      "Ġcertainly": 4342,
      "Ġinflu": 4343,
      "bon": 4344,
      "gl": 4345,
      "Ġtal": 4346,
      "Ġult": 4347,
      "ĠCoun": 4348,
      "Ġadvert": 4349,
      "Ġtruth": 4350,
      "ĠOther": 4351,
      "Ġprem": 4352,
      "Ġdecide": 4353,
      "Ġslight": 4354,
      "Ġrocks": 4355,
      "Ġwine": 4356,
      "Ġbiggest": 4357,
      "Ġsurface": 4358,
      "ĠService": 4359,
      "Is": 4360,
      "vant": 4361,
      "ĠMost": 4362,
      "ĠGood": 4363,
      "Ġcompleted": 4364,
      "Not": 4365,
      "Ġpal": 4366,
      "asures": 4367,
      "Ġstorm": 4368,
      "ously": 4369,
      "Ġdriving": 4370,
      "Ġadventures": 4371,
      "Ġdisease": 4372,
      "Bob": 4373,
      "uits": 4374,
      "Ġwise": 4375,
      "Ġlines": 4376,
      "Ġincreased": 4377,
      "Ġopportunities": 4378,
      "PS": 4379,
      "ĠMicro": 4380,
      "Ġrich": 4381,
      "Ġfrequ": 4382,
      "Ġvehicle": 4383,
      "Ġlonely": 4384,
      "Ġ@": 4385,
      "Ġforever": 4386,
      "Ġactivity": 4387,
      "ĠInternet": 4388,
      "Ġcash": 4389,
      "change": 4390,
      "Ġcheese": 4391,
      "ĠPlay": 4392,
      "ĠSuper": 4393,
      "ica": 4394,
      "Ġrat": 4395,
      "Ġdirector": 4396,
      "Ġsoup": 4397,
      "Ġstation": 4398,
      "ĠJapan": 4399,
      "Ġflav": 4400,
      "Ġguys": 4401,
      "wide": 4402,
      "ertain": 4403,
      "Ġannual": 4404,
      "Ġhistor": 4405,
      "fast": 4406,
      "ĠAM": 4407,
      "Ġwhose": 4408,
      "Ġcray": 4409,
      "ĠCanada": 4410,
      "Ġswimming": 4411,
      "Ġresponsible": 4412,
      "90": 4413,
      "Sp": 4414,
      "Ġtoug": 4415,
      "Ġmaster": 4416,
      "istry": 4417,
      "Ġfamilies": 4418,
      "Ġsupply": 4419,
      "Ġ2007": 4420,
      "Ġmax": 4421,
      "Ġclin": 4422,
      "Ġscr": 4423,
      "Ġthanks": 4424,
      "Ġfairy": 4425,
      "Ġbottle": 4426,
      "ĠWilliam": 4427,
      "ander": 4428,
      "soft": 4429,
      "Ġreduce": 4430,
      "Ġflex": 4431,
      "Ġpromise": 4432,
      "Ġchallenge": 4433,
      "Ġexcellent": 4434,
      "New": 4435,
      "reamed": 4436,
      "Ġfem": 4437,
      "adow": 4438,
      "Ġund": 4439,
      "Ġdesk": 4440,
      "Ġopening": 4441,
      "Ġplanning": 4442,
      "Ġeconomic": 4443,
      "Ġnest": 4444,
      "roy": 4445,
      "Ġweak": 4446,
      "âĢ¢âĢ¢": 4447,
      "Ġabsolute": 4448,
      "oly": 4449,
      "Ġcab": 4450,
      "Ġnames": 4451,
      "ether": 4452,
      "ĠAir": 4453,
      "Ġcolour": 4454,
      "Ġmovement": 4455,
      "ĠIndia": 4456,
      "Ġanalysis": 4457,
      "stitute": 4458,
      "Ġthick": 4459,
      "Ġcompared": 4460,
      "Ġstanding": 4461,
      "Ġappropri": 4462,
      "Ġsquare": 4463,
      "Ġfixed": 4464,
      "iation": 4465,
      "Ġmad": 4466,
      "ĠLondon": 4467,
      "ĠGold": 4468,
      "Ġjobs": 4469,
      "ĠCourt": 4470,
      "vision": 4471,
      "Ðµ": 4472,
      "Ġwww": 4473,
      "Ġlibr": 4474,
      "Ġshowing": 4475,
      "Ġgreater": 4476,
      "Ġschools": 4477,
      "sych": 4478,
      "Ġalthough": 4479,
      "ĠJames": 4480,
      "Ġassess": 4481,
      "Ġdisappoint": 4482,
      "ĠScience": 4483,
      "pm": 4484,
      "oms": 4485,
      "Ġlose": 4486,
      "Ġteach": 4487,
      "Ġcalling": 4488,
      "Ġprofession": 4489,
      "ronic": 4490,
      "Ġtraditional": 4491,
      "tr": 4492,
      "Ġhundred": 4493,
      "Ġsharp": 4494,
      "Ġleaving": 4495,
      "Ġsetting": 4496,
      "Ġbenefit": 4497,
      "ĠGeorge": 4498,
      "Ġestabl": 4499,
      "II": 4500,
      "Ġboun": 4501,
      "Ġhaven": 4502,
      "Ġeleph": 4503,
      "ĠFlorida": 4504,
      "iance": 4505,
      "oved": 4506,
      "Ġter": 4507,
      "Ġtank": 4508,
      "ĠBig": 4509,
      "Ġring": 4510,
      "ĠPet": 4511,
      "Ġguy": 4512,
      "Ġexpert": 4513,
      "Ġrequirements": 4514,
      "Ġnap": 4515,
      "Ġgirls": 4516,
      "Ġcarried": 4517,
      "Ġproduc": 4518,
      "ĠWhite": 4519,
      "ĠChristmas": 4520,
      "Ġfinger": 4521,
      "ĠHome": 4522,
      "Ġaren": 4523,
      "Ġcalls": 4524,
      "Ġindependent": 4525,
      "45": 4526,
      "overy": 4527,
      "Ġpill": 4528,
      "ĠIS": 4529,
      "Ġquarter": 4530,
      "Ġregion": 4531,
      "Ġpointed": 4532,
      "ĠChristian": 4533,
      "ĠDesign": 4534,
      "asy": 4535,
      "Ġshook": 4536,
      "Ġvan": 4537,
      "Ġjun": 4538,
      "Ġflo": 4539,
      "Ġleader": 4540,
      "Ġbasic": 4541,
      "75": 4542,
      "Good": 4543,
      "Ġsale": 4544,
      "Ġinform": 4545,
      "ellig": 4546,
      "ĠTrans": 4547,
      "ĠEduc": 4548,
      "Ġshapes": 4549,
      "Ġwed": 4550,
      "Ġfence": 4551,
      "Ġevening": 4552,
      "ĠProd": 4553,
      "Ġstrength": 4554,
      "vis": 4555,
      "Ġcave": 4556,
      "aser": 4557,
      "atively": 4558,
      "ait": 4559,
      "fortun": 4560,
      "Ġstress": 4561,
      "Ġjew": 4562,
      "ĠGreat": 4563,
      "Ġrelie": 4564,
      "Ġacqu": 4565,
      "Ġmodels": 4566,
      "ĠBlue": 4567,
      "Ġpromot": 4568,
      "TH": 4569,
      "ashed": 4570,
      "roc": 4571,
      "Ġkite": 4572,
      "ĠThursday": 4573,
      "order": 4574,
      "Ġsurv": 4575,
      "Ġspring": 4576,
      "arian": 4577,
      "Ġlack": 4578,
      "oto": 4579,
      "ĠBel": 4580,
      "Ġaspect": 4581,
      "ulate": 4582,
      "using": 4583,
      "ĠEast": 4584,
      "ogether": 4585,
      "Ġindividuals": 4586,
      "Ġbreath": 4587,
      "Mia": 4588,
      "à¤": 4589,
      "Ġbeyond": 4590,
      "Ġstood": 4591,
      "ifts": 4592,
      "These": 4593,
      "Ġmeaning": 4594,
      "force": 4595,
      "lin": 4596,
      "net": 4597,
      "unte": 4598,
      "Ġclient": 4599,
      "Ġfinding": 4600,
      "Ġdogs": 4601,
      "Ġdistance": 4602,
      "Ġtaught": 4603,
      "Ġsang": 4604,
      "ĠSur": 4605,
      "ago": 4606,
      "Ġchocolate": 4607,
      "ĠGet": 4608,
      "Ġcontain": 4609,
      "Ġactive": 4610,
      "Ġconsult": 4611,
      "ĠEmma": 4612,
      "Ġdegree": 4613,
      "Ġliter": 4614,
      "ĠWashington": 4615,
      "Ġshr": 4616,
      "Ġoffering": 4617,
      "Ġserved": 4618,
      "Ġ2006": 4619,
      "ĠSpec": 4620,
      "Ġmanager": 4621,
      "iers": 4622,
      "Ġfaces": 4623,
      "Ġmap": 4624,
      "ĠAny": 4625,
      "ĠFebruary": 4626,
      "ĠMod": 4627,
      "ĠFound": 4628,
      "Ġflag": 4629,
      "otted": 4630,
      "itic": 4631,
      "Ġdecl": 4632,
      "Ġcrow": 4633,
      "Ġproduce": 4634,
      "Ġguide": 4635,
      "Ġwondered": 4636,
      "CT": 4637,
      "ties": 4638,
      "itors": 4639,
      "ĠAv": 4640,
      "ĠRuss": 4641,
      "apter": 4642,
      "ampions": 4643,
      "Hey": 4644,
      "Ġfighting": 4645,
      "Ġadvantage": 4646,
      "ey": 4647,
      "fit": 4648,
      "Ġlands": 4649,
      "illa": 4650,
      "Ġhappens": 4651,
      "Ġmonkey": 4652,
      "Ġlaughing": 4653,
      "ervation": 4654,
      "Ġanaly": 4655,
      "pa": 4656,
      "itiz": 4657,
      "itude": 4658,
      "Ġ2019": 4659,
      "Ġclapped": 4660,
      "Some": 4661,
      "Ġsem": 4662,
      "Ġoven": 4663,
      "Ġcoo": 4664,
      "Ġgra": 4665,
      "Ġplane": 4666,
      "ĠPort": 4667,
      "ĠJes": 4668,
      "Ġloan": 4669,
      "Ġseeing": 4670,
      "ĠReview": 4671,
      "Ġcancer": 4672,
      "Ġblow": 4673,
      "iture": 4674,
      "isa": 4675,
      "ĠToday": 4676,
      "ĠFinally": 4677,
      "Ġfunction": 4678,
      "Ġtomorrow": 4679,
      "EL": 4680,
      "icip": 4681,
      "itty": 4682,
      "lete": 4683,
      "Ġcheered": 4684,
      "ĠClick": 4685,
      "Ġsociety": 4686,
      "Ġvillage": 4687,
      "Ġtouched": 4688,
      "26": 4689,
      "care": 4690,
      "Ġtend": 4691,
      "Ġreasons": 4692,
      "amm": 4693,
      "ĠAnt": 4694,
      "ĠMatt": 4695,
      "ĠTexas": 4696,
      "Ġocean": 4697,
      "Ġfurn": 4698,
      "ĠMag": 4699,
      "estival": 4700,
      "Ġspin": 4701,
      "Ġempt": 4702,
      "Ġtraffic": 4703,
      "Ġowl": 4704,
      "ford": 4705,
      "Ġwave": 4706,
      "orage": 4707,
      "Ġcoffee": 4708,
      "Ġlargest": 4709,
      "oices": 4710,
      "Ġcra": 4711,
      "ĠGroup": 4712,
      "Ġenh": 4713,
      "ĠServices": 4714,
      "Ġsust": 4715,
      "ĠSpr": 4716,
      "amic": 4717,
      "Ġjar": 4718,
      "akers": 4719,
      "Ġattend": 4720,
      "Ġdiscover": 4721,
      "Ġsolutions": 4722,
      "ĠDaddy": 4723,
      "Ġfootball": 4724,
      "ĠMarket": 4725,
      "Ġbucket": 4726,
      "ĠTra": 4727,
      "Ġwash": 4728,
      "iven": 4729,
      "ĠDevelop": 4730,
      "ĠBill": 4731,
      "Ġmanage": 4732,
      "reek": 4733,
      "Ġbackyard": 4734,
      "Ġafford": 4735,
      "ĠApple": 4736,
      "100": 4737,
      "ĠÐ": 4738,
      "iling": 4739,
      "Ġshut": 4740,
      "Ġnoises": 4741,
      "encies": 4742,
      "Go": 4743,
      "iest": 4744,
      "het": 4745,
      "Ġburn": 4746,
      "ĠAss": 4747,
      "Ġadjust": 4748,
      "inate": 4749,
      "Ġsugar": 4750,
      "Ġgiant": 4751,
      "Ġopin": 4752,
      "Ġpin": 4753,
      "Ġdied": 4754,
      "ĠTre": 4755,
      "ĠSee": 4756,
      "Ġisland": 4757,
      "ategy": 4758,
      "Ġkid": 4759,
      "Ġscient": 4760,
      "Ġroof": 4761,
      "Ġteeth": 4762,
      "Ġteaching": 4763,
      "ĠBoard": 4764,
      "Ġden": 4765,
      "ico": 4766,
      "term": 4767,
      "Ġsear": 4768,
      "Ġdouble": 4769,
      "Ġexisting": 4770,
      "aked": 4771,
      "Ġwoke": 4772,
      "ero": 4773,
      "Ġnaught": 4774,
      "ĠAlex": 4775,
      "Ġdev": 4776,
      "Ġpopulation": 4777,
      "Ġbirthday": 4778,
      "Where": 4779,
      "Your": 4780,
      "men": 4781,
      "Ġpair": 4782,
      "Ġlit": 4783,
      "ils": 4784,
      "ĠPress": 4785,
      "Ġpartner": 4786,
      "Ġstrateg": 4787,
      "Ġoccas": 4788,
      "ĠSmith": 4789,
      "Ġingredients": 4790,
      "tle": 4791,
      "Ġfab": 4792,
      "ĠMany": 4793,
      "istics": 4794,
      "Ġgradu": 4795,
      "Ġcompetition": 4796,
      "CH": 4797,
      "Gr": 4798,
      "ker": 4799,
      "Ġgrew": 4800,
      "29": 4801,
      "lied": 4802,
      "Ġbudget": 4803,
      "Ġcore": 4804,
      "ĠGerm": 4805,
      "Ġtruly": 4806,
      "Ġstarts": 4807,
      "Ġended": 4808,
      "Ġmissed": 4809,
      "Ġpackage": 4810,
      "Ġdamage": 4811,
      "right": 4812,
      "Ġwealth": 4813,
      "antic": 4814,
      "ĠOffice": 4815,
      "Ġbehavior": 4816,
      "ening": 4817,
      "ĠCamp": 4818,
      "Ġshape": 4819,
      "osure": 4820,
      "UR": 4821,
      "isl": 4822,
      "iled": 4823,
      "ĠHot": 4824,
      "Ġwhatever": 4825,
      "ĠâĢ¢": 4826,
      "Ġknowing": 4827,
      "Ġcoach": 4828,
      "ighter": 4829,
      "Ġ2018": 4830,
      "Ġrepe": 4831,
      "Ġchem": 4832,
      "Ġcandid": 4833,
      "Ġhappening": 4834,
      "ĠPeople": 4835,
      "ĠAustralia": 4836,
      "han": 4837,
      "Ġbee": 4838,
      "ĠBook": 4839,
      "ĠWednesday": 4840,
      "ĠEach": 4841,
      "coming": 4842,
      "Ġbasis": 4843,
      "shine": 4844,
      "add": 4845,
      "ĠMart": 4846,
      "ĠMiss": 4847,
      "Ġweather": 4848,
      "Ġsunny": 4849,
      "Ġdemonstr": 4850,
      "Ġreviews": 4851,
      "ĠThomas": 4852,
      "AA": 4853,
      "met": 4854,
      "with": 4855,
      "Ġbatter": 4856,
      "aming": 4857,
      "ĠEv": 4858,
      "ĠOver": 4859,
      "ologies": 4860,
      "Ġgenerally": 4861,
      "Ġtrend": 4862,
      "Ġassociated": 4863,
      "Ġorganizations": 4864,
      "Lila": 4865,
      "Ġtoward": 4866,
      "que": 4867,
      "ĠInter": 4868,
      "Ġinstruct": 4869,
      "33": 4870,
      "Are": 4871,
      "cing": 4872,
      "Ġ<": 4873,
      "ota": 4874,
      "Ġshipping": 4875,
      "Ġposted": 4876,
      "Ġprotection": 4877,
      "ĠMichael": 4878,
      "Ġnaughty": 4879,
      "Or": 4880,
      "hy": 4881,
      "Ġhus": 4882,
      "ĠTweet": 4883,
      "Ġgain": 4884,
      "iders": 4885,
      "Ġ31": 4886,
      "Ġexpand": 4887,
      "__": 4888,
      "gal": 4889,
      "acity": 4890,
      "ros": 4891,
      "rial": 4892,
      "Ġspending": 4893,
      "Ġaccur": 4894,
      "Ġedge": 4895,
      "Ġevidence": 4896,
      "Ġobvious": 4897,
      "Ġmission": 4898,
      "Ġrainbow": 4899,
      "Ġcaused": 4900,
      "well": 4901,
      "Â®": 4902,
      "Ġhar": 4903,
      "Ġthin": 4904,
      "Ġbeat": 4905,
      "Ġagree": 4906,
      "Ġunderst": 4907,
      "Ġfrustr": 4908,
      "Ġconference": 4909,
      "CC": 4910,
      "Ġwra": 4911,
      "osis": 4912,
      "actions": 4913,
      "Ġputting": 4914,
      "Ġacadem": 4915,
      "Ġjoined": 4916,
      "ĠResearch": 4917,
      "Ġhidden": 4918,
      "umn": 4919,
      "Ġswings": 4920,
      "ĠClass": 4921,
      "Ġstatus": 4922,
      "Ġmemory": 4923,
      "gency": 4924,
      "asp": 4925,
      "entially": 4926,
      "Ġworkers": 4927,
      "arsh": 4928,
      "Ġrestaurant": 4929,
      "opping": 4930,
      "rian": 4931,
      "Ġwhist": 4932,
      "Ġrough": 4933,
      "lla": 4934,
      "Ġmedicine": 4935,
      "Ġrolled": 4936,
      "Ġeconomy": 4937,
      "OL": 4938,
      "ads": 4939,
      "ĠHist": 4940,
      "ĠPri": 4941,
      "Ġkick": 4942,
      "ails": 4943,
      "Ġputs": 4944,
      "Ġguarant": 4945,
      "Ġkeeping": 4946,
      "Ġbeauty": 4947,
      "cription": 4948,
      "Ġupdate": 4949,
      "ĠDemocr": 4950,
      "Ab": 4951,
      "OW": 4952,
      "new": 4953,
      "ĠMac": 4954,
      "ĠAngel": 4955,
      "Ġhandle": 4956,
      "Ġwheel": 4957,
      "Ġincredible": 4958,
      "More": 4959,
      "ga": 4960,
      "olic": 4961,
      "ĠFrench": 4962,
      "Ġselection": 4963,
      "Ġiniti": 4964,
      "ĠRich": 4965,
      "place": 4966,
      "Ġcozy": 4967,
      "Ġpurple": 4968,
      "Ġcraw": 4969,
      "Ġcards": 4970,
      "uman": 4971,
      "Ġlegs": 4972,
      "ĠSometimes": 4973,
      "ĠEnd": 4974,
      "Ġtea": 4975,
      "Ġdiscovered": 4976,
      "Ġbedroom": 4977,
      "Ġfaith": 4978,
      "noon": 4979,
      "yal": 4980,
      "esome": 4981,
      "ĠOF": 4982,
      "hips": 4983,
      "Ġefforts": 4984,
      "Ġrefer": 4985,
      "Ġfavour": 4986,
      "ĠEngine": 4987,
      "yright": 4988,
      "flow": 4989,
      "Ġpuzz": 4990,
      "ena": 4991,
      "Ġlength": 4992,
      "ĠBest": 4993,
      "terday": 4994,
      "alls": 4995,
      "ĠYes": 4996,
      "Ġbecomes": 4997,
      "ĠIsland": 4998,
      "Ġseparate": 4999,
      "Ġempty": 5000,
      "ij": 5001,
      "known": 5002,
      "mpt": 5003,
      "aling": 5004,
      "Ġswam": 5005,
      "Ġcircuit": 5006,
      "Ġconnection": 5007,
      "ĠSystem": 5008,
      "Ġconstruction": 5009,
      "500": 5010,
      "ban": 5011,
      "Ġbackground": 5012,
      "Ġcentral": 5013,
      "Ġshopping": 5014,
      "Ġdetermined": 5015,
      "Phone": 5016,
      "Come": 5017,
      "cont": 5018,
      "ĠSub": 5019,
      "Ġwindows": 5020,
      "Ġoppos": 5021,
      "ĠLeague": 5022,
      "reedom": 5023,
      "Ġsandw": 5024,
      "Ġcopy": 5025,
      "sey": 5026,
      "ĠInside": 5027,
      "Ġhugs": 5028,
      "ĠPhil": 5029,
      "IM": 5030,
      "ĠStar": 5031,
      "Ġcommit": 5032,
      "iverse": 5033,
      "ĠManagement": 5034,
      "ĠEuropean": 5035,
      "Ġbathroom": 5036,
      "ĠObama": 5037,
      "Ad": 5038,
      "OV": 5039,
      "ST": 5040,
      "Ġhighest": 5041,
      "ĠOnce": 5042,
      "ittens": 5043,
      "Ġtough": 5044,
      "Br": 5045,
      "ette": 5046,
      "Ġstone": 5047,
      "Ġwhenever": 5048,
      "Ġinjury": 5049,
      "friend": 5050,
      "oons": 5051,
      "ums": 5052,
      "ĠAtt": 5053,
      "Ġwalls": 5054,
      "Ġclaims": 5055,
      "Ġmountain": 5056,
      "oe": 5057,
      "part": 5058,
      "rey": 5059,
      "Ġhoney": 5060,
      "Ġmur": 5061,
      "imal": 5062,
      "ĠPal": 5063,
      "Ġstandards": 5064,
      "Ġchallenges": 5065,
      "Ġelephant": 5066,
      "Pro": 5067,
      "ixt": 5068,
      "Ġfant": 5069,
      "ĠLook": 5070,
      "Ġcompon": 5071,
      "Ġanywhere": 5072,
      "Ġmissing": 5073,
      "Ġdetermine": 5074,
      "ĠWindows": 5075,
      "Ġcivil": 5076,
      "ari": 5077,
      "vere": 5078,
      "ĠInformation": 5079,
      "Ġserver": 5080,
      "Ġproduced": 5081,
      "pective": 5082,
      "cohol": 5083,
      "\",": 5084,
      "DA": 5085,
      "Ġfashion": 5086,
      "ushing": 5087,
      "Ġaudience": 5088,
      "Ġmentioned": 5089,
      "ĠCouncil": 5090,
      "Ġterri": 5091,
      "erg": 5092,
      "Ġtor": 5093,
      "irgin": 5094,
      "ĠCong": 5095,
      "Ġunit": 5096,
      "Ġsunshine": 5097,
      "Ġsigns": 5098,
      "standing": 5099,
      "Ġjournal": 5100,
      "Ġagreement": 5101,
      "gn": 5102,
      "Ġtherap": 5103,
      "Ġpudd": 5104,
      "ĠTime": 5105,
      "ĠSupp": 5106,
      "ores": 5107,
      "Ġexhib": 5108,
      "Ġadding": 5109,
      "Ġstudies": 5110,
      "Ġfiles": 5111,
      "Ġelectric": 5112,
      "ĠCheck": 5113,
      "Ġtalent": 5114,
      "Ar": 5115,
      "bor": 5116,
      "atically": 5117,
      "ola": 5118,
      "riage": 5119,
      "ĠRober": 5120,
      "ournal": 5121,
      "Ġnovel": 5122,
      "Ġdish": 5123,
      "Ġ2005": 5124,
      "ĠRoad": 5125,
      "Ġappropriate": 5126,
      "Tr": 5127,
      "Ġgrant": 5128,
      "Ġappoint": 5129,
      "Ġrequires": 5130,
      "Ġ90": 5131,
      "Ġwinter": 5132,
      "ifying": 5133,
      "Ġpleased": 5134,
      "Ġsenior": 5135,
      "Ġactual": 5136,
      "ĠGovern": 5137,
      "Ġexercise": 5138,
      "??": 5139,
      "IP": 5140,
      "ano": 5141,
      "Ġsaved": 5142,
      "ĠBank": 5143,
      "anta": 5144,
      "Ġplate": 5145,
      "ĠUse": 5146,
      "assed": 5147,
      "ression": 5148,
      "ĠClub": 5149,
      "Ġvalues": 5150,
      "Ġholiday": 5151,
      "zen": 5152,
      "Ġpsych": 5153,
      "icing": 5154,
      "ĠSince": 5155,
      "Ġru": 5156,
      "Ġchest": 5157,
      "Ġ197": 5158,
      "Ġsymb": 5159,
      "Ġcompetitive": 5160,
      "Ġlabor": 5161,
      "ĠGrandma": 5162,
      "ls": 5163,
      "nect": 5164,
      "ĠIr": 5165,
      "Ġrise": 5166,
      "unction": 5167,
      "ĠForm": 5168,
      "Ġsports": 5169,
      "ĠNY": 5170,
      "Ġafternoon": 5171,
      "porary": 5172,
      "Ġdescribed": 5173,
      "ĠEducation": 5174,
      "mitted": 5175,
      "ĠMal": 5176,
      "Ġshell": 5177,
      "Ġtelling": 5178,
      "Ġlemon": 5179,
      "omb": 5180,
      "hens": 5181,
      "Ġlarger": 5182,
      "Ġextremely": 5183,
      "Ġhusband": 5184,
      "win": 5185,
      "ĠCare": 5186,
      "Ġknee": 5187,
      "ĠYear": 5188,
      "Ġsmiling": 5189,
      "Ġtransfer": 5190,
      "Ġtasty": 5191,
      "Ġrelieved": 5192,
      "Ġforms": 5193,
      "Ġplus": 5194,
      "ella": 5195,
      "ĠEngland": 5196,
      "Ġsne": 5197,
      "isp": 5198,
      "eck": 5199,
      "ĠOh": 5200,
      "Ġ80": 5201,
      "Ġmilitary": 5202,
      "Ġapart": 5203,
      "Ġthousands": 5204,
      "but": 5205,
      "Ġwire": 5206,
      "Ġbrief": 5207,
      "itz": 5208,
      "Ġpic": 5209,
      "Ġplenty": 5210,
      "ĠOpen": 5211,
      "IV": 5212,
      "free": 5213,
      "under": 5214,
      "yer": 5215,
      "Ġpun": 5216,
      "ĠST": 5217,
      "Ġspoon": 5218,
      "Ġwilling": 5219,
      "Ġmeal": 5220,
      "Ġcontinues": 5221,
      "Ġorganized": 5222,
      "ENT": 5223,
      "ĠJimmy": 5224,
      "Ġregarding": 5225,
      "Ġestablished": 5226,
      "ĠMill": 5227,
      "Ġsolid": 5228,
      "Ġmenu": 5229,
      "Cont": 5230,
      "orney": 5231,
      "Ġmirr": 5232,
      "Ġlin": 5233,
      "ading": 5234,
      "uries": 5235,
      "Ġbecoming": 5236,
      "enses": 5237,
      "ĠChurch": 5238,
      "Ġkinds": 5239,
      "Ġlinks": 5240,
      "ĠJesus": 5241,
      "ĠTy": 5242,
      "oles": 5243,
      "ĠBecause": 5244,
      "ĠLo": 5245,
      "ĠRom": 5246,
      "istered": 5247,
      "Ġplays": 5248,
      "Ġintellig": 5249,
      "Ġboys": 5250,
      "Ġbush": 5251,
      "Ġpayment": 5252,
      "Ġlimit": 5253,
      ".||": 5254,
      "lor": 5255,
      "Ġborn": 5256,
      "ĠPublic": 5257,
      "Ġchann": 5258,
      "Ġappears": 5259,
      "Ġremains": 5260,
      "Ġcharacters": 5261,
      "last": 5262,
      "zz": 5263,
      "Ġdanced": 5264,
      "Ġgently": 5265,
      "Ġconstant": 5266,
      "Ġflour": 5267,
      "Who": 5268,
      "Ġraise": 5269,
      "Later": 5270,
      "Ġhomes": 5271,
      "ĠLife": 5272,
      "Ġbrings": 5273,
      "Ġclearly": 5274,
      "ĠParis": 5275,
      "look": 5276,
      "Ġtap": 5277,
      "leg": 5278,
      "Ġeager": 5279,
      "Ġfort": 5280,
      "ĠMake": 5281,
      "ĠPC": 5282,
      "Ġguard": 5283,
      "Ġearn": 5284,
      "Ġdrawing": 5285,
      "Ġdiagn": 5286,
      "Ġerr": 5287,
      "Ġgather": 5288,
      "ĠPR": 5289,
      "berg": 5290,
      "ildren": 5291,
      "ĠSoon": 5292,
      "Ġlayer": 5293,
      "Ġenvironmental": 5294,
      "itect": 5295,
      "Ġmer": 5296,
      "uled": 5297,
      "ĠRE": 5298,
      "Ġtherefore": 5299,
      "Ġfeather": 5300,
      "ĠIns": 5301,
      "Ġexperienced": 5302,
      "34": 5303,
      "PA": 5304,
      "Ġcere": 5305,
      "ĠSum": 5306,
      "ĠMo": 5307,
      "Ġancient": 5308,
      "ĠWin": 5309,
      "Ġbutt": 5310,
      "Ġoutd": 5311,
      "ĠVol": 5312,
      "Ġremove": 5313,
      "Ġcheap": 5314,
      "Ġfrag": 5315,
      "Ġoperations": 5316,
      "Ġarrang": 5317,
      "Ġwedding": 5318,
      "55": 5319,
      "itness": 5320,
      "verse": 5321,
      "ĠWater": 5322,
      "ĠRiver": 5323,
      "berry": 5324,
      "ĠUSA": 5325,
      "ĠCarol": 5326,
      "Ġessential": 5327,
      "fortunately": 5328,
      "Ġunderstood": 5329,
      "uable": 5330,
      "Ġwag": 5331,
      "ĠSun": 5332,
      "abet": 5333,
      "Ġscale": 5334,
      "issions": 5335,
      "Ġrecords": 5336,
      "rupt": 5337,
      "ĠMicrosoft": 5338,
      "36": 5339,
      "Ġbattle": 5340,
      "aine": 5341,
      "Ġhello": 5342,
      "Ġapples": 5343,
      "Ġlaunch": 5344,
      "Ġdeveloping": 5345,
      "ĠCommission": 5346,
      "Ġselected": 5347,
      "Ġhero": 5348,
      "odes": 5349,
      "ĠUnder": 5350,
      "Ġraised": 5351,
      "cked": 5352,
      "ĠMama": 5353,
      "Ġalb": 5354,
      "Ġassign": 5355,
      "Ġmetal": 5356,
      "Ġdirection": 5357,
      "appy": 5358,
      "Ġselling": 5359,
      "Ġdestroy": 5360,
      "Ġsearched": 5361,
      "Bl": 5362,
      "state": 5363,
      "Ġkilled": 5364,
      "ĠElect": 5365,
      "Ġstrategy": 5366,
      "Ġreality": 5367,
      "Ġnumer": 5368,
      "Ġcooking": 5369,
      "Ġembarr": 5370,
      "Ġaccidentally": 5371,
      "you": 5372,
      "uty": 5373,
      "Ġwaste": 5374,
      "ĠCap": 5375,
      "rie": 5376,
      "Ġbrows": 5377,
      "ĠPlan": 5378,
      "Ġprimary": 5379,
      "fr": 5380,
      "Ġthus": 5381,
      "Ġgraph": 5382,
      "Ġnerv": 5383,
      "ula": 5384,
      "ĠLake": 5385,
      "rael": 5386,
      "Ġscar": 5387,
      "Ġminute": 5388,
      "Ġpurs": 5389,
      "Ġlights": 5390,
      "Ġcouch": 5391,
      "Ġteachers": 5392,
      "Ġmajority": 5393,
      "Ġvolunte": 5394,
      "Ġbone": 5395,
      "ompl": 5396,
      "Ġreb": 5397,
      "ĠMet": 5398,
      "ĠWhere": 5399,
      "Ġunus": 5400,
      "Ġswitch": 5401,
      "Ġretail": 5402,
      "Ġestim": 5403,
      "ĠNetwork": 5404,
      "crib": 5405,
      "gly": 5406,
      "life": 5407,
      "Ġsock": 5408,
      "ĠRel": 5409,
      "Ġchain": 5410,
      "Ġincor": 5411,
      "Ġcoin": 5412,
      "Ġsecure": 5413,
      "Ġartist": 5414,
      "Ġcounter": 5415,
      "Ġeggs": 5416,
      "Ġslightly": 5417,
      "Ġcabin": 5418,
      "Ġtask": 5419,
      "Ġadvance": 5420,
      "Ġboss": 5421,
      "ĠSal": 5422,
      "Ġshirt": 5423,
      "ivered": 5424,
      "ĠOl": 5425,
      "Ġdefense": 5426,
      "Ġsalt": 5427,
      "ĠColor": 5428,
      "Ġestate": 5429,
      "Ġanti": 5430,
      "Ġofficials": 5431,
      "Le": 5432,
      "Read": 5433,
      "Ġped": 5434,
      "umber": 5435,
      "Ġmeat": 5436,
      "Ġwinning": 5437,
      "LC": 5438,
      "Ġcritical": 5439,
      "Ġmoon": 5440,
      "Ġconfused": 5441,
      "Ġcalm": 5442,
      "lay": 5443,
      "uts": 5444,
      "Ġspotted": 5445,
      "Ġzoo": 5446,
      "Ġclouds": 5447,
      "Ġrobot": 5448,
      "Ġhouses": 5449,
      "izza": 5450,
      "lim": 5451,
      "ĠBre": 5452,
      "Ġash": 5453,
      "Ġcompos": 5454,
      "ocal": 5455,
      "Ġsurvey": 5456,
      "Ġcommunities": 5457,
      "ĠGeneral": 5458,
      "Ġsession": 5459,
      "orial": 5460,
      "Ġhiding": 5461,
      "Ġbell": 5462,
      "Ġforth": 5463,
      "ĠMike": 5464,
      "Ġspoke": 5465,
      "Ġbridge": 5466,
      "Ġposts": 5467,
      "Ġfunds": 5468,
      "Ġexperiences": 5469,
      "athered": 5470,
      "IL": 5471,
      "Ġtim": 5472,
      "Ġtie": 5473,
      "Ġtiss": 5474,
      "ilot": 5475,
      "ĠBay": 5476,
      "Ġrap": 5477,
      "osh": 5478,
      "Ġ196": 5479,
      "Ġsigned": 5480,
      "Ġbreakfast": 5481,
      "Ġmixed": 5482,
      "hus": 5483,
      "nic": 5484,
      "Ġcitiz": 5485,
      "orter": 5486,
      "arry": 5487,
      "Ġstorage": 5488,
      "Ġrule": 5489,
      "ĠJew": 5490,
      "Ġcontroll": 5491,
      "Ġtwice": 5492,
      "Ġ35": 5493,
      "Ġrestrict": 5494,
      "uke": 5495,
      "Ġwhom": 5496,
      "Ġanx": 5497,
      "wered": 5498,
      "Ġsympt": 5499,
      "IR": 5500,
      "Ġsouth": 5501,
      "ona": 5502,
      "ĠCur": 5503,
      "lder": 5504,
      "Ġlisted": 5505,
      "Ġcentury": 5506,
      "Ġpresented": 5507,
      "Ġsnowman": 5508,
      "iliar": 5509,
      "Last": 5510,
      "hab": 5511,
      "pet": 5512,
      "áĢ": 5513,
      "Ġâ": 5514,
      "Ġfuel": 5515,
      "Ġconv": 5516,
      "ĠIts": 5517,
      "Ġotherwise": 5518,
      "Ġfee": 5519,
      "Ġuns": 5520,
      "Ġdespite": 5521,
      "Ġpassion": 5522,
      "Ġcollabor": 5523,
      "Ġabsolutely": 5524,
      "Ġdisappointed": 5525,
      "hem": 5526,
      "Ġce": 5527,
      "oul": 5528,
      "ĠBur": 5529,
      "ĠOK": 5530,
      "ĠCompany": 5531,
      "Ġprepare": 5532,
      "ĠTwitter": 5533,
      "Ġutil": 5534,
      "MS": 5535,
      "eah": 5536,
      "ship": 5537,
      "hether": 5538,
      "ini": 5539,
      "rep": 5540,
      "Ġcorn": 5541,
      "aded": 5542,
      "ĠLike": 5543,
      "Ġconven": 5544,
      "Ġgrown": 5545,
      "Ġcoat": 5546,
      "ĠWho": 5547,
      "Ġviews": 5548,
      "Ġinternet": 5549,
      "ien": 5550,
      "wr": 5551,
      "Ġsack": 5552,
      "Ġrevenue": 5553,
      "ĠLittle": 5554,
      "Ġapparent": 5555,
      "Ġideal": 5556,
      "ĠAlthough": 5557,
      "Ġpainting": 5558,
      "Ġtasted": 5559,
      "Ġelements": 5560,
      "Ġchicken": 5561,
      "aven": 5562,
      "cious": 5563,
      "Ġtourn": 5564,
      "Ġhall": 5565,
      "ĠMS": 5566,
      "ipes": 5567,
      "ĠMrs": 5568,
      "Ġprepared": 5569,
      "Lucy": 5570,
      "Ġcow": 5571,
      "Ġcraft": 5572,
      "Ġdirt": 5573,
      "ĠTur": 5574,
      "lying": 5575,
      "Ġstir": 5576,
      "Ġasleep": 5577,
      "ĠRet": 5578,
      "Ġadop": 5579,
      "iques": 5580,
      "Ġconnected": 5581,
      "Ġsusp": 5582,
      "Post": 5583,
      "Ġpump": 5584,
      "ĠIT": 5585,
      "Ġjog": 5586,
      "Ġzoom": 5587,
      "ĠProduct": 5588,
      "47": 5589,
      "See": 5590,
      "host": 5591,
      "inating": 5592,
      "isco": 5593,
      "ĠLou": 5594,
      "Ġshy": 5595,
      "Ġstring": 5596,
      "ups": 5597,
      "Ġpractices": 5598,
      "ĠIsrael": 5599,
      "ĠDirector": 5600,
      "Con": 5601,
      "mail": 5602,
      "ĠInstitute": 5603,
      "Ġthoughts": 5604,
      "Ġpresentation": 5605,
      "Ġcombination": 5606,
      "inct": 5607,
      "Ġbat": 5608,
      "itar": 5609,
      "ĠTop": 5610,
      "igation": 5611,
      "ĠJournal": 5612,
      "Ġreliable": 5613,
      "Ġrooms": 5614,
      "Ġcapacity": 5615,
      "Ġholds": 5616,
      "Ġfunding": 5617,
      "ĠJenny": 5618,
      "Ġleadership": 5619,
      "Ġsty": 5620,
      "Ġshining": 5621,
      "ĠFood": 5622,
      "Ġclever": 5623,
      "Ġapprox": 5624,
      "Ġbuying": 5625,
      "ĠFranc": 5626,
      "Ġfields": 5627,
      "which": 5628,
      "Ġsexual": 5629,
      "Ġgarage": 5630,
      "Ġsustain": 5631,
      "ĠDevelopment": 5632,
      "Get": 5633,
      "PM": 5634,
      "yc": 5635,
      "ĠPerson": 5636,
      "ĠWestern": 5637,
      "ĠWomen": 5638,
      "Ġspect": 5639,
      "ĠJul": 5640,
      "Ġexclus": 5641,
      "Ġflat": 5642,
      "Ġdistrict": 5643,
      "Ġmulti": 5644,
      "Ġmanufacture": 5645,
      "amily": 5646,
      "Ġvirt": 5647,
      "ource": 5648,
      "arks": 5649,
      "Ġscene": 5650,
      "Ġtechnical": 5651,
      "Ġmarried": 5652,
      "Ġtaxes": 5653,
      "Ġspray": 5654,
      "Ġsmelled": 5655,
      "Ġdedicated": 5656,
      "Ġcrayons": 5657,
      "Ġlibrary": 5658,
      "IA": 5659,
      "Ġvote": 5660,
      "azon": 5661,
      "Ġ70": 5662,
      "Ġtransport": 5663,
      "ĠAmericans": 5664,
      "ĠiPhone": 5665,
      "Ġdiscussion": 5666,
      "ĠHarry": 5667,
      "ĠSocial": 5668,
      "ĠBritish": 5669,
      "Ġsymbol": 5670,
      "lace": 5671,
      "Ġsle": 5672,
      "Ġpile": 5673,
      "ĠTO": 5674,
      "Ġvs": 5675,
      "Ġparking": 5676,
      "Ġsupposed": 5677,
      "ĠSammy": 5678,
      "Ġcookie": 5679,
      "ĠSociety": 5680,
      "Ġnervous": 5681,
      "Ġfol": 5682,
      "ĠMil": 5683,
      "ĠDown": 5684,
      "Ġunc": 5685,
      "Ġactions": 5686,
      "Ġmostly": 5687,
      "Ġsimulated": 5688,
      "inese": 5689,
      "Ġcommunication": 5690,
      "Ġcoverage": 5691,
      "ĠProfess": 5692,
      "Ġvegetables": 5693,
      "Ġunusual": 5694,
      "Ð°": 5695,
      "Ġtries": 5696,
      "icate": 5697,
      "Ġalcohol": 5698,
      "ountain": 5699,
      "Ġparties": 5700,
      "Ġexplain": 5701,
      "Ġvision": 5702,
      "Ġvideos": 5703,
      "Ġsatisf": 5704,
      "Pr": 5705,
      "Ġrot": 5706,
      "Ġcloth": 5707,
      "âĢĿ,": 5708,
      "Ġcheer": 5709,
      "Ġboxes": 5710,
      "Ġsnack": 5711,
      "Ġblew": 5712,
      "ii": 5713,
      "Ġ>": 5714,
      "Ġì": 5715,
      "itics": 5716,
      "oured": 5717,
      "ĠSus": 5718,
      "ĠWay": 5719,
      "ĠRock": 5720,
      "outhern": 5721,
      "Ġ45": 5722,
      "aze": 5723,
      "Ġleads": 5724,
      "Ġvaluable": 5725,
      "Ġfactors": 5726,
      "However": 5727,
      "ĠTwo": 5728,
      "Ġprofessionals": 5729,
      "49": 5730,
      "ĠTour": 5731,
      "Ġhearing": 5732,
      "ĠWall": 5733,
      "ĠDef": 5734,
      "Ġaccompl": 5735,
      "lets": 5736,
      "Ġcleaning": 5737,
      "Ġclosely": 5738,
      "Ġproperly": 5739,
      "Ġschedule": 5740,
      "Acc": 5741,
      "enance": 5742,
      "arge": 5743,
      "ĠHol": 5744,
      "ĠFore": 5745,
      "Ġscen": 5746,
      "Ġagency": 5747,
      "ĠTimes": 5748,
      "Ġbrill": 5749,
      "Ġguid": 5750,
      "Ġpolic": 5751,
      "Ġclasses": 5752,
      "Ġtesting": 5753,
      "Ġprotected": 5754,
      "Ġbugs": 5755,
      "ĠCommunity": 5756,
      "hand": 5757,
      "Ġhom": 5758,
      "ĠSol": 5759,
      "imp": 5760,
      "acement": 5761,
      "ighed": 5762,
      "ĠHy": 5763,
      "ppy": 5764,
      "Ġnotes": 5765,
      "Ġcontext": 5766,
      "Ġflash": 5767,
      "Ġfacilities": 5768,
      "Am": 5769,
      "how": 5770,
      "Ġshock": 5771,
      "ĠCharl": 5772,
      "ĠAfrica": 5773,
      "Any": 5774,
      "Fr": 5775,
      "Ġwand": 5776,
      "ĠAND": 5777,
      "ĠBet": 5778,
      "that": 5779,
      "Ġgray": 5780,
      "Ġrepair": 5781,
      "Ġguests": 5782,
      "Ġdepartment": 5783,
      "Ġanswered": 5784,
      "Ġdrugs": 5785,
      "SA": 5786,
      "atab": 5787,
      "Ġgate": 5788,
      "ĠII": 5789,
      "roid": 5790,
      "ĠAP": 5791,
      "una": 5792,
      "osy": 5793,
      "Ġcontains": 5794,
      "ĠKore": 5795,
      "Ġlegisl": 5796,
      "Ġyesterday": 5797,
      "EM": 5798,
      "point": 5799,
      "Ġfishing": 5800,
      "ĠSing": 5801,
      "Ġsauce": 5802,
      "Ġupgr": 5803,
      "ĠFire": 5804,
      "ĠKim": 5805,
      "Ġprocessing": 5806,
      "Ġaudio": 5807,
      "Ġmethods": 5808,
      "Ġpredict": 5809,
      "Ġmysterious": 5810,
      "iency": 5811,
      "Ġmud": 5812,
      "icago": 5813,
      "semb": 5814,
      "ĠDet": 5815,
      "ĠFred": 5816,
      "Ġimpl": 5817,
      "bert": 5818,
      "Ġpoly": 5819,
      "Ġspeech": 5820,
      "Ġcutting": 5821,
      "Ġoperating": 5822,
      "istrict": 5823,
      "Ġshooting": 5824,
      "pack": 5825,
      "Ġfancy": 5826,
      "Ġdim": 5827,
      "Ġcrack": 5828,
      "Ġansw": 5829,
      "Ġsources": 5830,
      "Ġaccepted": 5831,
      "Fe": 5832,
      "oma": 5833,
      "Ġweird": 5834,
      "ĠDi": 5835,
      "abilities": 5836,
      "Ġlaun": 5837,
      "ancer": 5838,
      "Ġending": 5839,
      "Ġtickets": 5840,
      "Ġmistake": 5841,
      "37": 5842,
      "lock": 5843,
      "isher": 5844,
      "ache": 5845,
      "Ġsav": 5846,
      "ĠLord": 5847,
      "ĠRad": 5848,
      "Ġvent": 5849,
      "Ġflu": 5850,
      "upid": 5851,
      "Ġrocket": 5852,
      "Ġfourth": 5853,
      "Ġassistance": 5854,
      "atoes": 5855,
      "Ġevaluation": 5856,
      "ĠCongress": 5857,
      ")|": 5858,
      "Ġplastic": 5859,
      "usion": 5860,
      "erences": 5861,
      "Ġarticles": 5862,
      "Ġcalc": 5863,
      "ĠThanks": 5864,
      "44": 5865,
      "ae": 5866,
      "rical": 5867,
      "top": 5868,
      "word": 5869,
      "inn": 5870,
      "Ġpacked": 5871,
      "Ġgeneration": 5872,
      "ĠTrump": 5873,
      "Ġlistening": 5874,
      "Ġrelationships": 5875,
      "Ġmaintain": 5876,
      "Ġge": 5877,
      "Ġugly": 5878,
      "Ġdoors": 5879,
      "Ġveter": 5880,
      "Ġamb": 5881,
      "Ġexcit": 5882,
      "Ġends": 5883,
      "Ġ2000": 5884,
      "Ġforgive": 5885,
      "Ġcrazy": 5886,
      "gar": 5887,
      "Ġic": 5888,
      "rehens": 5889,
      "ĠHD": 5890,
      "isted": 5891,
      "Ġspicy": 5892,
      "Ġworse": 5893,
      "Ġsuc": 5894,
      "Ġrope": 5895,
      "Ġawesome": 5896,
      "gery": 5897,
      "Ġseconds": 5898,
      "ĠCorpor": 5899,
      "Ġcrowd": 5900,
      "ius": 5901,
      "Ġtro": 5902,
      "Ġtears": 5903,
      "ora": 5904,
      "keep": 5905,
      "Ġstruct": 5906,
      "poses": 5907,
      "**": 5908,
      "DS": 5909,
      "Ġtips": 5910,
      "Ġcities": 5911,
      "eless": 5912,
      "Ġweap": 5913,
      "ĠUnion": 5914,
      "Ġminimum": 5915,
      "Ġtransl": 5916,
      "Ġchanging": 5917,
      "Ġimproved": 5918,
      "Ġsearching": 5919,
      "ĠMedia": 5920,
      "Ġfeedback": 5921,
      "Ġfavourite": 5922,
      "App": 5923,
      "De": 5924,
      "Ġfreedom": 5925,
      "Ġnom": 5926,
      "unning": 5927,
      "odies": 5928,
      "Ġresidents": 5929,
      "athy": 5930,
      "Ġeditor": 5931,
      "Ġauth": 5932,
      "Ġoperation": 5933,
      "Ġshelf": 5934,
      "Ġmirror": 5935,
      "what": 5936,
      "Ġborrow": 5937,
      "ĠBra": 5938,
      "ĠMad": 5939,
      "ĠDiv": 5940,
      "Ġmeasures": 5941,
      "Ġdefe": 5942,
      "ffect": 5943,
      "Ġdecisions": 5944,
      "Ġadvanced": 5945,
      "Ġtypically": 5946,
      "Ġpanel": 5947,
      "Ġintroduced": 5948,
      "Ġjewel": 5949,
      "ĠId": 5950,
      "ĠHave": 5951,
      "ĠMex": 5952,
      "Ġrug": 5953,
      "estic": 5954,
      "ĠFollow": 5955,
      "Ġintended": 5956,
      "ucing": 5957,
      "Ġballs": 5958,
      "Ġfollows": 5959,
      "Ġstronger": 5960,
      "Ġclassic": 5961,
      "cript": 5962,
      "Ġepis": 5963,
      "Ġfurniture": 5964,
      "Ġacademic": 5965,
      "ĠRobert": 5966,
      "Ġsymptoms": 5967,
      "95": 5968,
      "RA": 5969,
      "yan": 5970,
      "Ġmental": 5971,
      "Ġdiet": 5972,
      "Ġgolf": 5973,
      "ĠPower": 5974,
      "ĠWr": 5975,
      "Ġflight": 5976,
      "ception": 5977,
      "Tommy": 5978,
      "ĠCommittee": 5979,
      "Ġrecommended": 5980,
      "Ġexcitement": 5981,
      "cher": 5982,
      "ĠCD": 5983,
      "ĠStep": 5984,
      "Ġspecies": 5985,
      "Ġcreature": 5986,
      "Ġjumping": 5987,
      "Ġclassroom": 5988,
      "Ġdreams": 5989,
      "Ġsuggested": 5990,
      "Ġdocuments": 5991,
      "Ġcells": 5992,
      "ĠValley": 5993,
      "Ġefficient": 5994,
      "Ġstretch": 5995,
      "husi": 5996,
      "Ġpm": 5997,
      "Ġdancing": 5998,
      "idy": 5999,
      "ĠAT": 6000,
      "oop": 6001,
      "rive": 6002,
      "ĠLove": 6003,
      "Ġsport": 6004,
      "ĠJer": 6005,
      "Ġadapt": 6006,
      "Ġsitu": 6007,
      "ĠCentral": 6008,
      "pond": 6009,
      "Ġmort": 6010,
      "Ġnorth": 6011,
      "ĠLead": 6012,
      "raq": 6013,
      "aks": 6014,
      "ĠVirgin": 6015,
      "Ġcommitted": 6016,
      "Ġperformed": 6017,
      "Ġtrial": 6018,
      "Ġproperties": 6019,
      "Ġadministration": 6020,
      "Ġtemperature": 6021,
      "Ġnumerous": 6022,
      ".|": 6023,
      "88": 6024,
      "Molly": 6025,
      "anda": 6026,
      "Ġformat": 6027,
      "Ġcultural": 6028,
      "Ġestablish": 6029,
      "Ġtelevision": 6030,
      "Ġpicnic": 6031,
      "Jim": 6032,
      "Ġwore": 6033,
      "Ġwake": 6034,
      "Ġgathered": 6035,
      "ĠCard": 6036,
      "ems": 6037,
      "Ġwalks": 6038,
      "Ġcharges": 6039,
      "Ġladder": 6040,
      "Ġofficer": 6041,
      "Ġbags": 6042,
      "Ġemergency": 6043,
      "Ġalternative": 6044,
      "Ġbrilliant": 6045,
      "31": 6046,
      "32": 6047,
      "cles": 6048,
      "Ġsch": 6049,
      "Ġthread": 6050,
      "Ġarrest": 6051,
      "print": 6052,
      "Ġvisited": 6053,
      "Ġcombined": 6054,
      "Ġtotally": 6055,
      "Ġimpressive": 6056,
      "ĠJeff": 6057,
      "BS": 6058,
      "Up": 6059,
      "cue": 6060,
      "ala": 6061,
      "omer": 6062,
      "ĠTogether": 6063,
      "Ġglow": 6064,
      "ĠSl": 6065,
      "ĠMont": 6066,
      "Ġleaf": 6067,
      "ciples": 6068,
      "Ġfamiliar": 6069,
      "Ġ2004": 6070,
      "Ġenthusi": 6071,
      "Ġinterp": 6072,
      "ĠEmily": 6073,
      "Ġprocedure": 6074,
      "bles": 6075,
      "Ġwaves": 6076,
      "Ġdrew": 6077,
      "Ġalert": 6078,
      "ĠRos": 6079,
      "ĠJud": 6080,
      "Ġscreamed": 6081,
      "Ġourselves": 6082,
      "Ġunless": 6083,
      "Ġguitar": 6084,
      "going": 6085,
      "while": 6086,
      "unnels": 6087,
      "Ġiron": 6088,
      "Ġsight": 6089,
      "Ġnine": 6090,
      "rip": 6091,
      "Ġharder": 6092,
      "Ġpurposes": 6093,
      "ĠProt": 6094,
      "Ġfemale": 6095,
      "BA": 6096,
      "awn": 6097,
      "no": 6098,
      "orable": 6099,
      "Ġreward": 6100,
      "amin": 6101,
      "Ġliqu": 6102,
      "endar": 6103,
      "Ġremoved": 6104,
      "Ġoptim": 6105,
      "Ġfalls": 6106,
      "ĠFoundation": 6107,
      "Ġchemical": 6108,
      ");": 6109,
      "SP": 6110,
      "asks": 6111,
      "alog": 6112,
      "ĠTor": 6113,
      "Ġrice": 6114,
      "iped": 6115,
      "Ġquant": 6116,
      "ĠChinese": 6117,
      "Ġentry": 6118,
      "Ġconfident": 6119,
      "ĠAtl": 6120,
      "Ġlabel": 6121,
      "Ġorders": 6122,
      "Ġimagine": 6123,
      "lict": 6124,
      "ĠSil": 6125,
      "ĠWil": 6126,
      "aren": 6127,
      "Ġdiscount": 6128,
      "ĠShow": 6129,
      "Ġelection": 6130,
      "ĠParty": 6131,
      "Ġsilver": 6132,
      "Ġlicense": 6133,
      "Ġopinion": 6134,
      "Dr": 6135,
      "da": 6136,
      "wo": 6137,
      "Ġec": 6138,
      "ĠDig": 6139,
      "Ġagent": 6140,
      "Ġserving": 6141,
      "aws": 6142,
      "Ġprofile": 6143,
      "Ġfacility": 6144,
      "Ġinitial": 6145,
      "Ġembarrassed": 6146,
      "gment": 6147,
      "kins": 6148,
      "Ġbon": 6149,
      "Ġpapers": 6150,
      "Ġstre": 6151,
      "Ġrid": 6152,
      "alled": 6153,
      "ĠArch": 6154,
      "Ġevalu": 6155,
      "Ġfunctional": 6156,
      "65": 6157,
      "FL": 6158,
      "uous": 6159,
      "Ġfool": 6160,
      "Ġgifts": 6161,
      "ĠLong": 6162,
      "ĠPot": 6163,
      "Ġjack": 6164,
      "Ġclock": 6165,
      "Ġgrace": 6166,
      "Ġpretended": 6167,
      "Ġwinner": 6168,
      "Ġmarriage": 6169,
      "ommod": 6170,
      "Ġfocused": 6171,
      "ĠSpecial": 6172,
      "Ġtape": 6173,
      "igr": 6174,
      "ĠWord": 6175,
      "umes": 6176,
      "active": 6177,
      "Ġanyway": 6178,
      "Ġfees": 6179,
      "ĠStart": 6180,
      "ĠKen": 6181,
      "Ġminor": 6182,
      "Ġplanned": 6183,
      "Ġsuspect": 6184,
      "Ġflexible": 6185,
      "Ġsucceed": 6186,
      "Ġtables": 6187,
      "Ġgum": 6188,
      "Ġgall": 6189,
      "ĠIraq": 6190,
      "igan": 6191,
      "ĠLos": 6192,
      "illing": 6193,
      "antly": 6194,
      "ĠDou": 6195,
      "Ġlean": 6196,
      "Ġmanner": 6197,
      "ocation": 6198,
      "Ġfinds": 6199,
      "ĠReal": 6200,
      "Ġjudge": 6201,
      "Ġpeaceful": 6202,
      "Ġreligious": 6203,
      "38": 6204,
      "CE": 6205,
      "En": 6206,
      "Today": 6207,
      "UN": 6208,
      "ki": 6209,
      "ĠÑ": 6210,
      "ideo": 6211,
      "Ġreference": 6212,
      "Ġtransform": 6213,
      "Ġsnake": 6214,
      "ĠJohnson": 6215,
      "ĠFrance": 6216,
      "Ġperfectly": 6217,
      "Ġsticks": 6218,
      "Ġbuttons": 6219,
      "Ġalbum": 6220,
      "Mum": 6221,
      "rance": 6222,
      "oral": 6223,
      "ĠID": 6224,
      "Ġknocked": 6225,
      "Ġsomewhere": 6226,
      "Ġprison": 6227,
      "Ġ500": 6228,
      "prise": 6229,
      "ĠFrank": 6230,
      "Ġfurry": 6231,
      "mar": 6232,
      "Ġbull": 6233,
      "Ġhook": 6234,
      "Ġinvent": 6235,
      "ĠMel": 6236,
      "Ġloyal": 6237,
      "Ġappeal": 6238,
      "Ġpepper": 6239,
      "ĠChicago": 6240,
      "Ġsupported": 6241,
      "Ġvolume": 6242,
      "Ġconsumers": 6243,
      "Ġconcerns": 6244,
      "Ġinfect": 6245,
      "ĠLibr": 6246,
      "ĠDistrict": 6247,
      "Ġspons": 6248,
      "Ġforeign": 6249,
      "Ġvalid": 6250,
      "Ġjoint": 6251,
      "Ġspeaking": 6252,
      "Ġtreats": 6253,
      "Ġresearc": 6254,
      "Ġlanded": 6255,
      "Ġescape": 6256,
      "Ġcarrot": 6257,
      "Ġpolicies": 6258,
      "eg": 6259,
      "Ġcher": 6260,
      "Ġfro": 6261,
      "Ġpizza": 6262,
      "Ġnor": 6263,
      "idering": 6264,
      "Ġforces": 6265,
      "ĠWild": 6266,
      "ĠFil": 6267,
      "orthern": 6268,
      "Ġ32": 6269,
      "Ġchew": 6270,
      "Ġ2002": 6271,
      "Ġpresence": 6272,
      "Ġdefend": 6273,
      "Ġvisitors": 6274,
      "Ġidentify": 6275,
      "Ġmovies": 6276,
      "Ġpreviously": 6277,
      "Ġlandsc": 6278,
      "Ġincorpor": 6279,
      "48": 6280,
      "First": 6281,
      "anna": 6282,
      "Ġgear": 6283,
      "ady": 6284,
      "Ġyouth": 6285,
      "Ġspider": 6286,
      "Ġdisp": 6287,
      "Ġrealize": 6288,
      "ĠConference": 6289,
      "related": 6290,
      "Ġcelebrate": 6291,
      "Ġnegative": 6292,
      "Ġadults": 6293,
      "Ġappreciate": 6294,
      "Ġjungle": 6295,
      "ser": 6296,
      "stances": 6297,
      "lymp": 6298,
      "rier": 6299,
      "Ġexchange": 6300,
      "Ġcommand": 6301,
      "Ġgenerous": 6302,
      "Ġpicking": 6303,
      "Ġdetailed": 6304,
      "oking": 6305,
      "ĠInstead": 6306,
      "UT": 6307,
      "equ": 6308,
      "Ġcater": 6309,
      "Ġfing": 6310,
      "ĠCustom": 6311,
      "ĠMittens": 6312,
      "Ġprop": 6313,
      "ĠProject": 6314,
      "Ġconfig": 6315,
      "Ġinterests": 6316,
      "Ġinvestors": 6317,
      "Ġbringing": 6318,
      "Ġimpressed": 6319,
      "rastr": 6320,
      "Ġcorporate": 6321,
      "Ġpuddle": 6322,
      "Ġrapid": 6323,
      "bre": 6324,
      "den": 6325,
      "Ġdie": 6326,
      "ĠTem": 6327,
      "ĠBack": 6328,
      "plate": 6329,
      "Ġunits": 6330,
      "Ġmole": 6331,
      "Ġcircum": 6332,
      "Ġducks": 6333,
      "Des": 6334,
      "gu": 6335,
      "loy": 6336,
      "Ġtied": 6337,
      "Ġwolf": 6338,
      "Ġyarn": 6339,
      "Ġris": 6340,
      "ĠWood": 6341,
      "Ġmoments": 6342,
      "Ġcontem": 6343,
      "ensions": 6344,
      "Ġsets": 6345,
      "Ġdelivered": 6346,
      "Ġprize": 6347,
      "Ġtechniques": 6348,
      "Ġpossibly": 6349,
      "Ġtrucks": 6350,
      "cel": 6351,
      "Ġgigg": 6352,
      "ĠSqu": 6353,
      "âĢĺ": 6354,
      "urb": 6355,
      "htt": 6356,
      "Ġcharm": 6357,
      "ĠGra": 6358,
      "Ġscream": 6359,
      "oga": 6360,
      "Ġ37": 6361,
      "Ġaccommod": 6362,
      "Ġvisual": 6363,
      "Ġbuildings": 6364,
      "Ġresponsibility": 6365,
      "Ġvictory": 6366,
      "Ġmaximum": 6367,
      "Em": 6368,
      "PR": 6369,
      "orters": 6370,
      "Ġdyn": 6371,
      "achel": 6372,
      "ĠHill": 6373,
      "Ġconcent": 6374,
      "Ġvary": 6375,
      "ĠJon": 6376,
      "Ġtrick": 6377,
      "ograp": 6378,
      "Ġremote": 6379,
      "Ġprovider": 6380,
      "Ġmoves": 6381,
      "Ġprofit": 6382,
      "Ġallowing": 6383,
      "Click": 6384,
      "Because": 6385,
      "Most": 6386,
      "NA": 6387,
      "cr": 6388,
      "ev": 6389,
      "ya": 6390,
      "Ġbump": 6391,
      "Ġdating": 6392,
      "Ġnur": 6393,
      "ĠJose": 6394,
      "outs": 6395,
      "Ġcolle": 6396,
      "uality": 6397,
      "Ġreaders": 6398,
      "cipl": 6399,
      "azz": 6400,
      "Ġexperts": 6401,
      "Ġmarkets": 6402,
      "Ġpaying": 6403,
      "Ġconductive": 6404,
      "ĠAcadem": 6405,
      "OD": 6406,
      "rd": 6407,
      "sm": 6408,
      "Ġpie": 6409,
      "Ġrang": 6410,
      "Ġcrime": 6411,
      "Ġentered": 6412,
      "Ġhoping": 6413,
      "ĠCanad": 6414,
      "Ġcreation": 6415,
      "ĠOnline": 6416,
      "Ġencourage": 6417,
      "Ġconversation": 6418,
      "Ġcategory": 6419,
      "Ġboost": 6420,
      "Ġapproximately": 6421,
      "Com": 6422,
      "LA": 6423,
      "made": 6424,
      "reens": 6425,
      "Ġbored": 6426,
      "Ġstupid": 6427,
      "ĠHT": 6428,
      "ĠCat": 6429,
      "ĠLear": 6430,
      "ĠLast": 6431,
      "ĠDuring": 6432,
      "ĠOffic": 6433,
      "Ġapplied": 6434,
      "iano": 6435,
      "Ġconfir": 6436,
      "Ġconflict": 6437,
      "Ġenjoying": 6438,
      "Ġreplace": 6439,
      "ĠOnly": 6440,
      "Ġdiam": 6441,
      "Ġinstalled": 6442,
      "ĠSteve": 6443,
      "Ġbegins": 6444,
      "iveness": 6445,
      "IF": 6446,
      "ĠIll": 6447,
      "Ġrude": 6448,
      "Ġath": 6449,
      "ĠPan": 6450,
      "ĠExt": 6451,
      "Ġpolite": 6452,
      "Ġorganis": 6453,
      "ÅĵI": 6454,
      "Ġinternal": 6455,
      "Ġviolence": 6456,
      "Ġrental": 6457,
      "Ġdoubt": 6458,
      "Ġnone": 6459,
      "ĠAward": 6460,
      "Ġkitten": 6461,
      "ends": 6462,
      "Ġqueen": 6463,
      "Ġvisiting": 6464,
      "Ġdiscl": 6465,
      "Ġsafely": 6466,
      "ĠJohnny": 6467,
      "Ġvend": 6468,
      "ĠAccording": 6469,
      "Ġterrible": 6470,
      "Ð¸": 6471,
      "Ġfake": 6472,
      "enry": 6473,
      "Ġham": 6474,
      "Ġdatab": 6475,
      "Ġhears": 6476,
      "ĠData": 6477,
      "ĠNov": 6478,
      "Ġsmoke": 6479,
      "Ġstores": 6480,
      "Ġtechnologies": 6481,
      "Ġdollars": 6482,
      "ĠNext": 6483,
      "Ġessay": 6484,
      "ĠTeam": 6485,
      "Ġrevealed": 6486,
      "Ġadvertising": 6487,
      "ĠAngeles": 6488,
      "Ed": 6489,
      "ring": 6490,
      "Ġbond": 6491,
      "isis": 6492,
      "Ġleague": 6493,
      "Ġdeer": 6494,
      "ĠOld": 6495,
      "ĠInvest": 6496,
      "Ġgreatest": 6497,
      "ternal": 6498,
      "Ġdrum": 6499,
      "Ġjoke": 6500,
      "Ġrecorded": 6501,
      "Ġreturns": 6502,
      "Ġcauses": 6503,
      "Ġperspective": 6504,
      "ĠMusic": 6505,
      "Ġarchitect": 6506,
      "Ġfabric": 6507,
      "Ġtournament": 6508,
      "Ġcage": 6509,
      "asis": 6510,
      "ario": 6511,
      "ĠHaw": 6512,
      "Ġelast": 6513,
      "ĠLeg": 6514,
      "Ġselfish": 6515,
      "Ġfailed": 6516,
      "Ġproposed": 6517,
      "Ġwhistle": 6518,
      "Ġcitizens": 6519,
      "iration": 6520,
      "ĠMass": 6521,
      "Ġnoted": 6522,
      "andom": 6523,
      "Ġjam": 6524,
      "Ġtracks": 6525,
      "Ġdesigns": 6526,
      "Ġplanet": 6527,
      "Ġabsor": 6528,
      "Ġtightly": 6529,
      "Ġturning": 6530,
      "Ġwrapped": 6531,
      "Ġtissue": 6532,
      "Qu": 6533,
      "press": 6534,
      "zed": 6535,
      "iters": 6536,
      "Ġfif": 6537,
      "Ġmarch": 6538,
      "ĠBer": 6539,
      "Ġuniversity": 6540,
      "ĠWeek": 6541,
      "Ġinvited": 6542,
      "Ġsolve": 6543,
      "Ġpicks": 6544,
      "Stop": 6545,
      "ĠOrgan": 6546,
      "Ġsteel": 6547,
      "Ġaccounts": 6548,
      "umbled": 6549,
      "OP": 6550,
      "hew": 6551,
      "ita": 6552,
      "Ġpitch": 6553,
      "Ġhate": 6554,
      "Ġmale": 6555,
      "Ġstated": 6556,
      "Ġseed": 6557,
      "Ġliber": 6558,
      "Ġcompar": 6559,
      "ilding": 6560,
      "Ġcoord": 6561,
      "Ġattacks": 6562,
      "Ġletters": 6563,
      "Ġsnacks": 6564,
      "ĠQue": 6565,
      "Ġtests": 6566,
      "ublished": 6567,
      "Ġupdates": 6568,
      "ĠTechnology": 6569,
      "rehensive": 6570,
      "Se": 6571,
      "Ġbare": 6572,
      "onom": 6573,
      "Ġhid": 6574,
      "Ġder": 6575,
      "Ġbeer": 6576,
      "ĠAD": 6577,
      "Ġhabit": 6578,
      "Ġsoil": 6579,
      "Ġhadn": 6580,
      "Ġchoo": 6581,
      "Ġchief": 6582,
      "Ġrose": 6583,
      "Ġ38": 6584,
      "Ġcovers": 6585,
      "Ġpoll": 6586,
      "Ġelig": 6587,
      "Ġnewsp": 6588,
      "Ġprinc": 6589,
      "ĠSenate": 6590,
      "01": 6591,
      "39": 6592,
      "Ġaim": 6593,
      "inations": 6594,
      "Ġsides": 6595,
      "utional": 6596,
      "ĠCall": 6597,
      "ĠCEO": 6598,
      "ĠPage": 6599,
      "ĠNOT": 6600,
      "ĠOlymp": 6601,
      "Ġagencies": 6602,
      "Ġcoal": 6603,
      "Ġcrab": 6604,
      "Ġelim": 6605,
      "ĠExper": 6606,
      "Ġcarrying": 6607,
      "Ġattractive": 6608,
      "According": 6609,
      "nov": 6610,
      "Ġlying": 6611,
      "Ġears": 6612,
      "Ġforced": 6613,
      "Ġstamp": 6614,
      "assion": 6615,
      "Ġseeking": 6616,
      "Ġdecre": 6617,
      "Ġshouldn": 6618,
      "Ġreduced": 6619,
      "Ġtopic": 6620,
      "Ġhopes": 6621,
      "Ġbelief": 6622,
      "Thanks": 6623,
      "Ġcircle": 6624,
      "ĠScott": 6625,
      "Ġthankful": 6626,
      "aptop": 6627,
      "Ġinfluence": 6628,
      "rastructure": 6629,
      "GB": 6630,
      "gers": 6631,
      "amber": 6632,
      "olph": 6633,
      "Ġconsequ": 6634,
      "ĠYOU": 6635,
      "ĠChris": 6636,
      "luding": 6637,
      "Ġcrown": 6638,
      "Ġwriter": 6639,
      "Ġkeeps": 6640,
      "Ġcourses": 6641,
      "Ġmagazine": 6642,
      "Ġrecognize": 6643,
      "Ġconcerned": 6644,
      "Ġnecklace": 6645,
      "Ġinstitutions": 6646,
      "ML": 6647,
      "ka": 6648,
      "Ġmelt": 6649,
      "lear": 6650,
      "Ġelder": 6651,
      "Ġyours": 6652,
      "Ġknife": 6653,
      "ampion": 6654,
      "Ġentertain": 6655,
      "Ġdepending": 6656,
      "ĠMcC": 6657,
      "Ġaffected": 6658,
      "Ġoccasion": 6659,
      "lastname": 6660,
      "Ġdur": 6661,
      "adium": 6662,
      "ĠAccess": 6663,
      "ares": 6664,
      "ĠJake": 6665,
      "osen": 6666,
      "Ġprocesses": 6667,
      "Ġincreases": 6668,
      "Ġphotograph": 6669,
      "ĠAmazon": 6670,
      "Ġmaintenance": 6671,
      "Ġdebt": 6672,
      "Ġmatches": 6673,
      "Ġneighborhood": 6674,
      "Ġfantastic": 6675,
      "ĠCarolina": 6676,
      "OC": 6677,
      "ca": 6678,
      "Ġsizes": 6679,
      "Ġwel": 6680,
      "oration": 6681,
      "ilit": 6682,
      "ĠLisa": 6683,
      "Ġchat": 6684,
      "Ġhappiness": 6685,
      "Ġbrush": 6686,
      "ĠVict": 6687,
      "Ġcrash": 6688,
      "ĠAdmin": 6689,
      "Ġeducational": 6690,
      "Ġcarrots": 6691,
      "TS": 6692,
      "bled": 6693,
      "ani": 6694,
      "Ġdu": 6695,
      "Ġstones": 6696,
      "ĠCA": 6697,
      "ĠFund": 6698,
      "arts": 6699,
      "ĠRose": 6700,
      "Ġdiss": 6701,
      "Ġfeelings": 6702,
      "Ġcrim": 6703,
      "Ġlocations": 6704,
      "Soon": 6705,
      "!!!": 6706,
      "ĠEnter": 6707,
      "Ġpuzzle": 6708,
      "Americ": 6709,
      "PC": 6710,
      "vy": 6711,
      "Ġtent": 6712,
      "Ġodd": 6713,
      "riff": 6714,
      "Ġrac": 6715,
      "ĠDV": 6716,
      "Ġsevere": 6717,
      "ĠEconom": 6718,
      "ĠNor": 6719,
      "Ġchose": 6720,
      "ĠStand": 6721,
      "Ġdesire": 6722,
      "Ġconfidence": 6723,
      "ĠBeach": 6724,
      "ĠSeries": 6725,
      "Ġrecognized": 6726,
      "ĠSecond": 6727,
      "Ġfrustrated": 6728,
      "Add": 6729,
      "nam": 6730,
      "was": 6731,
      "Ġtip": 6732,
      "Ġbound": 6733,
      "Ġcrew": 6734,
      "ĠHam": 6735,
      "ĠFarm": 6736,
      "Ġusual": 6737,
      "ĠChampions": 6738,
      "Ġrecipe": 6739,
      "Ġrelatively": 6740,
      "Ġsyn": 6741,
      "Ġinspect": 6742,
      "Ġsupporting": 6743,
      "Ġbelieved": 6744,
      "ĠiP": 6745,
      "Ġwebsites": 6746,
      "Ġspecifically": 6747,
      "Ġrelevant": 6748,
      "ĠHistory": 6749,
      "About": 6750,
      "ye": 6751,
      "orough": 6752,
      "ĠSign": 6753,
      "otic": 6754,
      "ĠAS": 6755,
      "ĠCup": 6756,
      "ĠBi": 6757,
      "ĠFind": 6758,
      "Ġlie": 6759,
      "Ġregistered": 6760,
      "Ġconsidering": 6761,
      "Ġpointing": 6762,
      "Ġextensive": 6763,
      "Ġpainted": 6764,
      "05": 6765,
      "eer": 6766,
      "Ġol": 6767,
      "erves": 6768,
      "Ġpatch": 6769,
      "Ġmuseum": 6770,
      "Ġluck": 6771,
      "Ġrom": 6772,
      "ĠPac": 6773,
      "essions": 6774,
      "ĠInf": 6775,
      "Ġdecades": 6776,
      "ĠVis": 6777,
      "Ġemp": 6778,
      "arrant": 6779,
      "Ġdisappeared": 6780,
      "Ġvictims": 6781,
      "ĠColorado": 6782,
      "Ġboring": 6783,
      "ilty": 6784,
      "igen": 6785,
      "ĠCop": 6786,
      "ĠBoth": 6787,
      "Ġalle": 6788,
      "ĠList": 6789,
      "ĠON": 6790,
      "ansas": 6791,
      "Ġunf": 6792,
      "Ġfruits": 6793,
      "Ġobjects": 6794,
      "Ġashamed": 6795,
      "Hel": 6796,
      "Ġcro": 6797,
      "ĠMer": 6798,
      "agram": 6799,
      "ĠEll": 6800,
      "ĠNight": 6801,
      "Ġchased": 6802,
      "Ġcloset": 6803,
      "Ġhonor": 6804,
      "ĠAbout": 6805,
      "Ġsplash": 6806,
      "Ġobtain": 6807,
      "Ġscarf": 6808,
      "Ġlaunched": 6809,
      "Other": 6810,
      "Ġdust": 6811,
      "ĠLt": 6812,
      "Ġsequ": 6813,
      "Ġmedium": 6814,
      "Ġsubstant": 6815,
      "Ġdrivers": 6816,
      "ĠBefore": 6817,
      "Ġannounce": 6818,
      "ĠUpd": 6819,
      ".'": 6820,
      "atre": 6821,
      "onic": 6822,
      "irus": 6823,
      "Ġshift": 6824,
      "ĠEarth": 6825,
      "Ġuncom": 6826,
      "Ġ48": 6827,
      "ĠEverywhere": 6828,
      "Ġsleepy": 6829,
      "Ġupdated": 6830,
      "ĠSecret": 6831,
      "Ġaspects": 6832,
      "Ġauthors": 6833,
      "Ġschol": 6834,
      "ĠLibrary": 6835,
      "Ġstraw": 6836,
      "Ġrow": 6837,
      "Ġrail": 6838,
      "Ġshore": 6839,
      "Ġshots": 6840,
      "ulty": 6841,
      "Ġ36": 6842,
      "anches": 6843,
      "Ġopens": 6844,
      "rene": 6845,
      "Ġglue": 6846,
      "Ġmatters": 6847,
      "Ġillustr": 6848,
      "Ġhousing": 6849,
      "ĠAfrican": 6850,
      "ĠHelp": 6851,
      "abetes": 6852,
      "Ġanswers": 6853,
      "Sorry": 6854,
      "Ġwins": 6855,
      "ĠSand": 6856,
      "ĠHuman": 6857,
      "ĠPay": 6858,
      "Ġsoap": 6859,
      "ĠFamily": 6860,
      "Ġroot": 6861,
      "ĠUN": 6862,
      "berries": 6863,
      "Ġdescrib": 6864,
      "Ġsurgery": 6865,
      "uddy": 6866,
      "Ġ75": 6867,
      "Ġyelled": 6868,
      "Ġfairly": 6869,
      "ĠMedical": 6870,
      "Ġconstruct": 6871,
      "Ġtelephone": 6872,
      "Ġclinical": 6873,
      "07": 6874,
      "iate": 6875,
      "Ġtut": 6876,
      "rees": 6877,
      "Ġok": 6878,
      "ingly": 6879,
      "Ġalive": 6880,
      "Ġriding": 6881,
      "cknow": 6882,
      "Ġunlike": 6883,
      "ĠAsia": 6884,
      "Ġcounty": 6885,
      "Ġfoods": 6886,
      "Ġevil": 6887,
      "Ġcertific": 6888,
      "ĠKeep": 6889,
      "forcement": 6890,
      ".âĢĻ": 6891,
      "mes": 6892,
      "itory": 6893,
      "Ġdial": 6894,
      "Ġdraft": 6895,
      "Ġgym": 6896,
      "ĠPD": 6897,
      "ĠDen": 6898,
      "Ġperf": 6899,
      "itionally": 6900,
      "Ġheads": 6901,
      "Ġrefused": 6902,
      "Ġearned": 6903,
      "Ġvehicles": 6904,
      "ubbles": 6905,
      "Ġsector": 6906,
      "Since": 6907,
      "nel": 6908,
      "oes": 6909,
      "unes": 6910,
      "iform": 6911,
      "Ġplayground": 6912,
      "Ġrod": 6913,
      "Ġcontest": 6914,
      "Ġsurf": 6915,
      "ĠPrice": 6916,
      "Ġsettings": 6917,
      "Ġblend": 6918,
      "Ġticket": 6919,
      "Ġvacc": 6920,
      "ĠAustralian": 6921,
      "Ġsandwich": 6922,
      "ĠLight": 6923,
      "Ġexecutive": 6924,
      "Ġseeds": 6925,
      "Ġven": 6926,
      "Ġchosen": 6927,
      "phy": 6928,
      "Ġemph": 6929,
      "Ġinstance": 6930,
      "Ġcollected": 6931,
      "profit": 6932,
      "ĠGlobal": 6933,
      "Ġautomatically": 6934,
      "76": 6935,
      "EW": 6936,
      "Ġment": 6937,
      "arl": 6938,
      "arrow": 6939,
      "elines": 6940,
      "ria": 6941,
      "Ġchoices": 6942,
      "Ġpermission": 6943,
      "Ġteen": 6944,
      "merce": 6945,
      "Ġdelay": 6946,
      "Ġcats": 6947,
      "Ġpassing": 6948,
      "Ġhumans": 6949,
      "Ġclimate": 6950,
      "Ġmotiv": 6951,
      "Ġfailure": 6952,
      "Ġappearance": 6953,
      "rim": 6954,
      "Ġpra": 6955,
      "Ġlux": 6956,
      "urning": 6957,
      "ĠBow": 6958,
      "ĠMuseum": 6959,
      "Ġsheep": 6960,
      "andon": 6961,
      "ĠEric": 6962,
      "Ġabuse": 6963,
      "Ġtheme": 6964,
      "Ġenem": 6965,
      "orders": 6966,
      "Ġremaining": 6967,
      "Ġ2003": 6968,
      "Ġreceiving": 6969,
      "ĠPlus": 6970,
      "fficient": 6971,
      "Ġparticipate": 6972,
      "Ġvacation": 6973,
      "Ġcycle": 6974,
      "Ġsparkly": 6975,
      "Ġpowder": 6976,
      "Ġemotional": 6977,
      "'.": 6978,
      "Che": 6979,
      "EE": 6980,
      "fol": 6981,
      "nie": 6982,
      "Ġwid": 6983,
      "Ġang": 6984,
      "estyle": 6985,
      "ĠRoy": 6986,
      "Ġvase": 6987,
      "izzy": 6988,
      "Ġunknown": 6989,
      "Ġowned": 6990,
      "Ġdrag": 6991,
      "Ġvari": 6992,
      "Ġtreated": 6993,
      "cribe": 6994,
      "Ġidentity": 6995,
      "Ġengineering": 6996,
      "Ġbaseball": 6997,
      "Ġresistance": 6998,
      "Ġhundreds": 6999,
      "Ġinstructions": 7000,
      "!)": 7001,
      "Ġpir": 7002,
      "ician": 7003,
      "acle": 7004,
      "ste": 7005,
      "Ġupper": 7006,
      "ĠHope": 7007,
      "urther": 7008,
      "rif": 7009,
      "ulous": 7010,
      "Ġplug": 7011,
      "Ġbranches": 7012,
      "Ġinches": 7013,
      "Ġjustice": 7014,
      "obe": 7015,
      "anche": 7016,
      "Ġcrisis": 7017,
      "Ġartists": 7018,
      "ĠAdv": 7019,
      "Ġmonthly": 7020,
      "Ġexamples": 7021,
      "Ġentirely": 7022,
      "Ġconsumer": 7023,
      "Ġinvestigation": 7024,
      "Ġbrowser": 7025,
      "Res": 7026,
      "hell": 7027,
      "Ġwal": 7028,
      "eries": 7029,
      "Ġpants": 7030,
      "Ġpilot": 7031,
      "Ġinner": 7032,
      "road": 7033,
      "ĠEvent": 7034,
      "Ġdetect": 7035,
      "Ġsubmit": 7036,
      "Ġconfirm": 7037,
      "lands": 7038,
      "Ġshares": 7039,
      "Ġcentre": 7040,
      "Ġsleeping": 7041,
      "ĠPolice": 7042,
      "Ġscheduled": 7043,
      "Ġinterpret": 7044,
      "fa": 7045,
      "fish": 7046,
      "water": 7047,
      "Ġtack": 7048,
      "Ġwest": 7049,
      "isters": 7050,
      "ĠTake": 7051,
      "Ġyards": 7052,
      "acter": 7053,
      "Ġvine": 7054,
      "oston": 7055,
      "Ġgrad": 7056,
      "Ġattorney": 7057,
      "Ġpromote": 7058,
      "Ġmemories": 7059,
      "Ġsplit": 7060,
      "unnel": 7061,
      "burg": 7062,
      "ĠVirginia": 7063,
      "Ġfingers": 7064,
      "Ġtoil": 7065,
      "icial": 7066,
      "ĠTit": 7067,
      "etic": 7068,
      "Ġperman": 7069,
      "aund": 7070,
      "Ġflood": 7071,
      "lection": 7072,
      "Ġrelief": 7073,
      "Ġhighlight": 7074,
      "Ġmonitor": 7075,
      "Ġguilty": 7076,
      "Ġbelt": 7077,
      "Ġassum": 7078,
      "Ġinterior": 7079,
      "Ġlawyer": 7080,
      "Ġbasically": 7081,
      "Ġrecording": 7082,
      "ERS": 7083,
      "ĠBobby": 7084,
      "Ġliquid": 7085,
      "Will": 7086,
      "Ġaid": 7087,
      "Ġacknow": 7088,
      "Ġpounds": 7089,
      "Ġhorn": 7090,
      "ĠCost": 7091,
      "ĠMa": 7092,
      "ĠLog": 7093,
      "ĠChildren": 7094,
      "Ġrecovery": 7095,
      "Ġhousehold": 7096,
      "Ġlocked": 7097,
      "Ġadvoc": 7098,
      "Ġsensitive": 7099,
      "Ġdomain": 7100,
      "Ġinspired": 7101,
      "BI": 7102,
      "MA": 7103,
      "iors": 7104,
      "xy": 7105,
      "Ġfestival": 7106,
      "Ġprove": 7107,
      "ĠThose": 7108,
      "ĠKitty": 7109,
      "Ġimportance": 7110,
      "ĠAlice": 7111,
      "Ġstops": 7112,
      "Ġidentified": 7113,
      "Ġinstallation": 7114,
      "Ġstrategies": 7115,
      "Ġcommitment": 7116,
      "!âĢĿ": 7117,
      "rome": 7118,
      "Ġtonight": 7119,
      "ĠSk": 7120,
      "eline": 7121,
      "ĠFull": 7122,
      "Ġlosing": 7123,
      "Ġknock": 7124,
      "ĠKn": 7125,
      "Ġbless": 7126,
      "Ġissued": 7127,
      "ĠComput": 7128,
      "Ġresource": 7129,
      "Ġpatterns": 7130,
      "Ġenhance": 7131,
      "iat": 7132,
      "lig": 7133,
      "Ġcable": 7134,
      "ouch": 7135,
      "idi": 7136,
      "olve": 7137,
      "ĠLim": 7138,
      "ĠGame": 7139,
      "Ġpregn": 7140,
      "Ġacting": 7141,
      "Ġbelieves": 7142,
      "Ġsquee": 7143,
      "Ġindustrial": 7144,
      "Ġemployee": 7145,
      "Ġcampus": 7146,
      "Ġapolog": 7147,
      "laimed": 7148,
      "Ġordered": 7149,
      "Ġadministr": 7150,
      "Ġinnovation": 7151,
      "Ġscientific": 7152,
      "Ġbattery": 7153,
      "ĠDigital": 7154,
      "Even": 7155,
      "zing": 7156,
      "Ġtidy": 7157,
      "Ġinput": 7158,
      "igration": 7159,
      "Ġconstit": 7160,
      "Ġrode": 7161,
      "Ġcolours": 7162,
      "Ġindeed": 7163,
      "Ġsalad": 7164,
      "Ġinfrastructure": 7165,
      "Ġinjuries": 7166,
      "Ġhyp": 7167,
      "Ġsoul": 7168,
      "Ġdelighted": 7169,
      "ĠSupport": 7170,
      "Over": 7171,
      "rick": 7172,
      "va": 7173,
      "za": 7174,
      "Ġsam": 7175,
      "Ġsample": 7176,
      "rawn": 7177,
      "Ġworm": 7178,
      "angers": 7179,
      "Ġfirstname": 7180,
      "Ġwrites": 7181,
      "Ġfridge": 7182,
      "Ġmonit": 7183,
      "rete": 7184,
      "Ġdepart": 7185,
      "Ġdinos": 7186,
      "ossible": 7187,
      "Ġmotion": 7188,
      "Ġprinted": 7189,
      "Ð¾Ð": 7190,
      "ĠMartin": 7191,
      "Ġcomponents": 7192,
      "Funnels": 7193,
      "Ġwitness": 7194,
      "aturing": 7195,
      "Ġsaving": 7196,
      "aints": 7197,
      "Ġlip": 7198,
      "oster": 7199,
      "Ġshoulder": 7200,
      "Ġphil": 7201,
      "Ġformed": 7202,
      "Ġcalendar": 7203,
      "Ġprivacy": 7204,
      "ĠJustice": 7205,
      "Ġregularly": 7206,
      "Ġterror": 7207,
      "ĠHotel": 7208,
      "Ġtherapy": 7209,
      "zer": 7210,
      "Ġax": 7211,
      "Ġpa": 7212,
      "ĠMur": 7213,
      "ifer": 7214,
      "Their": 7215,
      "abled": 7216,
      "Ġcontrast": 7217,
      "Ġunp": 7218,
      "Ġunivers": 7219,
      "Ġphase": 7220,
      "Ġcourage": 7221,
      "ĠJackson": 7222,
      "ĠIndust": 7223,
      "Ġcircumstances": 7224,
      "42": 7225,
      "Dad": 7226,
      "bal": 7227,
      "Ġwrap": 7228,
      "icit": 7229,
      "ppers": 7230,
      "ĠDog": 7231,
      "ĠNC": 7232,
      "Ġcontr": 7233,
      "Ġreput": 7234,
      "2013": 7235,
      "Ġassets": 7236,
      "Ġhealthcare": 7237,
      "shop": 7238,
      "Ġpractical": 7239,
      "Ġofficers": 7240,
      "Ġelement": 7241,
      "Sarah": 7242,
      "Ġchallenging": 7243,
      "Ġelderly": 7244,
      "Jane": 7245,
      "case": 7246,
      "craft": 7247,
      "rum": 7248,
      "Ġsudden": 7249,
      "Ġcott": 7250,
      "ĠTest": 7251,
      "Ġje": 7252,
      "ĠGen": 7253,
      "icket": 7254,
      "Ġregistration": 7255,
      "Ġhurts": 7256,
      "Ġfilms": 7257,
      "Ġpartnership": 7258,
      "Ġnurse": 7259,
      "Mama": 7260,
      "pass": 7261,
      "atin": 7262,
      "Ġfasc": 7263,
      "ĠMP": 7264,
      "cend": 7265,
      "Ġalarm": 7266,
      "ĠDom": 7267,
      "istent": 7268,
      "Ġquot": 7269,
      "ĠStat": 7270,
      "Ġcoins": 7271,
      "Ġlaid": 7272,
      "ĠAndroid": 7273,
      "Ġchecked": 7274,
      "Ġ2001": 7275,
      "ĠProv": 7276,
      "Ġfacts": 7277,
      "iece": 7278,
      "Another": 7279,
      "Ġmessages": 7280,
      "ĠCentre": 7281,
      "Ġportion": 7282,
      "Ġaffordable": 7283,
      "59": 7284,
      "ĠÃ": 7285,
      "Ġcries": 7286,
      "alian": 7287,
      "ĠMum": 7288,
      "inder": 7289,
      "issors": 7290,
      "Ġadvis": 7291,
      "Ġaffili": 7292,
      "Ġmachines": 7293,
      "Ġaccurate": 7294,
      "Ġguarantee": 7295,
      "58": 7296,
      "Ind": 7297,
      "Many": 7298,
      "Ġmatt": 7299,
      "ĠTen": 7300,
      "Ġnic": 7301,
      "ĠSearch": 7302,
      "ĠCast": 7303,
      "umin": 7304,
      "ĠEr": 7305,
      "ĠJac": 7306,
      "asts": 7307,
      "Ġmere": 7308,
      "Ġenable": 7309,
      "ubs": 7310,
      "Ġeveryday": 7311,
      "nergy": 7312,
      "Ġbitter": 7313,
      "Ġmessy": 7314,
      "Ġpurchased": 7315,
      "Ġawareness": 7316,
      "ĠJapanese": 7317,
      "Ġflavor": 7318,
      "ĠGovernment": 7319,
      "Ġruined": 7320,
      "Sc": 7321,
      "Ġtear": 7322,
      "icious": 7323,
      "ĠTony": 7324,
      "ĠHand": 7325,
      "ĠMobile": 7326,
      "rient": 7327,
      "ership": 7328,
      "Ġoutput": 7329,
      "ogue": 7330,
      "Ġdishes": 7331,
      "Ġlazy": 7332,
      "Ġaccomp": 7333,
      "Ġregional": 7334,
      "Ġwheels": 7335,
      "Ġstruggle": 7336,
      "ĠRepublican": 7337,
      "Ġmurder": 7338,
      "Ġresearchers": 7339,
      "west": 7340,
      "Ġir": 7341,
      "rem": 7342,
      "ĠMem": 7343,
      "ript": 7344,
      "ĠLand": 7345,
      "ĠWal": 7346,
      "Ġcomprehensive": 7347,
      "Ġcommission": 7348,
      "Ġelev": 7349,
      "ĠLouis": 7350,
      "Ġgiggled": 7351,
      "col": 7352,
      "Ġpushing": 7353,
      "Ġmask": 7354,
      "ĠSa": 7355,
      "ĠBh": 7356,
      "Ġproceed": 7357,
      "Ġconvert": 7358,
      "Ġloans": 7359,
      "ĠGive": 7360,
      "Ġworst": 7361,
      "Ġmeadow": 7362,
      "Ġweren": 7363,
      "ĠSoft": 7364,
      "Ġpresents": 7365,
      "gypt": 7366,
      "Ġtested": 7367,
      "ĠIsl": 7368,
      "Ġfalling": 7369,
      "Ġbarked": 7370,
      "ealous": 7371,
      "Ġroute": 7372,
      "Ġtowel": 7373,
      "Ġfolks": 7374,
      "van": 7375,
      "Ġsan": 7376,
      "Ġsighed": 7377,
      "Ġbark": 7378,
      "alle": 7379,
      "Ġlaptop": 7380,
      "owed": 7381,
      "ĠBaby": 7382,
      "ĠMen": 7383,
      "ĠLab": 7384,
      "Ġvul": 7385,
      "resents": 7386,
      "Ġscissors": 7387,
      "ibilities": 7388,
      "Ġgoods": 7389,
      "Ġextended": 7390,
      "Ġmighty": 7391,
      "ĠReport": 7392,
      "Ġauthority": 7393,
      "Ġmassive": 7394,
      "56": 7395,
      "bing": 7396,
      "can": 7397,
      "oh": 7398,
      "Ġë": 7399,
      "Ġtunnel": 7400,
      "hent": 7401,
      "itis": 7402,
      "Ġpure": 7403,
      "Ġheav": 7404,
      "stone": 7405,
      "Ġfork": 7406,
      "Ġsole": 7407,
      "ĠRoom": 7408,
      "ĠOil": 7409,
      "Ġenvelop": 7410,
      "Ġroar": 7411,
      "Ġresident": 7412,
      "Ġedition": 7413,
      "Ġmuscle": 7414,
      "Ġyounger": 7415,
      "Although": 7416,
      "Ġcups": 7417,
      "Ġsailed": 7418,
      "Ġlicens": 7419,
      "Ġassessment": 7420,
      "ĠPersonal": 7421,
      "ĠCanadian": 7422,
      ":||": 7423,
      "Mr": 7424,
      "RS": 7425,
      "mosp": 7426,
      "Ġbaking": 7427,
      "Ġpit": 7428,
      "Ġhats": 7429,
      "Ġnurs": 7430,
      "idays": 7431,
      "ĠUt": 7432,
      "Ġunable": 7433,
      "Ġsimpl": 7434,
      "Ġexpans": 7435,
      "Ġnods": 7436,
      "Ġmarked": 7437,
      "Ġinfo": 7438,
      "Before": 7439,
      "Ġfulf": 7440,
      "Ġsuitable": 7441,
      "walk": 7442,
      "ÑĢ": 7443,
      "Ġbake": 7444,
      "Ġhits": 7445,
      "ĠTeddy": 7446,
      "ownt": 7447,
      "ĠCH": 7448,
      "ushes": 7449,
      "Ġuniform": 7450,
      "ensity": 7451,
      "Ġcarbon": 7452,
      "ĠAnother": 7453,
      "Ġmini": 7454,
      "Ġheaded": 7455,
      "Ġapproved": 7456,
      "Ġfellow": 7457,
      "Ġfundament": 7458,
      "Ġdrinking": 7459,
      "Ġordinary": 7460,
      "Ġreminded": 7461,
      "Ġpreferred": 7462,
      "Ġcandidates": 7463,
      "ĠVictor": 7464,
      "Help": 7465,
      "Pe": 7466,
      "cell": 7467,
      "dge": 7468,
      "ml": 7469,
      "oves": 7470,
      "Ġpor": 7471,
      "Ġdys": 7472,
      "Ġrein": 7473,
      "Ġshake": 7474,
      "Ġupcoming": 7475,
      "apa": 7476,
      "Ġcompens": 7477,
      "Ġ34": 7478,
      "Ġguest": 7479,
      "ĠBlog": 7480,
      "Ġbrothers": 7481,
      "Ġprinciples": 7482,
      "Ġfrequently": 7483,
      "ĠMexico": 7484,
      "Ġsituations": 7485,
      "Ġpour": 7486,
      "Ġdates": 7487,
      "Ġyield": 7488,
      "owing": 7489,
      "Ġrandom": 7490,
      "ĠWatch": 7491,
      "Ġclown": 7492,
      "Ġhasn": 7493,
      "Ġenorm": 7494,
      "ĠStyle": 7495,
      "Ġimpossible": 7496,
      "Ġfluffy": 7497,
      "ĠRev": 7498,
      "ĠCla": 7499,
      "Ġcharged": 7500,
      "Ġstands": 7501,
      "Ġeffectively": 7502,
      "ĠFeb": 7503,
      "ĠPrem": 7504,
      "Ġencouraged": 7505,
      "Ġkissed": 7506,
      "Ġsurrounding": 7507,
      "Ġcooper": 7508,
      "Ġrisks": 7509,
      "Ġentertainment": 7510,
      "GE": 7511,
      "gen": 7512,
      "Ġbes": 7513,
      "Ġhopping": 7514,
      "Ġlamp": 7515,
      "ĠAud": 7516,
      "Ġangel": 7517,
      "ĠWould": 7518,
      "ĠRyan": 7519,
      "Ġprince": 7520,
      "Ġblind": 7521,
      "Ġrepresents": 7522,
      "umpy": 7523,
      "Ġpercentage": 7524,
      "Ġoccup": 7525,
      "EST": 7526,
      "Ġtypical": 7527,
      "Ġdestination": 7528,
      "Ġefficiency": 7529,
      "Ġwealthy": 7530,
      "Ġconfirmed": 7531,
      "Im": 7532,
      "Per": 7533,
      "Rec": 7534,
      "pill": 7535,
      "zard": 7536,
      "rection": 7537,
      "Ġwarrant": 7538,
      "vell": 7539,
      "ĠLive": 7540,
      "ĠDave": 7541,
      "Ġjealous": 7542,
      "Ġspots": 7543,
      "Ġcompassion": 7544,
      "ailability": 7545,
      "Ġpean": 7546,
      "ishment": 7547,
      "ierce": 7548,
      "Ġcleaned": 7549,
      "Ġfacing": 7550,
      "Ġanticip": 7551,
      "Ġlifted": 7552,
      "ĠDVD": 7553,
      "CA": 7554,
      "SS": 7555,
      "from": 7556,
      "Ġtasks": 7557,
      "Ġske": 7558,
      "Ġbodies": 7559,
      "Ġmild": 7560,
      "ĠEgypt": 7561,
      "Ġtrash": 7562,
      "Ġtwe": 7563,
      "ĠView": 7564,
      "Ġremained": 7565,
      "Ġcritic": 7566,
      "Ġdram": 7567,
      "ĠSpirit": 7568,
      "Ġsupports": 7569,
      "Ġfactor": 7570,
      "Ġaccessible": 7571,
      "Ġequal": 7572,
      "Ġelectronic": 7573,
      "Ġexpectations": 7574,
      "Ġrolling": 7575,
      "Ġgolden": 7576,
      "Ġpremium": 7577,
      "Ġgraduate": 7578,
      "Ġapparently": 7579,
      "ĠCorporation": 7580,
      "bits": 7581,
      "asm": 7582,
      "aylor": 7583,
      "otal": 7584,
      "sters": 7585,
      "ĠHenry": 7586,
      "ĠLee": 7587,
      "Ġexternal": 7588,
      "Ġseats": 7589,
      "ĠNick": 7590,
      "eller": 7591,
      "Ġscored": 7592,
      "ĠThrough": 7593,
      "Ġcapable": 7594,
      "Ġcuts": 7595,
      "Ġsuccessfully": 7596,
      "Ġwarned": 7597,
      "Ġreasonable": 7598,
      "ĠMinister": 7599,
      "Ġdescription": 7600,
      "Ġfunctions": 7601,
      "Ġcasino": 7602,
      "Ġconvenient": 7603,
      "02": 7604,
      "06": 7605,
      "CO": 7606,
      "Fi": 7607,
      "bi": 7608,
      "dr": 7609,
      "long": 7610,
      "lines": 7611,
      "tain": 7612,
      "ĠSet": 7613,
      "Ġstairs": 7614,
      "ĠAff": 7615,
      "Ġanch": 7616,
      "Ġshield": 7617,
      "ĠFed": 7618,
      "owned": 7619,
      "Ġworldwide": 7620,
      "Ġhardware": 7621,
      "Ġtrading": 7622,
      "ĠWilliams": 7623,
      "Ġoutdoor": 7624,
      "ĠAcademy": 7625,
      "ĠTri": 7626,
      "ĠBoston": 7627,
      "ĠMaster": 7628,
      "ĠEqu": 7629,
      "ĠOper": 7630,
      "?\".": 7631,
      "ockey": 7632,
      "luded": 7633,
      "Ġcommittee": 7634,
      "Ġpositions": 7635,
      "Ġdirected": 7636,
      "Ġmeetings": 7637,
      "Ġeth": 7638,
      "Ġsweetie": 7639,
      "ĠMaria": 7640,
      "Ġsignificantly": 7641,
      "ĠGerman": 7642,
      "GA": 7643,
      "TA": 7644,
      "apped": 7645,
      "then": 7646,
      "ua": 7647,
      "Ġsin": 7648,
      "Ġber": 7649,
      "Ġmel": 7650,
      "Ġnav": 7651,
      "ĠSnow": 7652,
      "Ġreject": 7653,
      "ĠJones": 7654,
      "Ġscript": 7655,
      "izard": 7656,
      "ulture": 7657,
      "Ġmusical": 7658,
      "Ġprompt": 7659,
      "Ġsounded": 7660,
      "ĠLeo": 7661,
      "Ġfitness": 7662,
      "Ġdiscussed": 7663,
      "Ġapartment": 7664,
      "Ġfigures": 7665,
      "Ġrestaurants": 7666,
      "keeper": 7667,
      "Ġstreets": 7668,
      "57": 7669,
      "FA": 7670,
      "bro": 7671,
      "Ġsorts": 7672,
      "Ġbicy": 7673,
      "Ġpale": 7674,
      "Ġaside": 7675,
      "usting": 7676,
      "Ġchapter": 7677,
      "Ġintr": 7678,
      "Ġkeys": 7679,
      "Ġattach": 7680,
      "Ġregister": 7681,
      "Ġdistinct": 7682,
      "Ġdepos": 7683,
      "Ġpossibility": 7684,
      "Ġdisplayed": 7685,
      "Ġcapture": 7686,
      "Ġproposal": 7687,
      "ĠSpring": 7688,
      "Ġchannel": 7689,
      "Ġdatabase": 7690,
      "04": 7691,
      "sen": 7692,
      "Â°": 7693,
      "utch": 7694,
      "Ġvital": 7695,
      "Ġchase": 7696,
      "Ġclay": 7697,
      "Ġdisag": 7698,
      "ĠVer": 7699,
      "Ġcarpet": 7700,
      "uces": 7701,
      "Ġgotten": 7702,
      "Ġattrib": 7703,
      "Ġreplaced": 7704,
      "Joe": 7705,
      "Ġdelicate": 7706,
      "Ġburning": 7707,
      "Ġparticipants": 7708,
      "Ġmistakes": 7709,
      "ĠPete": 7710,
      "ĠEngineering": 7711,
      "ixture": 7712,
      "Ġlandscape": 7713,
      "ĠPacific": 7714,
      "46": 7715,
      "LY": 7716,
      "Rem": 7717,
      "bu": 7718,
      "greg": 7719,
      "Ġille": 7720,
      "ingu": 7721,
      "Ġmummy": 7722,
      "esh": 7723,
      "eting": 7724,
      "ĠMot": 7725,
      "uls": 7726,
      "Ġatmosp": 7727,
      "Ġsoph": 7728,
      "ĠDisc": 7729,
      "elled": 7730,
      "ellow": 7731,
      "Ġscrew": 7732,
      "ĠKent": 7733,
      "igned": 7734,
      "Ġrelative": 7735,
      "Ġreturning": 7736,
      "Ġtalks": 7737,
      "Ġbreaking": 7738,
      "Ġdrops": 7739,
      "Ġcircles": 7740,
      "Ġdeeper": 7741,
      "fortable": 7742,
      "ĠEnvironment": 7743,
      "ĠMichigan": 7744,
      "Ġathlet": 7745,
      "inch": 7746,
      "Ġsink": 7747,
      "Ġwishes": 7748,
      "itage": 7749,
      "ester": 7750,
      "asant": 7751,
      "Ġgam": 7752,
      "adel": 7753,
      "Ġseal": 7754,
      "ĠFOR": 7755,
      "Ġspaces": 7756,
      "Ġdeals": 7757,
      "Ġshower": 7758,
      "Ġbooking": 7759,
      "Ġmoist": 7760,
      "Ġoppon": 7761,
      "ĠCoast": 7762,
      "Ġpenny": 7763,
      "igenous": 7764,
      "miss": 7765,
      "ican": 7766,
      "ĠSite": 7767,
      "ĠSanta": 7768,
      "ĠMid": 7769,
      "ĠPen": 7770,
      "essert": 7771,
      "ĠRights": 7772,
      "redit": 7773,
      "ptions": 7774,
      "Ġbrace": 7775,
      "Ġapps": 7776,
      "Ġ2021": 7777,
      "oby": 7778,
      "Ġexcess": 7779,
      "ĠDean": 7780,
      "Ġmembership": 7781,
      "Ġdealing": 7782,
      "Ġneighbour": 7783,
      "Ġconducted": 7784,
      "Ġachieved": 7785,
      "Ġfolder": 7786,
      "Ġcolourful": 7787,
      "ĠRichard": 7788,
      "Ġfeathers": 7789,
      "Ġenormous": 7790,
      "52": 7791,
      "heart": 7792,
      "eding": 7793,
      "Ġtooth": 7794,
      "Ġmg": 7795,
      "Ġmal": 7796,
      "acc": 7797,
      "lyn": 7798,
      "ĠMult": 7799,
      "ĠLLC": 7800,
      "ĠPoint": 7801,
      "Ġneither": 7802,
      "ĠNH": 7803,
      "ĠGal": 7804,
      "anges": 7805,
      "Ġattached": 7806,
      "Ġstudio": 7807,
      "Ġcounted": 7808,
      "Ġcommunications": 7809,
      "Ġairport": 7810,
      "iki": 7811,
      "ĠAgain": 7812,
      "Ġbasketball": 7813,
      "Ġhanging": 7814,
      "ĠFrancisco": 7815,
      "Ġfoolish": 7816,
      "ĠLtd": 7817,
      "Jill": 7818,
      "Man": 7819,
      "jo": 7820,
      "mo": 7821,
      "person": 7822,
      "iti": 7823,
      "Ġcush": 7824,
      "Ġlaser": 7825,
      "ĠTech": 7826,
      "Ġease": 7827,
      "ĠCook": 7828,
      "ĠBrian": 7829,
      "ĠHead": 7830,
      "ĠRight": 7831,
      "respond": 7832,
      "Ġknight": 7833,
      "onduct": 7834,
      "Ġacts": 7835,
      "Ġsurre": 7836,
      "Ġmode": 7837,
      "otten": 7838,
      "Ġorganic": 7839,
      "Ġperforming": 7840,
      "Ġexplored": 7841,
      "Ġwheat": 7842,
      "Ġhung": 7843,
      "ĠScot": 7844,
      "Ġsensor": 7845,
      "Ġnegot": 7846,
      "Ġdegrees": 7847,
      "Ġroutine": 7848,
      "Jimmy": 7849,
      "Ġbonus": 7850,
      "aundry": 7851,
      "list": 7852,
      "hett": 7853,
      "urt": 7854,
      "ĠCath": 7855,
      "ĠMah": 7856,
      "Ġalt": 7857,
      "ĠDid": 7858,
      "ĠRon": 7859,
      "aste": 7860,
      "Ġincident": 7861,
      "Ġresolution": 7862,
      "Ġtwirl": 7863,
      "Ġdesired": 7864,
      "Ġfright": 7865,
      "Ġsupplies": 7866,
      "enced": 7867,
      "Ġbites": 7868,
      "Ġsurprising": 7869,
      "ĠColumb": 7870,
      "Ġnormally": 7871,
      "Ġinnovative": 7872,
      "Ġintelligent": 7873,
      "Ġcaterpill": 7874,
      "Fl": 7875,
      "Next": 7876,
      "Rep": 7877,
      "Sm": 7878,
      "Ġtire": 7879,
      "Ġtub": 7880,
      "Ġbin": 7881,
      "Ġbunch": 7882,
      "isdom": 7883,
      "Ġdump": 7884,
      "asters": 7885,
      "emic": 7886,
      "ĠField": 7887,
      "ĠEV": 7888,
      "Ġrealised": 7889,
      "Ġdrank": 7890,
      "ĠSports": 7891,
      "away": 7892,
      "Ġexposure": 7893,
      "works": 7894,
      "Ġhearts": 7895,
      "ĠSmall": 7896,
      "Ġstrip": 7897,
      "lusion": 7898,
      "Ġnutr": 7899,
      "Ġhistorical": 7900,
      "ĠSusie": 7901,
      "43": 7902,
      "98": 7903,
      "EP": 7904,
      "Free": 7905,
      "LS": 7906,
      "NY": 7907,
      "mary": 7908,
      "makers": 7909,
      "Ġtrib": 7910,
      "inals": 7911,
      "Ġpenc": 7912,
      "Ġthorough": 7913,
      "ĠSaf": 7914,
      "roke": 7915,
      "ĠColl": 7916,
      "Ġoutstanding": 7917,
      "ĠGames": 7918,
      "Ġfriendship": 7919,
      "Ġ300": 7920,
      "Ġboot": 7921,
      "Ġadds": 7922,
      "Ġskipped": 7923,
      "ifications": 7924,
      "Ġweekly": 7925,
      "Ġdefined": 7926,
      "Ġinvolve": 7927,
      "Also": 7928,
      "Ġfeatured": 7929,
      "Ġobserved": 7930,
      "Ġimmediate": 7931,
      "aduate": 7932,
      "ĠGermany": 7933,
      "Ġreferred": 7934,
      "ĠRadio": 7935,
      "03": 7936,
      "During": 7937,
      "mond": 7938,
      "pay": 7939,
      "Ġtheater": 7940,
      "requ": 7941,
      "Ġdull": 7942,
      "alse": 7943,
      "icians": 7944,
      "ĠTax": 7945,
      "Ġassemb": 7946,
      "ĠWhether": 7947,
      "ĠFriend": 7948,
      "ĠFestival": 7949,
      "Ġkicked": 7950,
      "aret": 7951,
      "Ġvast": 7952,
      "osoph": 7953,
      "Ġscare": 7954,
      "Ġteasp": 7955,
      "ĠVideo": 7956,
      "icted": 7957,
      "Ġhanded": 7958,
      "Ġwriters": 7959,
      "athan": 7960,
      "ĠEverything": 7961,
      "Ġdepth": 7962,
      "Ġreporting": 7963,
      "Ġfactory": 7964,
      "Ġzip": 7965,
      "Ġconcert": 7966,
      "Ġelectrical": 7967,
      "Ġbreaks": 7968,
      "ĠControl": 7969,
      "ĠSecurity": 7970,
      "Ġdivision": 7971,
      "Ġbroadcast": 7972,
      "Ġdistribution": 7973,
      "ĠMarketing": 7974,
      "Ġconstantly": 7975,
      "Ġepisode": 7976,
      "Ġchoosing": 7977,
      "Ġcriminal": 7978,
      "Ġenvelope": 7979,
      "97": 7980,
      "Two": 7981,
      "function": 7982,
      "edy": 7983,
      "Ġfib": 7984,
      "Ġtoast": 7985,
      "Ġhors": 7986,
      "ĠTurn": 7987,
      "Ġgroc": 7988,
      "Ġerect": 7989,
      "urous": 7990,
      "Ġdose": 7991,
      "hings": 7992,
      "Ġbrands": 7993,
      "Ġcoast": 7994,
      "Ġregulations": 7995,
      "Ġkindness": 7996,
      "Ġextent": 7997,
      "Ġstatue": 7998,
      "ĠContact": 7999,
      "ĠKey": 8000,
      "Ġsplashed": 8001,
      "Ġnuts": 8002,
      "Ġcooked": 8003,
      "CR": 8004,
      "tics": 8005,
      "Ġwing": 8006,
      "Ġwagon": 8007,
      "Ġpace": 8008,
      "Ġharsh": 8009,
      "Ġgig": 8010,
      "ĠSn": 8011,
      "ĠEp": 8012,
      "Ġrecipes": 8013,
      "Ġserves": 8014,
      "ĠBrad": 8015,
      "Ġtopics": 8016,
      "ĠConnect": 8017,
      "ĠManager": 8018,
      "ATION": 8019,
      "Ġintegrated": 8020,
      "Ġtoilet": 8021,
      "Amy": 8022,
      "Comp": 8023,
      "Hz": 8024,
      "RL": 8025,
      "Ġbab": 8026,
      "anwhile": 8027,
      "Ġdiverse": 8028,
      "Ġhes": 8029,
      "ĠSU": 8030,
      "Ġeast": 8031,
      "Ġrenew": 8032,
      "istan": 8033,
      "ĠEnergy": 8034,
      "aped": 8035,
      "Ġintent": 8036,
      "icking": 8037,
      "Ġnobody": 8038,
      "Ġgrumpy": 8039,
      "Ġuncle": 8040,
      "iously": 8041,
      "Ġskip": 8042,
      "Ġtransition": 8043,
      "Ġinterface": 8044,
      "Ġcreatures": 8045,
      "ĠAdam": 8046,
      "Ġmanagers": 8047,
      "Ġmagn": 8048,
      "Ġdomestic": 8049,
      "Ġbanana": 8050,
      "Ġpillow": 8051,
      "flower": 8052,
      "300": 8053,
      "Ġtheory": 8054,
      "reate": 8055,
      "Ġlect": 8056,
      "ĠTown": 8057,
      "stal": 8058,
      "ĠCB": 8059,
      "ĠBas": 8060,
      "ĠWi": 8061,
      "Ġexecut": 8062,
      "ĠFederal": 8063,
      "Ġleather": 8064,
      "Ġrank": 8065,
      "Ġ1999": 8066,
      "ĠDaily": 8067,
      "ĠAuthor": 8068,
      "Ġopposite": 8069,
      "looking": 8070,
      "Posted": 8071,
      "ĠDivision": 8072,
      "Ġcaterpillar": 8073,
      "lers": 8074,
      "lights": 8075,
      "Ġtech": 8076,
      "Ġtube": 8077,
      "Ġdual": 8078,
      "Ġdrawn": 8079,
      "verty": 8080,
      "ĠBon": 8081,
      "ĠBush": 8082,
      "ĠFact": 8083,
      "uclear": 8084,
      "Ġstruck": 8085,
      "Ġindex": 8086,
      "Ġlets": 8087,
      "Ġslipped": 8088,
      "Ġapproval": 8089,
      "Ġresulting": 8090,
      "Ġoperate": 8091,
      "Ġtrusted": 8092,
      "Ġsuffering": 8093,
      "Ġspiritual": 8094,
      "Ġmotorcy": 8095,
      "OVID": 8096,
      "hi": 8097,
      "yers": 8098,
      "Ġobed": 8099,
      "Ġcaut": 8100,
      "ouston": 8101,
      "Ġstim": 8102,
      "ĠDie": 8103,
      "Ġloving": 8104,
      "Ġages": 8105,
      "Ġfeaturing": 8106,
      "Ġcolumn": 8107,
      "Ġpoverty": 8108,
      "Ġthoughtful": 8109,
      "pected": 8110,
      "Ġregul": 8111,
      "Ġrefr": 8112,
      "Ġtransaction": 8113,
      "Ġtransactions": 8114,
      "Ġdefault": 8115,
      "Ġpayments": 8116,
      "itches": 8117,
      "Ġcontrols": 8118,
      "Ġoriginally": 8119,
      "Ġwarning": 8120,
      "Ġdoctors": 8121,
      "faction": 8122,
      "ĠArea": 8123,
      "Ġbelonged": 8124,
      "Ġstruggling": 8125,
      "Ġdependable": 8126,
      "Ġmillions": 8127,
      "Ġdestroyed": 8128,
      "ĠCharlie": 8129,
      "Ġdiamond": 8130,
      "08": 8131,
      "HA": 8132,
      "Int": 8133,
      "Mummy": 8134,
      "cor": 8135,
      "itable": 8136,
      "Ġmm": 8137,
      "omed": 8138,
      "Ġnative": 8139,
      "etime": 8140,
      "Ġwashed": 8141,
      "irts": 8142,
      "ellect": 8143,
      "ĠMic": 8144,
      "ĠLin": 8145,
      "ĠJun": 8146,
      "ĠItalian": 8147,
      "iana": 8148,
      "Ġskill": 8149,
      "Ġsword": 8150,
      "Ġcounting": 8151,
      "Ġreplacement": 8152,
      "aturally": 8153,
      "Ġmagnet": 8154,
      "Ġadventurous": 8155,
      "Ġemployment": 8156,
      "Ġcelebrated": 8157,
      "Ġpersons": 8158,
      "Ġsettle": 8159,
      "Ġhttps": 8160,
      "Ġcontribute": 8161,
      "Ġmanufacturing": 8162,
      "ĠPriv": 8163,
      "Ġappointment": 8164,
      "Ġwagged": 8165,
      "Ġeligible": 8166,
      "bel": 8167,
      "best": 8168,
      "making": 8169,
      "whel": 8170,
      "inue": 8171,
      "atient": 8172,
      "Ġpul": 8173,
      "Ġdolph": 8174,
      "ĠSup": 8175,
      "olved": 8176,
      "Ġrul": 8177,
      "Ġshade": 8178,
      "Ġjail": 8179,
      "ubble": 8180,
      "Ġstranger": 8181,
      "Ġdifferences": 8182,
      "ĠBlood": 8183,
      "Ġmanaging": 8184,
      "Ġpotentially": 8185,
      "Ġfaced": 8186,
      "Ġcaptain": 8187,
      "Ġuncomfortable": 8188,
      "09": 8189,
      "77": 8190,
      "Did": 8191,
      "View": 8192,
      "worth": 8193,
      "Ġlaundry": 8194,
      "Ġnarrow": 8195,
      "Ġheight": 8196,
      "stream": 8197,
      "ĠMA": 8198,
      "âĢĻ.": 8199,
      "ĠPo": 8200,
      "Ġsheet": 8201,
      "this": 8202,
      "ĠJr": 8203,
      "Ġchampions": 8204,
      "Ġrescue": 8205,
      "Ġneedle": 8206,
      "comm": 8207,
      "ĠTherefore": 8208,
      "Ġfacilit": 8209,
      "Ġroads": 8210,
      "----": 8211,
      "Ġcategories": 8212,
      "Ġhistoric": 8213,
      "Ġestimated": 8214,
      "Ġexclusive": 8215,
      "American": 8216,
      "Best": 8217,
      "EX": 8218,
      "Welcome": 8219,
      "page": 8220,
      "rm": 8221,
      "words": 8222,
      "Ġdil": 8223,
      "level": 8224,
      "ira": 8225,
      "ura": 8226,
      "usted": 8227,
      "ĠEs": 8228,
      "ĠNem": 8229,
      "ĠGall": 8230,
      "Ġwanting": 8231,
      "ĠOS": 8232,
      "Ġpref": 8233,
      "Ġdecade": 8234,
      "Ġ55": 8235,
      "ĠRex": 8236,
      "Ġpolitics": 8237,
      "2012": 8238,
      "Ġrefund": 8239,
      "Ġjoining": 8240,
      "mbre": 8241,
      "Ġdefinition": 8242,
      "Ġdebate": 8243,
      "ruption": 8244,
      "Ġsoldiers": 8245,
      "Ġargument": 8246,
      "Ġvoters": 8247,
      "Ġbounce": 8248,
      "ĠJoseph": 8249,
      "Ġmonitoring": 8250,
      "96": 8251,
      "Mark": 8252,
      "Sue": 8253,
      "cons": 8254,
      "do": 8255,
      "gie": 8256,
      "run": 8257,
      "ĠTaylor": 8258,
      "Ġnarr": 8259,
      "Ġrear": 8260,
      "ĠCross": 8261,
      "Ġrushed": 8262,
      "Ġcone": 8263,
      "ĠRest": 8264,
      "Ġgoat": 8265,
      "ressed": 8266,
      "Ġcock": 8267,
      "Ġnowhere": 8268,
      "Ġmush": 8269,
      "Ġcapabilities": 8270,
      "Ġcorrespond": 8271,
      "Ġtechnique": 8272,
      "Ġphotograp": 8273,
      "Ġdining": 8274,
      "Ġholes": 8275,
      "Ġsuffer": 8276,
      "holders": 8277,
      "glass": 8278,
      "Ġcrawled": 8279,
      "Ġcontemporary": 8280,
      "Ġpermanent": 8281,
      "Ġdinosaur": 8282,
      "bie": 8283,
      "eon": 8284,
      "gent": 8285,
      "ran": 8286,
      "rid": 8287,
      "rics": 8288,
      "inent": 8289,
      "Ġwool": 8290,
      "Ġlung": 8291,
      "ĠHolly": 8292,
      "ĠAri": 8293,
      "ĠAction": 8294,
      "ĠLow": 8295,
      "Ġshine": 8296,
      "opard": 8297,
      "Ġmoms": 8298,
      "Ġsmelly": 8299,
      "Ġscan": 8300,
      "ipal": 8301,
      "Ġroles": 8302,
      "ĠThus": 8303,
      "ava": 8304,
      "inks": 8305,
      "Ġpole": 8306,
      "Ġminim": 8307,
      "Ġsubsequ": 8308,
      "Ġfallen": 8309,
      "Ġoccurred": 8310,
      "hyth": 8311,
      "Ġatmosphere": 8312,
      "86": 8313,
      "Have": 8314,
      "Mar": 8315,
      "TR": 8316,
      "mates": 8317,
      "spe": 8318,
      "Ġfault": 8319,
      "Ġpear": 8320,
      "enger": 8321,
      "Ġdessert": 8322,
      "arly": 8323,
      "Ġgender": 8324,
      "lee": 8325,
      "ĠIM": 8326,
      "ĠIP": 8327,
      "eled": 8328,
      "ĠMain": 8329,
      "Ġwhisp": 8330,
      "ĠPenn": 8331,
      "Ġjelly": 8332,
      "ĠOR": 8333,
      "ccer": 8334,
      "ormal": 8335,
      "Ġtwenty": 8336,
      "ucked": 8337,
      "Ġembr": 8338,
      "Ġexplan": 8339,
      "Ġinitiative": 8340,
      "reprene": 8341,
      "Ġvulner": 8342,
      "bra": 8343,
      "nab": 8344,
      "Ġsessions": 8345,
      "itled": 8346,
      "ĠHa": 8347,
      "ĠCert": 8348,
      "ĠFair": 8349,
      "endment": 8350,
      "ĠItaly": 8351,
      "Ġreserved": 8352,
      "ĠYoung": 8353,
      "ĠViet": 8354,
      "Ġdeploy": 8355,
      "Ġtrips": 8356,
      "ĠZeal": 8357,
      "Ġdeeply": 8358,
      "Ġgrandpa": 8359,
      "ĠMedicine": 8360,
      "Ġcausing": 8361,
      "Ġturkey": 8362,
      "Ġmeasured": 8363,
      "Ġexpression": 8364,
      "Ġlifestyle": 8365,
      "ĠTweety": 8366,
      "____": 8367,
      "ĠOhio": 8368,
      "GR": 8369,
      "bour": 8370,
      "days": 8371,
      "gage": 8372,
      "Ġtab": 8373,
      "Ġfierce": 8374,
      "anish": 8375,
      "Ġdive": 8376,
      "Ġdough": 8377,
      "Ġghost": 8378,
      "ĠSEO": 8379,
      "robe": 8380,
      "Ġstable": 8381,
      "chair": 8382,
      "Ġexha": 8383,
      "Ġproof": 8384,
      "Ġ150": 8385,
      "ĠEver": 8386,
      "Ġtrains": 8387,
      "ounded": 8388,
      "Ġdiscipl": 8389,
      "obs": 8390,
      "Ġ65": 8391,
      "Ġmedication": 8392,
      "Ġbarrel": 8393,
      "Ġparade": 8394,
      "Ġvictim": 8395,
      "ipper": 8396,
      "ÑĤ": 8397,
      "eration": 8398,
      "atched": 8399,
      "Ġtong": 8400,
      "utter": 8401,
      "ĠCam": 8402,
      "ĠBoy": 8403,
      "Ġsofa": 8404,
      "Ġsew": 8405,
      "Ġtrained": 8406,
      "Ġprote": 8407,
      "Ġprepar": 8408,
      "ĠChief": 8409,
      "Ġ400": 8410,
      "ĠSpe": 8411,
      "Ġextract": 8412,
      "Ġdistract": 8413,
      "Ġwondering": 8414,
      "Ġphysi": 8415,
      "Ġpleasure": 8416,
      "Ġstrike": 8417,
      "REE": 8418,
      "Ġtitles": 8419,
      "Ġinstrument": 8420,
      "Ġspokes": 8421,
      "Ġexpertise": 8422,
      "Ġerror": 8423,
      "Ġceiling": 8424,
      "Ġstructures": 8425,
      "Ġconcentr": 8426,
      "ta": 8427,
      "Ġpup": 8428,
      "Ġdownt": 8429,
      "iches": 8430,
      "ĠPack": 8431,
      "agues": 8432,
      "ĠDate": 8433,
      "Ġsmoking": 8434,
      "Ġusage": 8435,
      "Ġenforcement": 8436,
      "Ġcompr": 8437,
      "ĠVan": 8438,
      "ventional": 8439,
      "Ġdistant": 8440,
      "Ġorganize": 8441,
      "nesota": 8442,
      "Ġsettled": 8443,
      "Ġimagined": 8444,
      "Ġbikes": 8445,
      "ĠIndiana": 8446,
      "ĠRussian": 8447,
      "ĠClickFunnels": 8448,
      "Ġcandidate": 8449,
      "Ġlinked": 8450,
      "Ġanxiety": 8451,
      "Ġsavings": 8452,
      "Ġelastomer": 8453,
      "AV": 8454,
      "Jan": 8455,
      "Part": 8456,
      "kr": 8457,
      "uj": 8458,
      "Ñģ": 8459,
      "uting": 8460,
      "Ġreaction": 8461,
      "Ġtrump": 8462,
      "ĠOx": 8463,
      "Ġgrade": 8464,
      "ĠKate": 8465,
      "auc": 8466,
      "Ġarts": 8467,
      "Ġeverybody": 8468,
      "ĠChall": 8469,
      "Ġflute": 8470,
      "Ġboats": 8471,
      "ĠAndy": 8472,
      "ĠAndrew": 8473,
      "Ġreprod": 8474,
      "ĠArmy": 8475,
      "ployment": 8476,
      "Ġphotography": 8477,
      "Ġimproving": 8478,
      "Ġrequests": 8479,
      "Ġexpressed": 8480,
      "Ġthousand": 8481,
      "adelph": 8482,
      "CD": 8483,
      "bell": 8484,
      "dro": 8485,
      "dog": 8486,
      "omy": 8487,
      "ĠSem": 8488,
      "oof": 8489,
      "ĠBox": 8490,
      "umsy": 8491,
      "ateur": 8492,
      "quir": 8493,
      "Ġspell": 8494,
      "ĠNFL": 8495,
      "Ġdispos": 8496,
      "ĠKnow": 8497,
      "ocated": 8498,
      "rence": 8499,
      "Ġpersonally": 8500,
      "ĠArts": 8501,
      "Ġargue": 8502,
      "ĠDisney": 8503,
      "Ġshelter": 8504,
      "Ġconsistent": 8505,
      "Ġprecise": 8506,
      "Ġprospect": 8507,
      "Ġinformed": 8508,
      "front": 8509,
      "ĠProfessor": 8510,
      "Ġcharming": 8511,
      "Ġdysfunction": 8512,
      "ĠZealand": 8513,
      "bar": 8514,
      "hal": 8515,
      "Ġsac": 8516,
      "Ġfo": 8517,
      "ĠSouthern": 8518,
      "Ġreform": 8519,
      "rovers": 8520,
      "eling": 8521,
      "Ġrating": 8522,
      "Ġrush": 8523,
      "Ġprohib": 8524,
      "ĠJosh": 8525,
      "ĠKat": 8526,
      "inking": 8527,
      "Ġcruc": 8528,
      "Ġdiscovery": 8529,
      "Ġsignal": 8530,
      "Ġinteract": 8531,
      "lessly": 8532,
      "Ġengage": 8533,
      "ĠServer": 8534,
      "ĠPhot": 8535,
      "Ġdemocr": 8536,
      "ATE": 8537,
      "Ġburied": 8538,
      "Ġrecognition": 8539,
      "Ġseriously": 8540,
      "Ġillness": 8541,
      "ennis": 8542,
      "Ġalleged": 8543,
      "Ġirr": 8544,
      "Ġgem": 8545,
      "ĠHun": 8546,
      "ecess": 8547,
      "Ġneat": 8548,
      "Ġnoisy": 8549,
      "Ġgran": 8550,
      "Ġtwist": 8551,
      "Ġconscious": 8552,
      "Ġauthent": 8553,
      "Ġfiled": 8554,
      "Ġstored": 8555,
      "ĠBeing": 8556,
      "Ġengaged": 8557,
      "ĠCharles": 8558,
      "Ġbanks": 8559,
      "Ġfilling": 8560,
      "Ġthrowing": 8561,
      "Ġera": 8562,
      "ĠClean": 8563,
      "Ġobviously": 8564,
      "Ġfragile": 8565,
      "Ġrestrictions": 8566,
      "Ġsatisfied": 8567,
      "hetti": 8568,
      "Ġhorses": 8569,
      "Ġmushroom": 8570,
      "Billy": 8571,
      "SU": 8572,
      "Sally": 8573,
      "ruit": 8574,
      "site": 8575,
      "vet": 8576,
      "Ġduty": 8577,
      "iments": 8578,
      "step": 8579,
      "ĠCirc": 8580,
      "ĠLind": 8581,
      "ĠWH": 8582,
      "usal": 8583,
      "Ġpeek": 8584,
      "Ġfoundation": 8585,
      "Ġattended": 8586,
      "Ġbushes": 8587,
      "ĠSpace": 8588,
      "Ġmodest": 8589,
      "Ġnicely": 8590,
      "Ġdevelopers": 8591,
      "Ġfilter": 8592,
      "ĠExecutive": 8593,
      "Ġpressed": 8594,
      "Ġarrive": 8595,
      "ĠCarl": 8596,
      "Ġdreaming": 8597,
      "Ġauthorities": 8598,
      "ĠFinancial": 8599,
      "Ġreligion": 8600,
      "ĠAnton": 8601,
      "Ġstyles": 8602,
      "Ġscholars": 8603,
      "ĠSupreme": 8604,
      "78": 8605,
      "Back": 8606,
      "Oct": 8607,
      "aters": 8608,
      "iser": 8609,
      "orant": 8610,
      "ĠSS": 8611,
      "ĠHouston": 8612,
      "oli": 8613,
      "terior": 8614,
      "ĠDucky": 8615,
      "Ġmeas": 8616,
      "Ġintense": 8617,
      "ĠYet": 8618,
      "ĠStore": 8619,
      "weight": 8620,
      "Ġproviders": 8621,
      "Ġletting": 8622,
      "ĠAsh": 8623,
      "ĠUnfortunately": 8624,
      "Ġinsect": 8625,
      "Ġbadly": 8626,
      "engu": 8627,
      "Ġtemplate": 8628,
      "ĠApplic": 8629,
      "ORE": 8630,
      "Ġprinting": 8631,
      "iences": 8632,
      "Reg": 8633,
      "Ġprimarily": 8634,
      "Ġmystery": 8635,
      "Ġincreasingly": 8636,
      "hetic": 8637,
      "Ġrepeated": 8638,
      "Ġreputation": 8639,
      "41": 8640,
      "53": 8641,
      "Find": 8642,
      "Note": 8643,
      "aa": 8644,
      "nament": 8645,
      "ror": 8646,
      "Ġmic": 8647,
      "Ġlens": 8648,
      "Ġinch": 8649,
      "Ġstove": 8650,
      "Ġstead": 8651,
      "ĠHold": 8652,
      "Ġrising": 8653,
      "aghetti": 8654,
      "pled": 8655,
      "Ġdecent": 8656,
      "angle": 8657,
      "ighters": 8658,
      "Ġboots": 8659,
      "Ġconserv": 8660,
      "Ġproudly": 8661,
      "Ġcreates": 8662,
      "Ġshoe": 8663,
      "Ġpowers": 8664,
      "ĠDemocrats": 8665,
      "Ġcollaboration": 8666,
      "ĠForest": 8667,
      "Ġguidance": 8668,
      "Ġberries": 8669,
      "boy": 8670,
      "eath": 8671,
      "iro": 8672,
      "pon": 8673,
      "she": 8674,
      "Ġicy": 8675,
      "Ġpaw": 8676,
      "oman": 8677,
      "icop": 8678,
      "Ġgoose": 8679,
      "amon": 8680,
      "Ġforum": 8681,
      "olves": 8682,
      "ĠBrew": 8683,
      "ĠBella": 8684,
      "ĠWalk": 8685,
      "ĠFar": 8686,
      "Ġconver": 8687,
      "Ġplayful": 8688,
      "Ġclap": 8689,
      "Ġnewly": 8690,
      "Ġdispl": 8691,
      "Ġlisting": 8692,
      "ĠWhenever": 8693,
      "Ġlessons": 8694,
      "ĠBlu": 8695,
      "Ġgenerated": 8696,
      "struct": 8697,
      "Ġinvolves": 8698,
      "Ġimprovement": 8699,
      "Ġnecessarily": 8700,
      "Ġcounsel": 8701,
      "Ġsuffered": 8702,
      "Ġprocedures": 8703,
      "Ġcontrolled": 8704,
      "Ġadopt": 8705,
      "Ġsustainable": 8706,
      "Ġnewspaper": 8707,
      "Ġluxury": 8708,
      "bound": 8709,
      "foot": 8710,
      "mony": 8711,
      "parent": 8712,
      "Ð½": 8713,
      "Ġward": 8714,
      "itals": 8715,
      "ati": 8716,
      "Ġhay": 8717,
      "Ġongoing": 8718,
      "ĠBall": 8719,
      "ulpt": 8720,
      "Ġrum": 8721,
      "ĠRod": 8722,
      "ĠJoy": 8723,
      "ĠGirl": 8724,
      "Ġsufficient": 8725,
      "Ġtrim": 8726,
      "Ġacid": 8727,
      "Ġstudied": 8728,
      "Ġcommunicate": 8729,
      "Ġexception": 8730,
      "Ġobtained": 8731,
      "Ġjacket": 8732,
      "http": 8733,
      "800": 8734,
      "CS": 8735,
      "Each": 8736,
      "don": 8737,
      "ho": 8738,
      "Ġaunt": 8739,
      "inem": 8740,
      "Ġcudd": 8741,
      "Ġfra": 8742,
      "isation": 8743,
      "Ġhockey": 8744,
      "ags": 8745,
      "ĠFord": 8746,
      "ĠNote": 8747,
      "oses": 8748,
      "ials": 8749,
      "Ġdisg": 8750,
      "Ġexclaimed": 8751,
      "ĠRequ": 8752,
      "Ġrefres": 8753,
      "ĠShould": 8754,
      "Ġprogramming": 8755,
      "Ġlargely": 8756,
      "Ġfaculty": 8757,
      "class": 8758,
      "Ġoccurs": 8759,
      "Ġconsumption": 8760,
      "ĠBrook": 8761,
      "Ġsurrounded": 8762,
      "Ġlegislation": 8763,
      "ĠJersey": 8764,
      "Col": 8765,
      "rets": 8766,
      "erate": 8767,
      "Ġcord": 8768,
      "Ġfalse": 8769,
      "Ġlou": 8770,
      "Ġheal": 8771,
      "Ġhedge": 8772,
      "Ġyoga": 8773,
      "ĠMat": 8774,
      "ĠMummy": 8775,
      "ĠFL": 8776,
      "Ġlips": 8777,
      "Ġlob": 8778,
      "ĠNation": 8779,
      "ĠGar": 8780,
      "Ġoverwhel": 8781,
      "omething": 8782,
      "ĠAng": 8783,
      "Ġhandling": 8784,
      "Ġavailability": 8785,
      "Ġcenters": 8786,
      "ĠDoes": 8787,
      "ĠGrace": 8788,
      "Ġconcrete": 8789,
      "Ġ1997": 8790,
      "Ġencoun": 8791,
      "stitution": 8792,
      "Ġjuicy": 8793,
      "Ġattempts": 8794,
      "Ġimplementation": 8795,
      "Ġgranted": 8796,
      "''": 8797,
      "68": 8798,
      "UM": 8799,
      "cut": 8800,
      "iag": 8801,
      "lan": 8802,
      "pons": 8803,
      "sw": 8804,
      "vard": 8805,
      "Ġcact": 8806,
      "Ġfought": 8807,
      "Ġdizzy": 8808,
      "Ġnail": 8809,
      "ĠSky": 8810,
      "Ġstack": 8811,
      "Ġstunning": 8812,
      "ĠHon": 8813,
      "keys": 8814,
      "ĠCab": 8815,
      "Ġangle": 8816,
      "ĠLiving": 8817,
      "Ġrig": 8818,
      "Ġracing": 8819,
      "ifies": 8820,
      "ĠFurther": 8821,
      "Ġagents": 8822,
      "ĠUsing": 8823,
      "Ġbloom": 8824,
      "Ġ39": 8825,
      "Ġentering": 8826,
      "ĠCommon": 8827,
      "AND": 8828,
      "Ġcomputers": 8829,
      "Ġ1990": 8830,
      "Ġlimits": 8831,
      "ESS": 8832,
      "Ġmainly": 8833,
      "Ġamounts": 8834,
      "Ġsuggests": 8835,
      "Ġconsideration": 8836,
      "Ġhosting": 8837,
      "Ġinspiration": 8838,
      "ĠBuilding": 8839,
      "Ġrelaxed": 8840,
      "Ġratio": 8841,
      "Ġliterature": 8842,
      "Gu": 8843,
      "fire": 8844,
      "law": 8845,
      "post": 8846,
      "Ġtiger": 8847,
      "Ġaer": 8848,
      "ilst": 8849,
      "ulum": 8850,
      "Ġrh": 8851,
      "ureau": 8852,
      "ĠRub": 8853,
      "Ġspun": 8854,
      "Ġtricks": 8855,
      "pert": 8856,
      "Ġcoco": 8857,
      "Ġcriter": 8858,
      "Ġregions": 8859,
      "Ġreduction": 8860,
      "Ġ66": 8861,
      "Ġretire": 8862,
      "Ġstaying": 8863,
      "Ġlegend": 8864,
      "Ġcandle": 8865,
      "Ġessentially": 8866,
      "Ġexamine": 8867,
      "Ġinjured": 8868,
      "Ġincredibly": 8869,
      "ĠSystems": 8870,
      "Ġchannels": 8871,
      "ĠSecretary": 8872,
      "ĠSoftware": 8873,
      "Ġexpansion": 8874,
      "%,": 8875,
      "xx": 8876,
      "Ã¡": 8877,
      "Ġ?": 8878,
      "Ġrib": 8879,
      "Ġsought": 8880,
      "Ġfir": 8881,
      "Ġpiano": 8882,
      "Ġthy": 8883,
      "Ġgross": 8884,
      "stairs": 8885,
      "urrent": 8886,
      "ĠAwards": 8887,
      "ĠBase": 8888,
      "ĠMiddle": 8889,
      "Ġwhale": 8890,
      "ĠLine": 8891,
      "ĠLabor": 8892,
      "ĠRa": 8893,
      "Ġspaghetti": 8894,
      "Ġlogo": 8895,
      "orted": 8896,
      "Ġclumsy": 8897,
      "apters": 8898,
      "odd": 8899,
      "Ġaggress": 8900,
      "Ġ33": 8901,
      "onsin": 8902,
      "Ġpersonality": 8903,
      "Ġmarks": 8904,
      "ĠWhich": 8905,
      "Ġinsert": 8906,
      "Ġhurry": 8907,
      "Ġgenerate": 8908,
      "ĠTrust": 8909,
      "Ġraising": 8910,
      "Ġwidely": 8911,
      "ĠMinnesota": 8912,
      "Ġclothing": 8913,
      "isconsin": 8914,
      "Ġclimbing": 8915,
      "Ġsending": 8916,
      "Ġregardless": 8917,
      "including": 8918,
      "Ġmassage": 8919,
      "Ġclubs": 8920,
      "Ġindicate": 8921,
      "Ġtrends": 8922,
      "Ġcomponent": 8923,
      "ĠSummer": 8924,
      "ĠPotter": 8925,
      "Ġbarely": 8926,
      "ĠComputer": 8927,
      "Ġobedient": 8928,
      "Jen": 8929,
      "iac": 8930,
      "pir": 8931,
      "zes": 8932,
      "Ġbent": 8933,
      "Ġbubbles": 8934,
      "Ġmixture": 8935,
      "Ġdreamed": 8936,
      "arters": 8937,
      "urd": 8938,
      "ĠCas": 8939,
      "ĠPass": 8940,
      "Ġshocked": 8941,
      "ĠDark": 8942,
      "Ġexec": 8943,
      "ĠGM": 8944,
      "ugged": 8945,
      "Ġagric": 8946,
      "Ġworker": 8947,
      "ultural": 8948,
      "Ġrecover": 8949,
      "Ġloose": 8950,
      "Ġpoison": 8951,
      "letter": 8952,
      "Ġswan": 8953,
      "Ġexplains": 8954,
      "Ġentrance": 8955,
      "Ġnights": 8956,
      "Ġmuscles": 8957,
      "Ġzero": 8958,
      "Ġsalary": 8959,
      "ĠPhys": 8960,
      "Ġcooler": 8961,
      "ĠSelect": 8962,
      "Ġ1996": 8963,
      "Ġbrightly": 8964,
      "ĠKevin": 8965,
      "Ġpalm": 8966,
      "ĠPhiladelph": 8967,
      "Ġcheerful": 8968,
      "Ġupgrade": 8969,
      "ĠFilm": 8970,
      "Ġillegal": 8971,
      "mbrella": 8972,
      "Co": 8973,
      "Follow": 8974,
      "Pre": 8975,
      "date": 8976,
      "oir": 8977,
      "ëĭ": 8978,
      "inity": 8979,
      "erving": 8980,
      "Ġpoured": 8981,
      "oric": 8982,
      "orse": 8983,
      "Ġmut": 8984,
      "Ġmos": 8985,
      "Ġmath": 8986,
      "Ġgay": 8987,
      "ĠSat": 8988,
      "uties": 8989,
      "Ġwashing": 8990,
      "Ġbeef": 8991,
      "ĠHim": 8992,
      "ooper": 8993,
      "ĠCou": 8994,
      "ĠCreat": 8995,
      "ĠMoon": 8996,
      "ceeds": 8997,
      "ĠProm": 8998,
      "umer": 8999,
      "Ġchairs": 9000,
      "aka": 9001,
      "Ġtrig": 9002,
      "ĠOk": 9003,
      "Ġsomebody": 9004,
      "Ġsomewhat": 9005,
      "ogen": 9006,
      "Ġcontrovers": 9007,
      "Ġuniverse": 9008,
      "ults": 9009,
      "inton": 9010,
      "aware": 9011,
      "ĠPlace": 9012,
      "Ġhotels": 9013,
      "ĠOrder": 9014,
      "Ġdrawer": 9015,
      "Ġdiabetes": 9016,
      "Ġcopyright": 9017,
      "Ġinvestigate": 9018,
      "ĠSenior": 9019,
      "Ġscratch": 9020,
      "Ġsnee": 9021,
      "Ġweapon": 9022,
      "Check": 9023,
      "Ġbicycle": 9024,
      "Cop": 9025,
      "och": 9026,
      "uine": 9027,
      "Ġbars": 9028,
      "atics": 9029,
      "astern": 9030,
      "Ġgained": 9031,
      "iden": 9032,
      "ented": 9033,
      "Ġbeans": 9034,
      "uration": 9035,
      "Ġweigh": 9036,
      "ulating": 9037,
      "agers": 9038,
      "Ġshadow": 9039,
      "ĠNut": 9040,
      "ĠNiger": 9041,
      "Ġclar": 9042,
      "Ġcompat": 9043,
      "Ġquit": 9044,
      "Ġinvite": 9045,
      "Ġhardly": 9046,
      "Ġtravell": 9047,
      "Ġfastest": 9048,
      "Ġapproaches": 9049,
      "Ġbeneath": 9050,
      "âĢ¦.": 9051,
      "Ġalongside": 9052,
      "Ġwooden": 9053,
      "Ġlosses": 9054,
      "Ġrepeat": 9055,
      "Ġperfume": 9056,
      "Ke": 9057,
      "dis": 9058,
      "Ġtill": 9059,
      "inter": 9060,
      "Ġcam": 9061,
      "Ġmood": 9062,
      "Ġmile": 9063,
      "Ġinhib": 9064,
      "Ġthirst": 9065,
      "ĠHard": 9066,
      "ĠHarr": 9067,
      "ĠHoly": 9068,
      "olen": 9069,
      "ĠBul": 9070,
      "ĠBell": 9071,
      "ĠBible": 9072,
      "ĠLew": 9073,
      "Ġseasons": 9074,
      "Ġproven": 9075,
      "ĠRun": 9076,
      "Ġvet": 9077,
      "Ġtrunk": 9078,
      "Ġawards": 9079,
      "Ġloop": 9080,
      "Ġemissions": 9081,
      "Ġattic": 9082,
      "Ġballoons": 9083,
      "Ġstatements": 9084,
      "Ġbald": 9085,
      "Ġcomplicated": 9086,
      "Ġshops": 9087,
      "ependent": 9088,
      "Ġpriority": 9089,
      "Ġqualified": 9090,
      "Grand": 9091,
      "ĠAdministration": 9092,
      "%.": 9093,
      ",âĢĻ": 9094,
      "Out": 9095,
      "Tube": 9096,
      "ih": 9097,
      "aroo": 9098,
      "Ġlicked": 9099,
      "ĠSandy": 9100,
      "etch": 9101,
      "ĠAR": 9102,
      "ĠBern": 9103,
      "Ġraw": 9104,
      "ĠPop": 9105,
      "Ġbuzz": 9106,
      "Ġ49": 9107,
      "Ġreader": 9108,
      "Ġsupplement": 9109,
      "Ġsunflower": 9110,
      "Ġbreast": 9111,
      "Ġpasta": 9112,
      "Ġaccessories": 9113,
      "ĠWithout": 9114,
      "Ġprofessor": 9115,
      "Ġspeakers": 9116,
      "Ġcollar": 9117,
      "ĠStudies": 9118,
      "Ġproducing": 9119,
      "Ġjewelry": 9120,
      "Ġdynamic": 9121,
      "Ġteaspoon": 9122,
      "Ġrefriger": 9123,
      "TV": 9124,
      "born": 9125,
      "corn": 9126,
      "lar": 9127,
      "mble": 9128,
      "oked": 9129,
      "Ġot": 9130,
      "Ġbills": 9131,
      "Ġfed": 9132,
      "Ġpod": 9133,
      "Ġthunder": 9134,
      "ĠTele": 9135,
      "ĠAC": 9136,
      "season": 9137,
      "ĠCapt": 9138,
      "anted": 9139,
      "ĠFour": 9140,
      "ighting": 9141,
      "Ġchasing": 9142,
      "ourse": 9143,
      "Ġintellect": 9144,
      "izer": 9145,
      "Ġcompare": 9146,
      "Ġremov": 9147,
      "ologist": 9148,
      "Ġpolitic": 9149,
      "2011": 9150,
      "Ġexpenses": 9151,
      "Ġsniff": 9152,
      "Ġmarble": 9153,
      "Ġdescribe": 9154,
      "Ġholidays": 9155,
      "Ġtomatoes": 9156,
      "Ġsatisfaction": 9157,
      "ĠReviews": 9158,
      "Ġhammer": 9159,
      "Ġwhispered": 9160,
      "400": 9161,
      "Bu": 9162,
      "Dec": 9163,
      "cream": 9164,
      "tes": 9165,
      "xic": 9166,
      "Ġbubble": 9167,
      "ĠTreat": 9168,
      "ĠSuch": 9169,
      "ĠSoph": 9170,
      "iginal": 9171,
      "ĠCy": 9172,
      "ĠCamer": 9173,
      "char": 9174,
      "Ġvice": 9175,
      "ĠNorthern": 9176,
      "ĠGard": 9177,
      "lower": 9178,
      "Ġquote": 9179,
      "Ġcurric": 9180,
      "Ġposting": 9181,
      "Ġsinger": 9182,
      "Ġequival": 9183,
      "Ġdressed": 9184,
      "Ġadmired": 9185,
      "ĠCountry": 9186,
      "Ġcontracts": 9187,
      "ĠGuide": 9188,
      "Ġenterprise": 9189,
      "Ġsweater": 9190,
      "Ġwelcom": 9191,
      "Ġtongue": 9192,
      "Ġphysiological": 9193,
      "FT": 9194,
      "Give": 9195,
      "Use": 9196,
      "heme": 9197,
      "erk": 9198,
      "erning": 9199,
      "Ġbatt": 9200,
      "Ġcos": 9201,
      "Ġmand": 9202,
      "ashes": 9203,
      "Ġnaturally": 9204,
      "Ġreaching": 9205,
      "Ġreverse": 9206,
      "Ġstadium": 9207,
      "ĠBird": 9208,
      "ĠPract": 9209,
      "uma": 9210,
      "ĠRam": 9211,
      "Ġpride": 9212,
      "ĠStock": 9213,
      "Ġpee": 9214,
      "Ġ2022": 9215,
      "Ġdesper": 9216,
      "Ġactors": 9217,
      "Ġ42": 9218,
      "Ġsadly": 9219,
      "Ġlists": 9220,
      "erman": 9221,
      "Ġinstant": 9222,
      "ĠForce": 9223,
      "Ġapproached": 9224,
      "Ġpossess": 9225,
      "ÅĵLet": 9226,
      "Ġzone": 9227,
      "Ġbarn": 9228,
      "Ġhunting": 9229,
      "Ġdisappear": 9230,
      "Ġpersistent": 9231,
      "Ġultimate": 9232,
      "Ġintelligence": 9233,
      "ĠInsurance": 9234,
      "Ġtrumpet": 9235,
      "AB": 9236,
      "Pol": 9237,
      "df": 9238,
      "fall": 9239,
      "yes": 9240,
      "real": 9241,
      "Ġwitch": 9242,
      "Ġwisdom": 9243,
      "Ġorient": 9244,
      "Ġhire": 9245,
      "Ġstumbled": 9246,
      "ĠHospital": 9247,
      "ĠBE": 9248,
      "agen": 9249,
      "Ġexceed": 9250,
      "ĠEasy": 9251,
      "Ġhelicop": 9252,
      "ĠThough": 9253,
      "Ġunex": 9254,
      "anging": 9255,
      "Ġfounded": 9256,
      "Ġstrict": 9257,
      "leton": 9258,
      "onto": 9259,
      "Ġreducing": 9260,
      "Ġvisible": 9261,
      "Ġsubmitted": 9262,
      "Ġhumble": 9263,
      "ĠConf": 9264,
      "Ġofficially": 9265,
      "ĠÂ©": 9266,
      "Ġcardboard": 9267,
      "Ġportfol": 9268,
      "Ġlaughs": 9269,
      "Ġsilic": 9270,
      "ĠDavis": 9271,
      "Ġassociation": 9272,
      "Ġcouncil": 9273,
      "Ġspoiled": 9274,
      "Ġreveal": 9275,
      "Ġrubbed": 9276,
      "Ġcasual": 9277,
      "Ġultimately": 9278,
      "ĠQueen": 9279,
      "ĠSafety": 9280,
      "ĠNemo": 9281,
      "Ġtherm": 9282,
      "ref": 9283,
      "Ġbid": 9284,
      "ito": 9285,
      "Ġtone": 9286,
      "ington": 9287,
      "Ġdear": 9288,
      "Ġlatter": 9289,
      "icide": 9290,
      "roat": 9291,
      "ĠPA": 9292,
      "ĠPolly": 9293,
      "Ġshone": 9294,
      "Ġ($": 9295,
      "Ġjet": 9296,
      "ĠNBC": 9297,
      "Ġchances": 9298,
      "Ġmeals": 9299,
      "Ġpermit": 9300,
      "ĠKansas": 9301,
      "Ġtwig": 9302,
      "Ġgreatly": 9303,
      "Ġexcitedly": 9304,
      "Ġregret": 9305,
      "Ġslip": 9306,
      "Ġheading": 9307,
      "2010": 9308,
      "Ġextend": 9309,
      "Ġtreatments": 9310,
      "Ġeleg": 9311,
      "screen": 9312,
      "ropical": 9313,
      "ĠPerform": 9314,
      "ubborn": 9315,
      "Ġimplemented": 9316,
      "Ġrubber": 9317,
      "Ġflexibility": 9318,
      "friendly": 9319,
      "Med": 9320,
      "Press": 9321,
      "Saturday": 9322,
      "bec": 9323,
      "loo": 9324,
      "mother": 9325,
      "oors": 9326,
      "tical": 9327,
      "wan": 9328,
[...]
