{
  "version": "1.0",
  "truncation": null,
  "padding": null,
  "added_tokens": [
    {
      "id": 0,
      "content": "<|endoftext|>",
      "single_word": false,
      "lstrip": false,
      "rstrip": false,
      "normalized": false,
      "special": true
    }
  ],
  "normalizer": null,
  "pre_tokenizer": {
    "type": "ByteLevel",
    "add_prefix_space": false,
    "trim_offsets": true,
    "use_regex": true
  },
  "post_processor": null,
  "decoder": {
    "type": "ByteLevel",
    "add_prefix_space": true,
    "trim_offsets": true,
    "use_regex": true
  },
  "model": {
    "type": "BPE",
    "dropout": null,
    "unk_token": null,
    "continuing_subword_prefix": null,
    "end_of_word_suffix": null,
    "fuse_unk": false,
    "byte_fallback": false,
    "ignore_merges": false,
    "vocab": {
      "<|endoftext|>": 0,
      "!": 1,
      "\"": 2,
      "#": 3,
      "$": 4,
      "%": 5,
      "&": 6,
      "'": 7,
      "(": 8,
      ")": 9,
      "*": 10,
      "+": 11,
      ",": 12,
      "-": 13,
      ".": 14,
      "/": 15,
      "0": 16,
      "1": 17,
      "2": 18,
      "3": 19,
      "4": 20,
      "5": 21,
      "6": 22,
      "7": 23,
      "8": 24,
      "9": 25,
      ":": 26,
      ";": 27,
      "<": 28,
      "=": 29,
      ">": 30,
      "?": 31,
      "@": 32,
      "A": 33,
      "B": 34,
      "C": 35,
      "D": 36,
      "E": 37,
      "F": 38,
      "G": 39,
      "H": 40,
      "I": 41,
      "J": 42,
      "K": 43,
      "L": 44,
      "M": 45,
      "N": 46,
      "O": 47,
      "P": 48,
      "Q": 49,
      "R": 50,
      "S": 51,
      "T": 52,
      "U": 53,
      "V": 54,
      "W": 55,
      "X": 56,
      "Y": 57,
      "Z": 58,
      "[": 59,
      "\\": 60,
      "]": 61,
      "^": 62,
      "_": 63,
      "`": 64,
      "a": 65,
      "b": 66,
      "c": 67,
      "d": 68,
      "e": 69,
      "f": 70,
      "g": 71,
      "h": 72,
      "i": 73,
      "j": 74,
      "k": 75,
      "l": 76,
      "m": 77,
      "n": 78,
      "o": 79,
      "p": 80,
      "q": 81,
      "r": 82,
      "s": 83,
      "t": 84,
      "u": 85,
      "v": 86,
      "w": 87,
      "x": 88,
      "y": 89,
      "z": 90,
      "{": 91,
      "|": 92,
      "}": 93,
      "~": 94,
      "¡": 95,
      "¢": 96,
      "£": 97,
      "¤": 98,
      "¥": 99,
      "¦": 100,
      "§": 101,
      "¨": 102,
      "©": 103,
      "ª": 104,
      "«": 105,
      "¬": 106,
      "®": 107,
      "¯": 108,
      "°": 109,
      "±": 110,
      "²": 111,
      "³": 112,
      "´": 113,
      "µ": 114,
      "¶": 115,
      "·": 116,
      "¸": 117,
      "¹": 118,
      "º": 119,
      "»": 120,
      "¼": 121,
      "½": 122,
      "¾": 123,
      "¿": 124,
      "Â": 125,
      "Ã": 126,
      "Ä": 127,
      "Å": 128,
      "Æ": 129,
      "Ç": 130,
      "É": 131,
      "Ê": 132,
      "Ë": 133,
      "Ì": 134,
      "Î": 135,
      "Ï": 136,
      "Ð": 137,
      "Ñ": 138,
      "Ò": 139,
      "Ô": 140,
      "Ö": 141,
      "×": 142,
      "Ø": 143,
      "Ù": 144,
      "Ú": 145,
      "Û": 146,
      "à": 147,
      "á": 148,
      "â": 149,
      "ã": 150,
      "ä": 151,
      "å": 152,
      "æ": 153,
      "ç": 154,
      "è": 155,
      "é": 156,
      "ê": 157,
      "ë": 158,
      "ì": 159,
      "í": 160,
      "ï": 161,
      "ð": 162,
      "ĉ": 163,
      "Ċ": 164,
      "Č": 165,
      "č": 166,
      "Ě": 167,
      "Ġ": 168,
      "ġ": 169,
      "Ģ": 170,
      "ģ": 171,
      "Ĥ": 172,
      "ĥ": 173,
      "Ħ": 174,
      "ħ": 175,
      "Ĩ": 176,
      "ĩ": 177,
      "Ī": 178,
      "ī": 179,
      "Ĭ": 180,
      "ĭ": 181,
      "Į": 182,
      "į": 183,
      "İ": 184,
      "ı": 185,
      "Ĳ": 186,
      "ĳ": 187,
      "Ĵ": 188,
      "ĵ": 189,
      "Ķ": 190,
      "ķ": 191,
      "ĸ": 192,
      "Ĺ": 193,
      "ĺ": 194,
      "Ļ": 195,
      "ļ": 196,
      "Ľ": 197,
      "ľ": 198,
      "Ŀ": 199,
      "ŀ": 200,
      "Ł": 201,
      "ł": 202,
      "Ń": 203,
      "Ġt": 204,
      "he": 205,
      "Ġa": 206,
      "ĠĠ": 207,
      "in": 208,
      "Ġs": 209,
      "Ġthe": 210,
      "re": 211,
      "Ġw": 212,
      "nd": 213,
      "Ġo": 214,
      "er": 215,
      "ed": 216,
      "Ġb": 217,
      "it": 218,
      "Ġc": 219,
      "at": 220,
      "Ġf": 221,
      "Ġto": 222,
      "ou": 223,
      "Ġand": 224,
      "on": 225,
      "ĠĠĠĠ": 226,
      "Ġp": 227,
      "is": 228,
      "or": 229,
      "en": 230,
      "ing": 231,
      "Ġm": 232,
      "es": 233,
      "Ġh": 234,
      "an": 235,
      "Ġd": 236,
      "ar": 237,
      "as": 238,
      "al": 239,
      "Ġl": 240,
      "om": 241,
      "Ġin": 242,
      "Ġof": 243,
      "il": 244,
      "Ġth": 245,
      "ic": 246,
      "ĠT": 247,
      "Ġn": 248,
      "Ġg": 249,
      "le": 250,
      "ay": 251,
      "Ġhe": 252,
      "id": 253,
      "ĠS": 254,
      "Ġe": 255,
      "ion": 256,
      "et": 257,
      "ve": 258,
      "ad": 259,
      "ut": 260,
      "ot": 261,
      "ent": 262,
      "Ġy": 263,
      "Ġwas": 264,
      "im": 265,
      "st": 266,
      "ĠI": 267,
      "Ġre": 268,
      "ow": 269,
      "ac": 270,
      "el": 271,
      "âĢ": 272,
      "Ġbe": 273,
      "Ġit": 274,
      "Ġyou": 275,
      "ro": 276,
      "ly": 277,
      "am": 278,
      "Ġon": 279,
      "ĠĠĠĠĠĠĠĠ": 280,
      "ig": 281,
      "ver": 282,
      "Ġu": 283,
      "Ġfor": 284,
      "ir": 285,
      "ĠThe": 286,
      "Ġis": 287,
      "Ġst": 288,
      "ith": 289,
      "Ġthat": 290,
      "ur": 291,
      "ĠH": 292,
      "Ġwith": 293,
      "ol": 294,
      "ĠA": 295,
      "ec": 296,
      "se": 297,
      "Ġha": 298,
      "Ġsa": 299,
      "00": 300,
      "ĠC": 301,
      "oo": 302,
      "ke": 303,
      "ĠĠĠ": 304,
      "ĠM": 305,
      "čĊ": 306,
      "ĠB": 307,
      "ld": 308,
      "pp": 309,
      "ce": 310,
      "Ġr": 311,
      "Ġal": 312,
      "Ġwe": 313,
      "Ġwh": 314,
      "Ġan": 315,
      "ul": 316,
      "ĠL": 317,
      "ter": 318,
      "ri": 319,
      "ch": 320,
      "Ġas": 321,
      "ation": 322,
      "Ġher": 323,
      "ill": 324,
      "ĠP": 325,
      "--": 326,
      "her": 327,
      "if": 328,
      "un": 329,
      "Ġ3": 330,
      "ant": 331,
      "Ġare": 332,
      "Ġ1": 333,
      "ore": 334,
      "ĠHe": 335,
      "âĢĻ": 336,
      "ht": 337,
      "ag": 338,
      "Ġpl": 339,
      "us": 340,
      "Ġ\"": 341,
      "ĠD": 342,
      "Ġat": 343,
      "ĠShe": 344,
      "ĠW": 345,
      "Ġne": 346,
      "Ġso": 347,
      "op": 348,
      "Ġsh": 349,
      "ct": 350,
      "Ġhis": 351,
      "all": 352,
      "ers": 353,
      "Ġsaid": 354,
      "ome": 355,
      "Ġnot": 356,
      "ain": 357,
      "ould": 358,
      "em": 359,
      "ov": 360,
      "um": 361,
      "ab": 362,
      "'s": 363,
      "very": 364,
      "ked": 365,
      "ĠF": 366,
      "Ġup": 367,
      "rom": 368,
      "ily": 369,
      "Ġ2": 370,
      "ess": 371,
      "Ġex": 372,
      "est": 373,
      "The": 374,
      "Ġ(": 375,
      "Ġor": 376,
      "end": 377,
      "ĠThey": 378,
      "Ġshe": 379,
      "art": 380,
      "ate": 381,
      "Ġthey": 382,
      "Ġhave": 383,
      "Ġpro": 384,
      "Ġdo": 385,
      "Ġse": 386,
      "rou": 387,
      "Ġcon": 388,
      "ack": 389,
      "res": 390,
      "On": 391,
      "Ġli": 392,
      "ĠR": 393,
      "Ġk": 394,
      "and": 395,
      "ard": 396,
      "Ġcom": 397,
      "are": 398,
      "th": 399,
      "ight": 400,
      "Ġv": 401,
      "qu": 402,
      "Ġcan": 403,
      "Ġday": 404,
      "ide": 405,
      "ĠE": 406,
      "nt": 407,
      "Ġbut": 408,
      "Ġhad": 409,
      "Ġj": 410,
      "ist": 411,
      "ime": 412,
      "ust": 413,
      "Ġfrom": 414,
      "Ġsp": 415,
      "ry": 416,
      "Ġ$": 417,
      "ĠN": 418,
      "Ġch": 419,
      "Ġplay": 420,
      "Ġsu": 421,
      "ake": 422,
      "ĠJ": 423,
      "Ġyour": 424,
      "ive": 425,
      "os": 426,
      "ra": 427,
      "Ġ00": 428,
      "ort": 429,
      "out": 430,
      "Ġthis": 431,
      "ear": 432,
      "Ġall": 433,
      "**": 434,
      "ĠĠĠĠĠĠĠ": 435,
      "oc": 436,
      "Ġtime": 437,
      "itt": 438,
      "ĠG": 439,
      "Ġout": 440,
      "ect": 441,
      "ity": 442,
      "Ġby": 443,
      "ell": 444,
      "hen": 445,
      "Ġwor": 446,
      "Ġthere": 447,
      "ame": 448,
      "ud": 449,
      "ook": 450,
      "Ġab": 451,
      "ind": 452,
      "ies": 453,
      "ĠâĢ": 454,
      "Ġwant": 455,
      "ment": 456,
      "od": 457,
      "Ġwill": 458,
      "ĠĠĠĠĠĠĠĠĠĠĠĠĠĠĠĠ": 459,
      "ally": 460,
      "ast": 461,
      "ĠIt": 462,
      "Ġtheir": 463,
      "red": 464,
      "----": 465,
      "Ġgo": 466,
      "ice": 467,
      "one": 468,
      "Ġme": 469,
      "ep": 470,
      "our": 471,
      "Ġmom": 472,
      "ood": 473,
      "ine": 474,
      "ak": 475,
      "Ġvery": 476,
      "ap": 477,
      "Ġwere": 478,
      "ug": 479,
      "Ġcl": 480,
      "ĠLily": 481,
      "Ġhapp": 482,
      "ong": 483,
      "ew": 484,
      "ure": 485,
      "ff": 486,
      "my": 487,
      "'t": 488,
      "ost": 489,
      "Ġad": 490,
      "Ġsm": 491,
      "Ġthem": 492,
      "ther": 493,
      "pl": 494,
      "ittle": 495,
      "ĠĊ": 496,
      "Ġle": 497,
      "Ġint": 498,
      "ge": 499,
      "ax": 500,
      "Ġlittle": 501,
      "Ġman": 502,
      "ial": 503,
      "Ġde": 504,
      "ĠO": 505,
      "Ġkn": 506,
      "ays": 507,
      "iz": 508,
      "Ġ4": 509,
      "iv": 510,
      "Ġus": 511,
      ".\"": 512,
      "Ġbig": 513,
      "riend": 514,
      "ous": 515,
      "ark": 516,
      "Ġmy": 517,
      "Ġmore": 518,
      "Ġtr": 519,
      "Ġ%": 520,
      "Ġhas": 521,
      "Ġhim": 522,
      "uc": 523,
      "own": 524,
      "pt": 525,
      "mov": 526,
      "Ġwho": 527,
      "hed": 528,
      "Ġfriend": 529,
      "Ġone": 530,
      "ick": 531,
      "Ġsome": 532,
      "ĠY": 533,
      "ue": 534,
      "Ġ0": 535,
      "oy": 536,
      "act": 537,
      "Ġ5": 538,
      "age": 539,
      "Ġsc": 540,
      "ace": 541,
      "Ġen": 542,
      "ree": 543,
      "Ġhappy": 544,
      "ound": 545,
      "Ġabout": 546,
      "ip": 547,
      "ile": 548,
      "Ġhel": 549,
      "ite": 550,
      "Ġtoo": 551,
      "Ġlike": 552,
      "%%": 553,
      "One": 554,
      "round": 555,
      "Ġother": 556,
      "hing": 557,
      "able": 558,
      "Ġcould": 559,
      "og": 560,
      "Ġwould": 561,
      "Ġag": 562,
      "Ġsaw": 563,
      "âĢĿ": 564,
      "Ġnew": 565,
      "gh": 566,
      "ings": 567,
      "Ġdid": 568,
      "ions": 569,
      "Ġget": 570,
      "Ġro": 571,
      "Ġhelp": 572,
      "Ġcomp": 573,
      "ie": 574,
      "ich": 575,
      "ove": 576,
      "reat": 577,
      "ond": 578,
      "ub": 579,
      "ĠU": 580,
      "Ġwhat": 581,
      "Ġback": 582,
      "per": 583,
      "ase": 584,
      "Ġwhen": 585,
      "cc": 586,
      "ress": 587,
      "ĠTh": 588,
      "Ġif": 589,
      "ach": 590,
      "Ġcont": 591,
      "Ġim": 592,
      "ful": 593,
      "Ġoff": 594,
      "av": 595,
      "ia": 596,
      "ll": 597,
      "ber": 598,
      "ks": 599,
      "int": 600,
      "!\"": 601,
      "Once": 602,
      "ass": 603,
      "orm": 604,
      "Ġ-": 605,
      "Ġany": 606,
      "irl": 607,
      "ade": 608,
      "01": 609,
      "Ġpr": 610,
      "ans": 611,
      "ere": 612,
      "Ġfe": 613,
      "ĠIn": 614,
      "ated": 615,
      "so": 616,
      "Ġour": 617,
      "ign": 618,
      "ĠSt": 619,
      "Ġthan": 620,
      "Ġno": 621,
      "..": 622,
      "Ġqu": 623,
      "ail": 624,
      "low": 625,
      "ire": 626,
      "Ġgr": 627,
      "xt": 628,
      "ĠTim": 629,
      "ven": 630,
      "****": 631,
      "cl": 632,
      "Ġsee": 633,
      "Ġupon": 634,
      "Ġgirl": 635,
      "Ġmake": 636,
      "Ġbr": 637,
      "Ġwanted": 638,
      "ance": 639,
      "ord": 640,
      "Ġbec": 641,
      "Ġbl": 642,
      "get": 643,
      "ary": 644,
      "ob": 645,
      "Ġper": 646,
      "Ġapp": 647,
      "Ġover": 648,
      "ib": 649,
      "Ġdis": 650,
      "Ġpe": 651,
      "ĠâĢľ": 652,
      "ĠK": 653,
      "Ġres": 654,
      "Ġyear": 655,
      "Ġstart": 656,
      "Ġfun": 657,
      "use": 658,
      "Ġar": 659,
      "ult": 660,
      "omet": 661,
      "ater": 662,
      "eb": 663,
      "Ġun": 664,
      "Ġpre": 665,
      "ush": 666,
      "uct": 667,
      "fter": 668,
      "Ġinto": 669,
      "Ġjust": 670,
      "Ġwent": 671,
      "Ġ'": 672,
      "Ġwhich": 673,
      "Ġalso": 674,
      "Ġlook": 675,
      "),": 676,
      "Ġaround": 677,
      "side": 678,
      "Ġaw": 679,
      "urn": 680,
      "ĠYou": 681,
      "Ġbeen": 682,
      "ount": 683,
      "--------": 684,
      "Ġhow": 685,
      "ents": 686,
      "Ġtw": 687,
      "ild": 688,
      "uch": 689,
      "Ġdec": 690,
      "ical": 691,
      "Ġneed": 692,
      "Ġknow": 693,
      "Ġfriends": 694,
      "ors": 695,
      "Ġthen": 696,
      "ations": 697,
      "Ġevery": 698,
      "Ġam": 699,
      "Ġgood": 700,
      "ĠV": 701,
      "king": 702,
      "here": 703,
      "ose": 704,
      "ited": 705,
      "old": 706,
      "Ġsomet": 707,
      "amed": 708,
      "ang": 709,
      "Th": 710,
      "ĠBen": 711,
      "Ġ;": 712,
      "Ġpart": 713,
      "ence": 714,
      "Ġits": 715,
      "ĠĠĠĠĠ": 716,
      "Ġmade": 717,
      "Ġagain": 718,
      "?\"": 719,
      "ens": 720,
      "Ġte": 721,
      "xm": 722,
      "ys": 723,
      "ory": 724,
      "irst": 725,
      "oved": 726,
      "ĠBut": 727,
      "ish": 728,
      "form": 729,
      "Ġadd": 730,
      "ause": 731,
      "elt": 732,
      "erv": 733,
      "ft": 734,
      "Ġcar": 735,
      "ople": 736,
      "ird": 737,
      "Ġimp": 738,
      "ave": 739,
      "Ġhome": 740,
      "Ġsmil": 741,
      ",\"": 742,
      "ise": 743,
      "ious": 744,
      "nder": 745,
      "ĠCh": 746,
      "Ġrec": 747,
      "Ġke": 748,
      "Ġloo": 749,
      "igh": 750,
      "vel": 751,
      "ition": 752,
      "Ġdown": 753,
      "ĠOne": 754,
      "ĠWe": 755,
      "ely": 756,
      "Ġasked": 757,
      "Ġla": 758,
      "ty": 759,
      "ink": 760,
      "Ġnamed": 761,
      "mer": 762,
      "Ġpeople": 763,
      "Ġbet": 764,
      "Ġsomething": 765,
      "Ġco": 766,
      "Ġstr": 767,
      "Ġ36": 768,
      "ared": 769,
      "ght": 770,
      "ning": 771,
      "Ġcol": 772,
      "Ġ201": 773,
      "Ġloved": 774,
      "Ġput": 775,
      "Ġ34": 776,
      "Ġfelt": 777,
      "Ġfind": 778,
      "Ġfl": 779,
      "add": 780,
      "als": 781,
      "wn": 782,
      "Ġlooked": 783,
      "Ġfound": 784,
      "Ġaway": 785,
      "Ġ[": 786,
      "Ġacc": 787,
      "amp": 788,
      "Ġfirst": 789,
      "Ġsmiled": 790,
      "Ġran": 791,
      "other": 792,
      "Ġ=": 793,
      "lect": 794,
      "ĠTom": 795,
      "Ġ6": 796,
      "11": 797,
      "anc": 798,
      "Ġsw": 799,
      "ict": 800,
      "Ġthou": 801,
      "Ġtwo": 802,
      "Ġboy": 803,
      "hn": 804,
      "iff": 805,
      "Ġtake": 806,
      "ouse": 807,
      "Ġsays": 808,
      "Ġpo": 809,
      "Ġwork": 810,
      "Ġ:": 811,
      "%%%%": 812,
      "Ġtoget": 813,
      "Ġtogether": 814,
      "Ġmuch": 815,
      "oth": 816,
      "OR": 817,
      "Ġunder": 818,
      "Ġspec": 819,
      "ons": 820,
      "Ġcare": 821,
      "eax": 822,
      "Ġexc": 823,
      "vent": 824,
      "Ġbo": 825,
      "Ġmany": 826,
      "ĠTimmy": 827,
      "Ġcall": 828,
      "Ġmov": 829,
      "Ġbu": 830,
      "Ġonly": 831,
      "Ġmay": 832,
      "rough": 833,
      "pr": 834,
      "Ġthings": 835,
      "10": 836,
      "Ġgot": 837,
      "Ġshow": 838,
      "ĉĉ": 839,
      "pe": 840,
      "pped": 841,
      "clud": 842,
      "Ġbecause": 843,
      "Ġeven": 844,
      "elf": 845,
      "Ġfeel": 846,
      "vers": 847,
      "les": 848,
      "Ġstarted": 849,
      "Ĥ¬": 850,
      "ved": 851,
      "Ġdon": 852,
      "Ġuse": 853,
      "âĤ¬": 854,
      "fore": 855,
      "':": 856,
      "ways": 857,
      "Ġ7": 858,
      "iss": 859,
      "Ġdes": 860,
      "day": 861,
      "Ġbird": 862,
      "Ã¢": 863,
      "ph": 864,
      "te": 865,
      "000": 866,
      "Ġact": 867,
      "12": 868,
      "ull": 869,
      "Ġafter": 870,
      "Ġway": 871,
      "Ġhand": 872,
      "Ġlong": 873,
      "ĠAn": 874,
      "atch": 875,
      "uck": 876,
      "Ġthrough": 877,
      "ried": 878,
      "Ġnow": 879,
      "Ġlot": 880,
      "ided": 881,
      "Ġend": 882,
      "Ġ32": 883,
      "Ġpark": 884,
      "Ġwal": 885,
      "ne": 886,
      "ĠThis": 887,
      "Ġshould": 888,
      "Ġdiff": 889,
      "Ġalways": 890,
      "ĠâĢĵ": 891,
      "tern": 892,
      "Ġwr": 893,
      "gr": 894,
      "Ġcomm": 895,
      "Ġop": 896,
      "ates": 897,
      "ĠAnd": 898,
      "up": 899,
      "ian": 900,
      "Ġmost": 901,
      "lic": 902,
      "hes": 903,
      "ting": 904,
      "aking": 905,
      "ving": 906,
      "ize": 907,
      "Ġem": 908,
      "Ġfin": 909,
      "Ġrun": 910,
      "ating": 911,
      "Ġcr": 912,
      "ont": 913,
      "hat": 914,
      "Ġsk": 915,
      "ock": 916,
      "ied": 917,
      "ix": 918,
      "Ġbest": 919,
      "Ġright": 920,
      "Ġold": 921,
      "Lily": 922,
      "ank": 923,
      "Ġind": 924,
      "==": 925,
      "Ġread": 926,
      "ures": 927,
      "Ġ19": 928,
      "be": 929,
      "Ġrem": 930,
      "Ġwhere": 931,
      "ual": 932,
      "Ġlear": 933,
      "Ġhug": 934,
      "ny": 935,
      "Ġeach": 936,
      "ck": 937,
      "Ġche": 938,
      "sp": 939,
      "Ġinclud": 940,
      "Ġ10": 941,
      "ef": 942,
      "Ġ8": 943,
      "ss": 944,
      "Ġatt": 945,
      "air": 946,
      "Ġsur": 947,
      "str": 948,
      "Ġcame": 949,
      "ble": 950,
      "********": 951,
      "SP": 952,
      "Ġwell": 953,
      "iew": 954,
      "Ġplaying": 955,
      "Ġph": 956,
      "Ġrel": 957,
      "Ġsad": 958,
      "Ġgreat": 959,
      "Ġyears": 960,
      "ath": 961,
      "na": 962,
      "Ġbefore": 963,
      "Ġ&": 964,
      "Ġprov": 965,
      "mp": 966,
      "Ġinc": 967,
      "Ġprod": 968,
      "Ġdidn": 969,
      "||": 970,
      "ife": 971,
      "Ġrep": 972,
      "ject": 973,
      "Ġthought": 974,
      ").": 975,
      "Ġown": 976,
      "its": 977,
      "Ġfr": 978,
      "Ġthese": 979,
      "In": 980,
      "Ġbeing": 981,
      "Ġopen": 982,
      "ert": 983,
      "RE": 984,
      "Ġret": 985,
      "ump": 986,
      "we": 987,
      "Ġfam": 988,
      "Ġdog": 989,
      "gan": 990,
      "16": 991,
      "Ġhigh": 992,
      "ange": 993,
      "led": 994,
      "It": 995,
      "Ġset": 996,
      "Ġsay": 997,
      "Ġwhile": 998,
      "Ġstill": 999,
      "Ġhere": 1000,
      "ool": 1001,
      "Ġexp": 1002,
      "Ġtook": 1003,
      "Ġlove": 1004,
      "Ġreg": 1005,
      "ollow": 1006,
      ",$": 1007,
      "(%": 1008,
      "ara": 1009,
      "ren": 1010,
      "arm": 1011,
      "Ġ#": 1012,
      "Ġnever": 1013,
      "ĠĠĠĠĠĠĠĠĠĠĠĠĠ": 1014,
      "ities": 1015,
      "ata": 1016,
      "bs": 1017,
      "ased": 1018,
      "Ġcle": 1019,
      "ret": 1020,
      "Ġsupp": 1021,
      "Ġsmall": 1022,
      "az": 1023,
      "Ġspecial": 1024,
      "Ġ+": 1025,
      "Ġdiffere": 1026,
      "TR": 1027,
      "erson": 1028,
      "Ġdoes": 1029,
      "ged": 1030,
      "enc": 1031,
      "Ġsec": 1032,
      "ner": 1033,
      "AM": 1034,
      "Ġdecided": 1035,
      "Ġgoing": 1036,
      "erm": 1037,
      "ough": 1038,
      "Ġlist": 1039,
      "Ġexcited": 1040,
      "Ġserv": 1041,
      "Ġsy": 1042,
      "ward": 1043,
      "Ġmon": 1044,
      "Ġcur": 1045,
      "Ġexpl": 1046,
      "by": 1047,
      "Ġtry": 1048,
      "Ġboth": 1049,
      "ebp": 1050,
      "Ġbel": 1051,
      "Ġlearn": 1052,
      "Ġbus": 1053,
      "ices": 1054,
      "Ġgu": 1055,
      "Ġac": 1056,
      "Ġlet": 1057,
      "den": 1058,
      "ific": 1059,
      "xmm": 1060,
      "com": 1061,
      "Ġbook": 1062,
      "line": 1063,
      "oss": 1064,
      "Ġ*": 1065,
      "ational": 1066,
      "ible": 1067,
      "AT": 1068,
      "Ġwater": 1069,
      "push": 1070,
      "Ġsuch": 1071,
      "esp": 1072,
      "Ġbetter": 1073,
      "Ġsl": 1074,
      "Ġ38": 1075,
      "iness": 1076,
      ";;": 1077,
      "Ġball": 1078,
      "Ġinv": 1079,
      "Ġ<": 1080,
      "ee": 1081,
      "20": 1082,
      "ex": 1083,
      "ĠSo": 1084,
      "ident": 1085,
      "Ġhouse": 1086,
      "They": 1087,
      "Ġcome": 1088,
      "14": 1089,
      "Ġcons": 1090,
      "alth": 1091,
      "lease": 1092,
      "ility": 1093,
      "Ġroom": 1094,
      "Ġgl": 1095,
      "Ġreal": 1096,
      "self": 1097,
      "ĠJo": 1098,
      ".âĢĿ": 1099,
      "call": 1100,
      "sh": 1101,
      "Ġworld": 1102,
      "ular": 1103,
      "Ġliked": 1104,
      "ments": 1105,
      "olog": 1106,
      "Ġfollow": 1107,
      "Ġoutside": 1108,
      "tr": 1109,
      "ĠUn": 1110,
      "ished": 1111,
      "arch": 1112,
      "Ġstud": 1113,
      "We": 1114,
      "//": 1115,
      "Ġunt": 1116,
      "----------------": 1117,
      "Ġass": 1118,
      "ics": 1119,
      "Ġ9": 1120,
      "Ġreally": 1121,
      "io": 1122,
      "und": 1123,
      "Ġent": 1124,
      "Ġred": 1125,
      "55": 1126,
      "ĠRe": 1127,
      "akes": 1128,
      "ps": 1129,
      "'m": 1130,
      "Ġused": 1131,
      "But": 1132,
      "aut": 1133,
      "ience": 1134,
      "Ġ|": 1135,
      "Ġdr": 1136,
      "uring": 1137,
      "Ġpres": 1138,
      "oad": 1139,
      "Ġtold": 1140,
      "Ġnext": 1141,
      "any": 1142,
      "xml": 1143,
      "ener": 1144,
      "stem": 1145,
      "ient": 1146,
      "read": 1147,
      "Ġhard": 1148,
      "ower": 1149,
      "19": 1150,
      ",%": 1151,
      "ered": 1152,
      "ng": 1153,
      "Ġtree": 1154,
      "13": 1155,
      "Ġwee": 1156,
      "Ġthink": 1157,
      "thing": 1158,
      "ement": 1159,
      "Ġuntil": 1160,
      "Ġscared": 1161,
      "reen": 1162,
      "Ġdifferent": 1163,
      "ĠCom": 1164,
      "Ġ200": 1165,
      "ually": 1166,
      "Ġkeep": 1167,
      "ember": 1168,
      "ash": 1169,
      "formation": 1170,
      "nop": 1171,
      "let": 1172,
      "Ġplace": 1173,
      "Ġknew": 1174,
      "cess": 1175,
      "ork": 1176,
      "15": 1177,
      "ĠMom": 1178,
      "velop": 1179,
      "Ġproduct": 1180,
      "Ġpol": 1181,
      "Ġloc": 1182,
      "iel": 1183,
      "Ġlast": 1184,
      "Ġexper": 1185,
      "Ġthree": 1186,
      "ins": 1187,
      "Ġdel": 1188,
      "imes": 1189,
      "Ġchild": 1190,
      "ative": 1191,
      "Ġkind": 1192,
      "...": 1193,
      "âĢľ": 1194,
      "ized": 1195,
      "DW": 1196,
      "ĠSam": 1197,
      "ired": 1198,
      "Ġchar": 1199,
      "Ġmod": 1200,
      "ĠSp": 1201,
      "ason": 1202,
      "Ġsub": 1203,
      "Ġperson": 1204,
      "Ġlaug": 1205,
      "AR": 1206,
      "chool": 1207,
      "ather": 1208,
      "irect": 1209,
      "You": 1210,
      "Ġsim": 1211,
      "ĠIf": 1212,
      "ever": 1213,
      "Ġeff": 1214,
      "ters": 1215,
      "Ġfamily": 1216,
      "edi": 1217,
      "Ġtal": 1218,
      "Ġmin": 1219,
      "Ġthose": 1220,
      "Ġpret": 1221,
      "Ġsun": 1222,
      "He": 1223,
      "This": 1224,
      "Ġrequ": 1225,
      "Ġtoys": 1226,
      "Ġnum": 1227,
      "Ġsaf": 1228,
      "ues": 1229,
      "Ġvis": 1230,
      "ves": 1231,
      "ream": 1232,
      "Ġav": 1233,
      "25": 1234,
      "Ġdisc": 1235,
      "Ġwa": 1236,
      "Ġpoint": 1237,
      "rib": 1238,
      "ĠAs": 1239,
      "ane": 1240,
      "ĠNew": 1241,
      "oun": 1242,
      "iet": 1243,
      "Ġcount": 1244,
      "ars": 1245,
      "iting": 1246,
      "Ġimport": 1247,
      "Ġdef": 1248,
      "Ġdad": 1249,
      "ier": 1250,
      "gram": 1251,
      "Ġinside": 1252,
      "Ġhead": 1253,
      "Ġmommy": 1254,
      "Ġgave": 1255,
      "Ġide": 1256,
      "Ġturn": 1257,
      "ORD": 1258,
      "Ġgame": 1259,
      "ield": 1260,
      "30": 1261,
      "oll": 1262,
      "ets": 1263,
      "Ġcour": 1264,
      "ER": 1265,
      "ince": 1266,
      "orry": 1267,
      "cept": 1268,
      "ublic": 1269,
      "Ġlife": 1270,
      "ched": 1271,
      "raw": 1272,
      "denly": 1273,
      "Ġresp": 1274,
      "Ġsign": 1275,
      "Ġel": 1276,
      "ional": 1277,
      "ĠBr": 1278,
      "ows": 1279,
      "man": 1280,
      "ness": 1281,
      "Ġbeaut": 1282,
      "Ġlead": 1283,
      "Ġclos": 1284,
      "Ġ20": 1285,
      "ĠAl": 1286,
      "Ġinst": 1287,
      "%%%%%%%%": 1288,
      "hip": 1289,
      "Ġgive": 1290,
      "Ġed": 1291,
      "Ġheard": 1292,
      "Ġref": 1293,
      "ĠMax": 1294,
      "Ġtried": 1295,
      "aw": 1296,
      "Ġinformation": 1297,
      "Ġcareful": 1298,
      "Ġsame": 1299,
      "ple": 1300,
      "ON": 1301,
      "ms": 1302,
      "Ġcouldn": 1303,
      "Ġcalled": 1304,
      "Ġmark": 1305,
      "ised": 1306,
      "LL": 1307,
      "Ġbox": 1308,
      "ĠAd": 1309,
      "oud": 1310,
      "Ġtop": 1311,
      "ĠPro": 1312,
      "ĠWhen": 1313,
      "ott": 1314,
      "Ġdet": 1315,
      "Ġpur": 1316,
      "ames": 1317,
      "Ġanim": 1318,
      "Ġfew": 1319,
      "Ġtrans": 1320,
      "Ġplayed": 1321,
      "Ġmet": 1322,
      "Ġsure": 1323,
      "mm": 1324,
      "Ġbusiness": 1325,
      "ĠEvery": 1326,
      "ts": 1327,
      "Ġtoy": 1328,
      "Ġanother": 1329,
      "erest": 1330,
      "ric": 1331,
      "ale": 1332,
      "roud": 1333,
      "EN": 1334,
      "uff": 1335,
      "Ġinter": 1336,
      "ody": 1337,
      "35": 1338,
      "Ġnice": 1339,
      "Ġflow": 1340,
      "ĠPTR": 1341,
      "Ġconf": 1342,
      "rc": 1343,
      "Ġproud": 1344,
      "ages": 1345,
      "ST": 1346,
      "ines": 1347,
      "24": 1348,
      "Ġmed": 1349,
      "esi": 1350,
      "],": 1351,
      "Ġcontin": 1352,
      "18": 1353,
      "Ġsystem": 1354,
      "Ġser": 1355,
      "Ġimportant": 1356,
      "ross": 1357,
      ",âĢĿ": 1358,
      "IN": 1359,
      "__": 1360,
      "Ġdevelop": 1361,
      "Ġtra": 1362,
      "bl": 1363,
      "iful": 1364,
      "Ġ.": 1365,
      "ĠSh": 1366,
      "ute": 1367,
      "Ġteam": 1368,
      "Ġreturn": 1369,
      "ru": 1370,
      "What": 1371,
      "Ġsorry": 1372,
      "When": 1373,
      "land": 1374,
      "view": 1375,
      "ĠWh": 1376,
      "der": 1377,
      "Ġfood": 1378,
      "Ġear": 1379,
      "joy": 1380,
      "ĠCl": 1381,
      "echn": 1382,
      "ĠThere": 1383,
      "Ġval": 1384,
      "Ġlooking": 1385,
      "Ġeas": 1386,
      "ger": 1387,
      "orn": 1388,
      "ĠHer": 1389,
      "Ġart": 1390,
      "Ġbit": 1391,
      "Ġstay": 1392,
      "Ġfree": 1393,
      "ivers": 1394,
      "SS": 1395,
      "Ġmight": 1396,
      "Ġey": 1397,
      "Ġsn": 1398,
      "Ġrest": 1399,
      "Ġdri": 1400,
      "Ġfull": 1401,
      "Ġbeautiful": 1402,
      "Ġfore": 1403,
      "Ġhealth": 1404,
      "Ġdesign": 1405,
      "Ġsupport": 1406,
      "Ġ12": 1407,
      "Ġcat": 1408,
      "ened": 1409,
      "ween": 1410,
      "dw": 1411,
      "con": 1412,
      "Ġmust": 1413,
      "oon": 1414,
      "Ġext": 1415,
      "Ġinterest": 1416,
      "oney": 1417,
      "less": 1418,
      "ĠDW": 1419,
      "aint": 1420,
      "aug": 1421,
      "ĠJack": 1422,
      "Ġbeh": 1423,
      "Ġnight": 1424,
      "Ġprogram": 1425,
      "Ġever": 1426,
      "89": 1427,
      "Ġcreat": 1428,
      "oot": 1429,
      "ĠThat": 1430,
      "Ġhop": 1431,
      "ital": 1432,
      "40": 1433,
      "bed": 1434,
      "Ġeat": 1435,
      "ĠHis": 1436,
      "Ġev": 1437,
      "Ġbuild": 1438,
      "Ġwind": 1439,
      "32": 1440,
      "SE": 1441,
      "row": 1442,
      "SA": 1443,
      "ike": 1444,
      "Ġgiv": 1445,
      "Ġless": 1446,
      "Ġpost": 1447,
      "opped": 1448,
      "ĠĠĠĠĠĠĠĠĠĠĠĠĠĠĠĠĠĠĠĠĠĠĠĠĠĠĠĠĠĠĠĠ": 1449,
      "Ġaut": 1450,
      "uddenly": 1451,
      "Ġwithout": 1452,
      "ah": 1453,
      "ĠSara": 1454,
      "ustom": 1455,
      "ined": 1456,
      "Ġpat": 1457,
      "'re": 1458,
      "St": 1459,
      "els": 1460,
      "ants": 1461,
      "Ġenjoy": 1462,
      "stand": 1463,
      "Ġcommun": 1464,
      "Ġnear": 1465,
      "rent": 1466,
      "Ġbre": 1467,
      "Ġbad": 1468,
      "Ġshare": 1469,
      "ote": 1470,
      "ĠAr": 1471,
      "Ġi": 1472,
      "Ġbetween": 1473,
      "17": 1474,
      "Ġdist": 1475,
      "83": 1476,
      "Ġplan": 1477,
      "usic": 1478,
      "ĠFor": 1479,
      "br": 1480,
      "Ġlight": 1481,
      "Ġpass": 1482,
      "====": 1483,
      "Ġform": 1484,
      "Ġlar": 1485,
      "80": 1486,
      "Ġable": 1487,
      "Ġname": 1488,
      "oice": 1489,
      "ense": 1490,
      "ĠBl": 1491,
      "Ġ16": 1492,
      "Ġpop": 1493,
      "ĠĠĠĠĠĠ": 1494,
      "),%": 1495,
      "Ġlearned": 1496,
      "arden": 1497,
      "Ġhur": 1498,
      "50": 1499,
      "Tom": 1500,
      "rol": 1501,
      "ering": 1502,
      "Ġtell": 1503,
      "ĠĠĠĠĠĠĠĠĠĠĠĠĠĠĠĠĠĠĠ": 1504,
      "iver": 1505,
      "Ġcap": 1506,
      "Ġjump": 1507,
      "##": 1508,
      "ead": 1509,
      "Ġsing": 1510,
      "Ġgener": 1511,
      "Ġcor": 1512,
      "Ġstand": 1513,
      "Ġdirect": 1514,
      "bers": 1515,
      "Ġthing": 1516,
      "Ġfar": 1517,
      "arent": 1518,
      "Ġschool": 1519,
      "ĠAll": 1520,
      "Ġhugged": 1521,
      "Ġbro": 1522,
      "Ġdep": 1523,
      "Ġquick": 1524,
      "Ġusing": 1525,
      "Ġfle": 1526,
      "meric": 1527,
      "ĠTr": 1528,
      "Ġstore": 1529,
      "Ġmem": 1530,
      "Ġleft": 1531,
      "ma": 1532,
      "Ġ45": 1533,
      "Ġadv": 1534,
      "Ġmaking": 1535,
      "Ġclean": 1536,
      "AN": 1537,
      "Ġgrou": 1538,
      "ode": 1539,
      "AD": 1540,
      "gry": 1541,
      "Ġbear": 1542,
      "Ġsoon": 1543,
      "Ġtre": 1544,
      "ĠEx": 1545,
      "ĠAnna": 1546,
      "to": 1547,
      "Mom": 1548,
      "Ġpretty": 1549,
      "Yes": 1550,
      "ection": 1551,
      "ĠJohn": 1552,
      "ailable": 1553,
      "ĠFrom": 1554,
      "Ġprocess": 1555,
      "Ġhaving": 1556,
      "Ġprof": 1557,
      "ract": 1558,
      "pping": 1559,
      "Ġfil": 1560,
      "As": 1561,
      "Ġ37": 1562,
      "Ġmonth": 1563,
      "ature": 1564,
      "Ġleg": 1565,
      "iny": 1566,
      "Ġground": 1567,
      "Ġdone": 1568,
      "->": 1569,
      "ially": 1570,
      "Ġword": 1571,
      "99": 1572,
      "ton": 1573,
      "Ġlots": 1574,
      "Ġstrong": 1575,
      "the": 1576,
      "Ġdata": 1577,
      "Ġprom": 1578,
      "Ġmove": 1579,
      "Ġseem": 1580,
      "ĠThen": 1581,
      "Ġsafe": 1582,
      "bo": 1583,
      "Ġdays": 1584,
      "Ġcond": 1585,
      "****************": 1586,
      "Ġstory": 1587,
      "Ġwhy": 1588,
      "Ġcent": 1589,
      "rd": 1590,
      "Ġweek": 1591,
      "DE": 1592,
      "Ġwin": 1593,
      "Ġorgan": 1594,
      "ids": 1595,
      "ĠHow": 1596,
      "Ġaddress": 1597,
      "OV": 1598,
      "So": 1599,
      "Ġlaw": 1600,
      "Ġpower": 1601,
      "Ġgarden": 1602,
      "Ġidea": 1603,
      "ĠĠĠĠĠĠĠĠĠĠĠĠĠĠĠĠĠĠĠĠĠĠĠĠ": 1604,
      "Ġsound": 1605,
      "Ġnumber": 1606,
      "Ġpri": 1607,
      "Ġfav": 1608,
      "ically": 1609,
      "ĠCan": 1610,
      "Ġjo": 1611,
      "Ġsurpr": 1612,
      "Ġreport": 1613,
      "Ġmean": 1614,
      "aring": 1615,
      "Ġbelie": 1616,
      "Ġduring": 1617,
      "Ġ33": 1618,
      "ries": 1619,
      "Ġrepl": 1620,
      "rew": 1621,
      ");": 1622,
      "IT": 1623,
      "ern": 1624,
      "Ġsoft": 1625,
      "Ġ39": 1626,
      "Ġz": 1627,
      "Ġresult": 1628,
      "gy": 1629,
      "Ġwatch": 1630,
      "Ġjob": 1631,
      "Ġsecond": 1632,
      "Ġsky": 1633,
      "Ġquest": 1634,
      "Ġappro": 1635,
      "over": 1636,
      "Ġfact": 1637,
      "Ġfast": 1638,
      "alse": 1639,
      "Ġtechn": 1640,
      "bit": 1641,
      "Ġty": 1642,
      "Ġmanag": 1643,
      "ift": 1644,
      "Ġpay": 1645,
      "ution": 1646,
      "sc": 1647,
      "ĠAmeric": 1648,
      "Ġcustom": 1649,
      "That": 1650,
      "outh": 1651,
      "ides": 1652,
      "aining": 1653,
      "Ġ58": 1654,
      "pop": 1655,
      "Ġwond": 1656,
      "icked": 1657,
      "64": 1658,
      "Ġface": 1659,
      "ected": 1660,
      "Ġposs": 1661,
      "77": 1662,
      "ained": 1663,
      "Ġavailable": 1664,
      "Ġ15": 1665,
      "Ġsoc": 1666,
      "ider": 1667,
      "Ġvar": 1668,
      "Ġmor": 1669,
      "Ġstate": 1670,
      "Ġiss": 1671,
      "Ġ54": 1672,
      "Ġob": 1673,
      "Ġpict": 1674,
      "Ġanimals": 1675,
      "ology": 1676,
      "ster": 1677,
      "Ġopt": 1678,
      "atur": 1679,
      "Ġgrow": 1680,
      "Ġmarket": 1681,
      "Ġsol": 1682,
      "Ġsit": 1683,
      "ĠPh": 1684,
      "cent": 1685,
      "Ġwom": 1686,
      "set": 1687,
      "No": 1688,
      "Ġrece": 1689,
      "Ġchildren": 1690,
      "Åĵ": 1691,
      "ains": 1692,
      "ists": 1693,
      "Ġcompany": 1694,
      "Ġperform": 1695,
      "ĠBe": 1696,
      "Ġbuy": 1697,
      "ats": 1698,
      "ĠčĊ": 1699,
      "ling": 1700,
      "of": 1701,
      "Ġincluding": 1702,
      "Ġthanked": 1703,
      "Ġbed": 1704,
      "22": 1705,
      "Ġ46": 1706,
      "Ġlived": 1707,
      "Ġbas": 1708,
      "Ġlaughed": 1709,
      "nce": 1710,
      "ole": 1711,
      "ced": 1712,
      "ours": 1713,
      "Ġ_": 1714,
      "Ġproble": 1715,
      "gg": 1716,
      "Ġspe": 1717,
      "uss": 1718,
      "Ġexplore": 1719,
      "Ġtoday": 1720,
      "CA": 1721,
      "Ġfly": 1722,
      "Ġpartic": 1723,
      "ces": 1724,
      "inal": 1725,
      "aster": 1726,
      "Ġinf": 1727,
      "ev": 1728,
      "Ġclass": 1729,
      "itc": 1730,
      "Ġenough": 1731,
      "Ġunderstand": 1732,
      "Ġprot": 1733,
      "Ġdoll": 1734,
      "err": 1735,
      "ample": 1736,
      "Ġeveryone": 1737,
      "iec": 1738,
      "Ġbra": 1739,
      "Ġmat": 1740,
      "Ġagainst": 1741,
      "ĠFr": 1742,
      "Ġsince": 1743,
      "oor": 1744,
      "ĠMia": 1745,
      "ator": 1746,
      "Ġhold": 1747,
      "Ġ18": 1748,
      "Ġnod": 1749,
      "Ġincre": 1750,
      "If": 1751,
      "ĠInd": 1752,
      "\",": 1753,
      "Ġtreat": 1754,
      "ality": 1755,
      "An": 1756,
      "Ġeyes": 1757,
      "ĠMay": 1758,
      "ately": 1759,
      "Ġdoor": 1760,
      "Ġopp": 1761,
      "aces": 1762,
      "Ġair": 1763,
      "Ġpresent": 1764,
      "tt": 1765,
      "Ġhum": 1766,
      "Ġdoing": 1767,
      "Ġside": 1768,
      "ards": 1769,
      "ĠFl": 1770,
      "Ġve": 1771,
      "Ġcost": 1772,
      "ĠÃ¢": 1773,
      "ision": 1774,
      "aper": 1775,
      "Ġperf": 1776,
      "illed": 1777,
      "Wh": 1778,
      "Ġloud": 1779,
      "rs": 1780,
      "Ġfeeling": 1781,
      "ior": 1782,
      "Ġpick": 1783,
      "Ġpublic": 1784,
      "lea": 1785,
      "ĠWhat": 1786,
      "Ġmar": 1787,
      "Let": 1788,
      "gin": 1789,
      "Ġpast": 1790,
      "Ġeffect": 1791,
      "Ġgetting": 1792,
      "aj": 1793,
      "Ġdro": 1794,
      "Ġmoney": 1795,
      "Ġhands": 1796,
      "ently": 1797,
      "Ġcre": 1798,
      "ccess": 1799,
      "Ġcurrent": 1800,
      "Ġswe": 1801,
      "app": 1802,
      "iced": 1803,
      "Ġproject": 1804,
      "room": 1805,
      "ĠDo": 1806,
      "Ġlik": 1807,
      "kay": 1808,
      "Ġben": 1809,
      "Ġlevel": 1810,
      "put": 1811,
      "urs": 1812,
      "Ġseen": 1813,
      "Ġins": 1814,
      "Ġkept": 1815,
      "ĠSc": 1816,
      "ten": 1817,
      "illion": 1818,
      "ients": 1819,
      "ĠX": 1820,
      "ued": 1821,
      "âĢ¦": 1822,
      "Ġtest": 1823,
      "ĠPl": 1824,
      "eng": 1825,
      "Ġinvest": 1826,
      "Ġmag": 1827,
      "Ġpos": 1828,
      "arr": 1829,
      "Ġelse": 1830,
      "iversity": 1831,
      "Ġamaz": 1832,
      "Ġfour": 1833,
      "Ġclim": 1834,
      "iqu": 1835,
      "Ġsqu": 1836,
      "ots": 1837,
      "Ġmeet": 1838,
      "Ġcry": 1839,
      "ĠQ": 1840,
      "ories": 1841,
      "Ġhot": 1842,
      "Ġequ": 1843,
      "Ġmess": 1844,
      "'ll": 1845,
      "Ġmakes": 1846,
      "ured": 1847,
      "Ġsal": 1848,
      "ister": 1849,
      "Ġtri": 1850,
      "ded": 1851,
      "ism": 1852,
      "RO": 1853,
      "Ġservice": 1854,
      "Ch": 1855,
      "inc": 1856,
      "rist": 1857,
      "Ġcourse": 1858,
      "raph": 1859,
      "ĠPush": 1860,
      "ĠLe": 1861,
      "Ġexperience": 1862,
      "ĠOn": 1863,
      "ĠâĢĶ": 1864,
      "Ġothers": 1865,
      "Ġrecord": 1866,
      "Ġwhe": 1867,
      "Ġcook": 1868,
      "Ġhurt": 1869,
      "Ġanything": 1870,
      "Ġwalked": 1871,
      "Ġwon": 1872,
      "gle": 1873,
      "Ġquickly": 1874,
      "Ġ{": 1875,
      "âĢĶ": 1876,
      "Ġstop": 1877,
      "ĠCon": 1878,
      "60": 1879,
      "not": 1880,
      "ortun": 1881,
      "Ġdraw": 1882,
      "ĠGr": 1883,
      "Tim": 1884,
      "Ġoper": 1885,
      "used": 1886,
      "att": 1887,
      "Ġmiss": 1888,
      "Ġprovide": 1889,
      "28": 1890,
      "por": 1891,
      "She": 1892,
      "Ġopened": 1893,
      "75": 1894,
      "Ġfavor": 1895,
      "way": 1896,
      "Ġwithin": 1897,
      "ĠZ": 1898,
      "Ġmusic": 1899,
      "Ġfire": 1900,
      "38": 1901,
      "Ġcert": 1902,
      "ral": 1903,
      "Ġevent": 1904,
      "Ġarea": 1905,
      "âĦ": 1906,
      "Ġx": 1907,
      "movl": 1908,
      "af": 1909,
      "ww": 1910,
      "âĦ¢": 1911,
      "illy": 1912,
      "leep": 1913,
      "Ġpract": 1914,
      "Ġbrave": 1915,
      "where": 1916,
      "Ġpiec": 1917,
      "Ġcut": 1918,
      "Ġalong": 1919,
      "Ġworking": 1920,
      "ases": 1921,
      "Ġorder": 1922,
      "Ġflew": 1923,
      "Ġline": 1924,
      "ction": 1925,
      "ĠNo": 1926,
      "FF": 1927,
      "ably": 1928,
      "Send": 1929,
      "sl": 1930,
      "Ġgroup": 1931,
      "90": 1932,
      "wards": 1933,
      "Ġfield": 1934,
      "ĠCol": 1935,
      "Ġcoming": 1936,
      "Ġadvent": 1937,
      "Ġonline": 1938,
      "ĠĠĠĠĠĠĠĠĠĠĠ": 1939,
      "Ġ14": 1940,
      "Ġchang": 1941,
      "Ġvisit": 1942,
      "Ġterm": 1943,
      "Ġaccess": 1944,
      "ĠâĢĺ": 1945,
      "MP": 1946,
      "ucy": 1947,
      "work": 1948,
      "sw": 1949,
      "ĠFalse": 1950,
      "Ġbreak": 1951,
      "ney": 1952,
      "Ġxmm": 1953,
      "ached": 1954,
      "OP": 1955,
      "Ġbecame": 1956,
      "Ġwait": 1957,
      "Ġproper": 1958,
      "Ġprint": 1959,
      "Ġchange": 1960,
      "ention": 1961,
      "icy": 1962,
      "Ġwalking": 1963,
      "ĠBob": 1964,
      "ency": 1965,
      "Ġparent": 1966,
      "Ġeng": 1967,
      "struct": 1968,
      "ination": 1969,
      "Ġangry": 1970,
      "Ġlisten": 1971,
      "orts": 1972,
      "Ġbehind": 1973,
      "ploy": 1974,
      "Ġthin": 1975,
      "vern": 1976,
      "ury": 1977,
      "Ġphot": 1978,
      "uce": 1979,
      "Ġsize": 1980,
      "pro": 1981,
      "edx": 1982,
      "Ġplease": 1983,
      "Ġwalk": 1984,
      "ech": 1985,
      "Ġcomple": 1986,
      "Ġsomeone": 1987,
      "cle": 1988,
      "Ġkey": 1989,
      "ero": 1990,
      "Ġview": 1991,
      "34": 1992,
      "Ġblue": 1993,
      "Ġaff": 1994,
      "Ġdi": 1995,
      "ina": 1996,
      "oring": 1997,
      "Ġperfect": 1998,
      "Ġthough": 1999,
      "Ġseason": 2000,
      "Ġrese": 2001,
      "Ġcollect": 2002,
      "ives": 2003,
      "1000": 2004,
      "Ġsuccess": 2005,
      "Ġstat": 2006,
      "Ġready": 2007,
      "Ġland": 2008,
      "Ġclose": 2009,
      "ik": 2010,
      "more": 2011,
      "ware": 2012,
      "uit": 2013,
      "Ġpicked": 2014,
      "unch": 2015,
      "TI": 2016,
      "ummy": 2017,
      "co": 2018,
      "Ġpot": 2019,
      "rel": 2020,
      "ED": 2021,
      "Ġann": 2022,
      "Ġallow": 2023,
      "ended": 2024,
      "ery": 2025,
      "ĠPr": 2026,
      "ecx": 2027,
      "ending": 2028,
      "cmp": 2029,
      "Ġcou": 2030,
      "Ġ30": 2031,
      "Ġcase": 2032,
      "ĠTo": 2033,
      "play": 2034,
      "ready": 2035,
      "iron": 2036,
      "Ġstopped": 2037,
      "Ġ/": 2038,
      "Ġest": 2039,
      "Ġstick": 2040,
      "Ġnoise": 2041,
      "Ġwat": 2042,
      "Ġvide": 2043,
      "Ġneeded": 2044,
      "And": 2045,
      "Ġrunning": 2046,
      "Ġfur": 2047,
      "Ġmen": 2048,
      "key": 2049,
      "Ġdev": 2050,
      "Ġhig": 2051,
      "Ġpull": 2052,
      "Ġmil": 2053,
      "ley": 2054,
      "reed": 2055,
      "Ġgovern": 2056,
      "Ġacross": 2057,
      "Ġvoice": 2058,
      "alf": 2059,
      "omm": 2060,
      "Ġnec": 2061,
      "sub": 2062,
      "Ġbegan": 2063,
      "For": 2064,
      "Ġdem": 2065,
      "def": 2066,
      "iding": 2067,
      "oint": 2068,
      "ĠWith": 2069,
      "Ġoften": 2070,
      "Ġwarm": 2071,
      "Ġyoung": 2072,
      "76": 2073,
      "Ġelect": 2074,
      "iety": 2075,
      "Ġfish": 2076,
      "Ġtimes": 2077,
      "Ġste": 2078,
      "Ġsta": 2079,
      "ĠAfter": 2080,
      "ĠComm": 2081,
      "Ġcla": 2082,
      "Ben": 2083,
      "Ġheart": 2084,
      "ama": 2085,
      "Ġaddition": 2086,
      "Ġcomes": 2087,
      "70": 2088,
      "Ġlocal": 2089,
      "Ġtable": 2090,
      "Ġeverything": 2091,
      "aught": 2092,
      "ify": 2093,
      "Ġteac": 2094,
      "Ġnodded": 2095,
      ".,": 2096,
      "ither": 2097,
      "Ġshiny": 2098,
      "Ġ11": 2099,
      "ape": 2100,
      "Ġheld": 2101,
      "âĤ¬âĦ¢": 2102,
      "Ġfall": 2103,
      "Ġkids": 2104,
      "Ġwebs": 2105,
      "Ġbecome": 2106,
      "--------------------------------": 2107,
      "Ġocc": 2108,
      "Ġsat": 2109,
      "ĠAt": 2110,
      "Ġdress": 2111,
      "ocks": 2112,
      "oci": 2113,
      "ĠOr": 2114,
      "Ġtrying": 2115,
      "icle": 2116,
      "LN": 2117,
      "ising": 2118,
      "ills": 2119,
      "pos": 2120,
      "utes": 2121,
      "rap": 2122,
      "Ġbody": 2123,
      "Ġnoticed": 2124,
      "Ġlooks": 2125,
      "Ġlarge": 2126,
      "Ġbar": 2127,
      "After": 2128,
      "zy": 2129,
      "une": 2130,
      "Ġhist": 2131,
      "ellow": 2132,
      "Ġsmile": 2133,
      "Ġalready": 2134,
      "Ġrock": 2135,
      "74": 2136,
      "orth": 2137,
      "port": 2138,
      "hor": 2139,
      "Ġfollowing": 2140,
      "Ġ24": 2141,
      "ivid": 2142,
      "Ġsite": 2143,
      "Ġshowed": 2144,
      "ext": 2145,
      "Ġlive": 2146,
      "Ġprofess": 2147,
      "Ġpain": 2148,
      "itchen": 2149,
      "Ġfavorite": 2150,
      "Ġgrab": 2151,
      "Ġbring": 2152,
      "word": 2153,
      "ĠMar": 2154,
      "Ġmeans": 2155,
      "Ġadm": 2156,
      "Ġcontrol": 2157,
      "Ġapplic": 2158,
      "Ġoffer": 2159,
      "Ġforest": 2160,
      "26": 2161,
      "movw": 2162,
      "ability": 2163,
      "ebx": 2164,
      "Ġtruck": 2165,
      "IC": 2166,
      "mb": 2167,
      "36": 2168,
      "uf": 2169,
      "Ġcheck": 2170,
      "ording": 2171,
      "Ġwonder": 2172,
      "itive": 2173,
      "ified": 2174,
      "29": 2175,
      "istr": 2176,
      "vious": 2177,
      "Ġclear": 2178,
      "ox": 2179,
      "Ġtouch": 2180,
      "Ġcir": 2181,
      "Ġcolor": 2182,
      "Ġinclude": 2183,
      "eter": 2184,
      "Jo": 2185,
      "Ġservices": 2186,
      "Ġpress": 2187,
      "ored": 2188,
      "Ġproducts": 2189,
      "lement": 2190,
      "ĠIs": 2191,
      "Ġeasy": 2192,
      "itions": 2193,
      "Ġcool": 2194,
      "Ġfac": 2195,
      "SAX": 2196,
      "Ġld": 2197,
      "FT": 2198,
      "Ġintern": 2199,
      "aves": 2200,
      "âĢ¢": 2201,
      "Ġflowers": 2202,
      "ĠĠĠĠĠĠĠĠĠĠĠĠĠĠĠ": 2203,
      "aterial": 2204,
      "Ġlow": 2205,
      "ument": 2206,
      "Thank": 2207,
      "ball": 2208,
      "load": 2209,
      "ĠDe": 2210,
      "olly": 2211,
      "ĠCent": 2212,
      "name": 2213,
      "Ġimpro": 2214,
      "ĠChrist": 2215,
      "Ġworked": 2216,
      "56": 2217,
      "0000": 2218,
      "Ġlater": 2219,
      "Ġcharac": 2220,
      "Ġhelped": 2221,
      "size": 2222,
      "ann": 2223,
      "ano": 2224,
      "Ġneeds": 2225,
      "Ġstep": 2226,
      "39": 2227,
      "ady": 2228,
      "',": 2229,
      "Ġmind": 2230,
      "Ġstudents": 2231,
      "Ġpaper": 2232,
      "Ġgrand": 2233,
      "ĠEng": 2234,
      "Ġdoesn": 2235,
      ";;;;": 2236,
      "Ġgames": 2237,
      "Ġhair": 2238,
      "Ġask": 2239,
      "There": 2240,
      "Ġ--": 2241,
      "'ve": 2242,
      "Ġ35": 2243,
      "most": 2244,
      "Ġlost": 2245,
      "Ġblack": 2246,
      "Ġtalk": 2247,
      "asure": 2248,
      "Ġhimself": 2249,
      "Ġsever": 2250,
      "Ġhours": 2251,
      "aken": 2252,
      "Ġhappened": 2253,
      "ron": 2254,
      "Ġsong": 2255,
      "ĠLet": 2256,
      "ĠLucy": 2257,
      "Ġoffic": 2258,
      "Ġdeep": 2259,
      "movwf": 2260,
      "%%%%%%%%%%%%%%%%": 2261,
      "Ġbelieve": 2262,
      "Ġhun": 2263,
      "Ġtast": 2264,
      "Ġkitchen": 2265,
      "Ġec": 2266,
      "irt": 2267,
      "ĠMOV": 2268,
      "ĠUniversity": 2269,
      "oke": 2270,
      "ask": 2271,
      "Ġwhite": 2272,
      "Ġsweet": 2273,
      "ances": 2274,
      "upp": 2275,
      "ajor": 2276,
      "aps": 2277,
      "Ġcommunity": 2278,
      "ĠRes": 2279,
      "Ġdin": 2280,
      "ubl": 2281,
      "print": 2282,
      "LD": 2283,
      "ĠĠĠĠĠĠĠĠĠĠ": 2284,
      "ization": 2285,
      "Ġrab": 2286,
      "ND": 2287,
      "Ġshort": 2288,
      "sel": 2289,
      "Ġtax": 2290,
      "Ġrain": 2291,
      "ĠNow": 2292,
      "LE": 2293,
      "aby": 2294,
      "Ġarri": 2295,
      "movlw": 2296,
      "Ġindust": 2297,
      "ript": 2298,
      "Ġactiv": 2299,
      "Ġfair": 2300,
      "Ġ40": 2301,
      "ails": 2302,
      "Ġcountry": 2303,
      "type": 2304,
      "ĠMy": 2305,
      "oid": 2306,
      "Ġslow": 2307,
      "ĠMan": 2308,
      "for": 2309,
      "reg": 2310,
      "Ġ13": 2311,
      "CO": 2312,
      "Ġitem": 2313,
      "reet": 2314,
      "Ġsand": 2315,
      "Ġorig": 2316,
      "Ġfeat": 2317,
      "Ġaccount": 2318,
      "Ġconn": 2319,
      "Ġbooks": 2320,
      "Ġcloser": 2321,
      "yle": 2322,
      "ken": 2323,
      "Ġwood": 2324,
      "Ġonce": 2325,
      "Ġcomput": 2326,
      "Ġseveral": 2327,
      "US": 2328,
      "Ġsocial": 2329,
      "Ġfix": 2330,
      "Ġslide": 2331,
      "ĠSuddenly": 2332,
      "At": 2333,
      "come": 2334,
      "Ġparents": 2335,
      "Ġbased": 2336,
      "Ġnet": 2337,
      "Ġconc": 2338,
      "Ġmoment": 2339,
      "ique": 2340,
      "dy": 2341,
      "IS": 2342,
      "Ġtem": 2343,
      "rem": 2344,
      "Ġfront": 2345,
      "Look": 2346,
      "Ġdark": 2347,
      "Ġemploy": 2348,
      "Ġbrother": 2349,
      "Ġwrong": 2350,
      "Ġwatched": 2351,
      "201": 2352,
      "itch": 2353,
      "Ġgreen": 2354,
      "Ġyet": 2355,
      "Ġcamp": 2356,
      "Ġhope": 2357,
      "Ġreplied": 2358,
      "Ġokay": 2359,
      "irm": 2360,
      "Ġcreate": 2361,
      "ium": 2362,
      "ones": 2363,
      "Ġ(%": 2364,
      "Ġlim": 2365,
      "Ġselect": 2366,
      "Ġliving": 2367,
      "ayer": 2368,
      "osp": 2369,
      "Ġmorning": 2370,
      "TE": 2371,
      "eth": 2372,
      "erence": 2373,
      "ensive": 2374,
      "src": 2375,
      "ites": 2376,
      "ĠCar": 2377,
      "Ġcompet": 2378,
      "Ġbright": 2379,
      "ission": 2380,
      "Ġmembers": 2381,
      "xmlSAX": 2382,
      "Ġsearch": 2383,
      "48": 2384,
      "conom": 2385,
      "oes": 2386,
      "Ġleast": 2387,
      "ele": 2388,
      "Ġpage": 2389,
      "21": 2390,
      "06": 2391,
      "anger": 2392,
      "viron": 2393,
      "uro": 2394,
      "Ġhear": 2395,
      "Ġpossible": 2396,
      "Ġforg": 2397,
      "fl": 2398,
      "ĠSe": 2399,
      "oom": 2400,
      "Ġsleep": 2401,
      "roll": 2402,
      "Ġcity": 2403,
      "fort": 2404,
      "ID": 2405,
      "Ġnon": 2406,
      "AC": 2407,
      "ila": 2408,
      "oose": 2409,
      "Ġwebsite": 2410,
      "Ġvalue": 2411,
      "Ġfoc": 2412,
      "Ġ17": 2413,
      "ADD": 2414,
      "CALL": 2415,
      "ential": 2416,
      "dd": 2417,
      "Ġwar": 2418,
      "ony": 2419,
      "Can": 2420,
      "umn": 2421,
      "Ġboat": 2422,
      "rec": 2423,
      "Ġcertain": 2424,
      "Ġwasn": 2425,
      "Ġwall": 2426,
      "Ġwhole": 2427,
      "Ġshout": 2428,
      "Ġearly": 2429,
      "Ġproblem": 2430,
      "Ġpar": 2431,
      "Ġmother": 2432,
      "sy": 2433,
      "Ġreview": 2434,
      "ived": 2435,
      "Ġ==": 2436,
      "Ġimm": 2437,
      "Ġpack": 2438,
      "Ġmillion": 2439,
      "Ġpercent": 2440,
      "Suddenly": 2441,
      "Ġtaking": 2442,
      "Ġvers": 2443,
      "Ġbag": 2444,
      "Ġbelow": 2445,
      "23": 2446,
      "Ġeduc": 2447,
      "Ġvideo": 2448,
      "27": 2449,
      "Ġmid": 2450,
      "Ġport": 2451,
      "Ġ25": 2452,
      "Ġfell": 2453,
      "Ġresearch": 2454,
      "Ġmajor": 2455,
      "\".": 2456,
      "AL": 2457,
      "How": 2458,
      "ises": 2459,
      "opy": 2460,
      "IG": 2461,
      "atic": 2462,
      "Ġcontent": 2463,
      "Ġactually": 2464,
      "Ġsour": 2465,
      "Ġcand": 2466,
      "oop": 2467,
      "Ġbutter": 2468,
      "Ġindivid": 2469,
      "Ġwords": 2470,
      "ule": 2471,
      "Ġmaterial": 2472,
      "HE": 2473,
      "Ġmult": 2474,
      "ĠRep": 2475,
      "Ġpush": 2476,
      "Ġreached": 2477,
      "acy": 2478,
      "ĠEd": 2479,
      "Ġabove": 2480,
      "ĠApp": 2481,
      "Ġquality": 2482,
      "OU": 2483,
      "Ġspace": 2484,
      "ians": 2485,
      "Ġesp": 2486,
      "Ġ49": 2487,
      "Ġround": 2488,
      "Ġ2012": 2489,
      "bye": 2490,
      "Ġfund": 2491,
      "Ġworks": 2492,
      "Ġfive": 2493,
      "rod": 2494,
      "Ġanymore": 2495,
      "Ġhuman": 2496,
      "Ġfight": 2497,
      "artment": 2498,
      "abel": 2499,
      "Ġdeal": 2500,
      "Ġbenef": 2501,
      "back": 2502,
      "Ġleave": 2503,
      "son": 2504,
      "Ġbase": 2505,
      "rog": 2506,
      "Ġyes": 2507,
      "Ġcal": 2508,
      ",-": 2509,
      "ctor": 2510,
      "Ġpersonal": 2511,
      "Ġhigher": 2512,
      "rb": 2513,
      "uture": 2514,
      "rought": 2515,
      "ĠAR": 2516,
      "Ġca": 2517,
      "Ġtrad": 2518,
      "Ġgovernment": 2519,
      "ging": 2520,
      "Ġcold": 2521,
      "itten": 2522,
      "Ġcover": 2523,
      "LO": 2524,
      "dle": 2525,
      "iter": 2526,
      "isk": 2527,
      "inally": 2528,
      "Ġele": 2529,
      "Ġeax": 2530,
      "Ġfloor": 2531,
      "anch": 2532,
      "ands": 2533,
      "Ġnews": 2534,
      "Ġbott": 2535,
      "DWORD": 2536,
      "ĠÂ": 2537,
      "address": 2538,
      "Ġcomplet": 2539,
      "!!": 2540,
      "Ġra": 2541,
      "Ġopportun": 2542,
      "Ġcomb": 2543,
      "Ġfinished": 2544,
      "Ġworry": 2545,
      "Ġcatch": 2546,
      "Ġexample": 2547,
      "Don": 2548,
      "Ġparty": 2549,
      "Ġcurious": 2550,
      "par": 2551,
      "Ġ50": 2552,
      "Ġsum": 2553,
      "Ġamazing": 2554,
      "book": 2555,
      "itting": 2556,
      "++": 2557,
      "95": 2558,
      "isc": 2559,
      "val": 2560,
      "Ġspecific": 2561,
      "Ġheav": 2562,
      "ateg": 2563,
      "Ġhappen": 2564,
      "Ġroll": 2565,
      "========": 2566,
      "Ġant": 2567,
      "ips": 2568,
      "vironment": 2569,
      "Her": 2570,
      "ĠUS": 2571,
      "iday": 2572,
      "pper": 2573,
      "Ġhalf": 2574,
      "uly": 2575,
      "ned": 2576,
      "Ġcake": 2577,
      "esc": 2578,
      "ĠĠĠĠĠĠĠĠĠ": 2579,
      "ecially": 2580,
      "ĠChe": 2581,
      "time": 2582,
      "ilt": 2583,
      "ĠJoe": 2584,
      "ĠGod": 2585,
      "ĠState": 2586,
      "Ġreason": 2587,
      "Ġemail": 2588,
      "Ġparticular": 2589,
      "aur": 2590,
      "fer": 2591,
      "ĠWor": 2592,
      "5535": 2593,
      "ffic": 2594,
      "Ġcontact": 2595,
      "Ġmain": 2596,
      "isy": 2597,
      "Ġnothing": 2598,
      "ok": 2599,
      "ges": 2600,
      "Ġlonger": 2601,
      "Ġtaken": 2602,
      "Ġwomen": 2603,
      "icro": 2604,
      "raft": 2605,
      "li": 2606,
      "head": 2607,
      "asing": 2608,
      "col": 2609,
      "ison": 2610,
      "Ġfollowed": 2611,
      "Ġsometimes": 2612,
      "Ġ100": 2613,
      "addy": 2614,
      "Ġdevelopment": 2615,
      "Ġvol": 2616,
      "csl": 2617,
      "Ġarg": 2618,
      "icult": 2619,
      "Ġtyp": 2620,
      "Ġbrought": 2621,
      "Ġcard": 2622,
      "ety": 2623,
      "Ġrabbit": 2624,
      "ĠAm": 2625,
      "obal": 2626,
      "ears": 2627,
      "####": 2628,
      "Ġĉ": 2629,
      "Ġpurch": 2630,
      "eg": 2631,
      "ibility": 2632,
      "Ġgoodbye": 2633,
      "ĠAdd": 2634,
      "Ġeither": 2635,
      "Ġenc": 2636,
      "Ġglad": 2637,
      "ners": 2638,
      "Ġalmost": 2639,
      "Ġsees": 2640,
      "Ġknown": 2641,
      "Ġminutes": 2642,
      "anced": 2643,
      "ienc": 2644,
      "vert": 2645,
      "ĠAss": 2646,
      "ĠCo": 2647,
      "ault": 2648,
      "Ġmix": 2649,
      "Ġinvol": 2650,
      "Ġstudy": 2651,
      "Ġbuilding": 2652,
      "200": 2653,
      "Ġchall": 2654,
      "Ġtool": 2655,
      "Ġdig": 2656,
      "ume": 2657,
      "Ġself": 2658,
      "Ġprice": 2659,
      "Ġpicture": 2660,
      "Ġ52": 2661,
      "44": 2662,
      "SH": 2663,
      "Ġcast": 2664,
      "Ġgrass": 2665,
      "aid": 2666,
      "Ġfuture": 2667,
      "ĠJane": 2668,
      "ĠĠĠĠĠĠĠčĊ": 2669,
      "88": 2670,
      "xc": 2671,
      "ĠSue": 2672,
      "Ġdelic": 2673,
      "ĠIntern": 2674,
      "RET": 2675,
      "Ġbegin": 2676,
      "Ġhon": 2677,
      "Ġgone": 2678,
      "ights": 2679,
      "ĠNot": 2680,
      "ulation": 2681,
      "Ġwants": 2682,
      "selves": 2683,
      "lish": 2684,
      "Ġident": 2685,
      "ĠCal": 2686,
      "Ġupd": 2687,
      "RESS": 2688,
      "ĠThese": 2689,
      "Ġ51": 2690,
      "ORT": 2691,
      "Ġbirds": 2692,
      "Ġmonths": 2693,
      "Ġap": 2694,
      "ishing": 2695,
      "Ġmot": 2696,
      "Ġspr": 2697,
      "Ġlady": 2698,
      "Ġ}": 2699,
      "ining": 2700,
      "Ġfit": 2701,
      "uation": 2702,
      "Ġpaint": 2703,
      "âĢĵ": 2704,
      "ormal": 2705,
      "Ġfinally": 2706,
      "zero": 2707,
      "Ġgiven": 2708,
      "Ġpriv": 2709,
      "Ġadventure": 2710,
      "overed": 2711,
      "ler": 2712,
      "acks": 2713,
      "Ġremember": 2714,
      "Ġtot": 2715,
      "ober": 2716,
      "pect": 2717,
      "ze": 2718,
      "Ġbal": 2719,
      "Ġsuper": 2720,
      "aced": 2721,
      "uced": 2722,
      "Ġturned": 2723,
      "Ġquestion": 2724,
      "ought": 2725,
      "ches": 2726,
      "Sara": 2727,
      "eal": 2728,
      "wh": 2729,
      "Ġff": 2730,
      "xmlN": 2731,
      "attr": 2732,
      "Ġhit": 2733,
      "ĠMed": 2734,
      "ĠYork": 2735,
      "Ġrequire": 2736,
      "Ġansw": 2737,
      "ĠDa": 2738,
      "Ġdiscuss": 2739,
      "Ġ!": 2740,
      "ĠĠĠĠčĊ": 2741,
      "ables": 2742,
      "Ġprob": 2743,
      "ograph": 2744,
      "Ġcult": 2745,
      "Ġblocks": 2746,
      "Ġcontinued": 2747,
      "Ġdest": 2748,
      "ĠCont": 2749,
      "aved": 2750,
      "ĠSpot": 2751,
      "board": 2752,
      "Ġdesc": 2753,
      "Ġ#$": 2754,
      "To": 2755,
      "Ġ08": 2756,
      "ĠUnited": 2757,
      "Ġwonderful": 2758,
      "ees": 2759,
      "Ġtowards": 2760,
      "lege": 2761,
      "urch": 2762,
      "FTP": 2763,
      "utions": 2764,
      "ĠEn": 2765,
      "Ġjumped": 2766,
      "ĠHowever": 2767,
      "From": 2768,
      "Ġdream": 2769,
      "ĠAmerican": 2770,
      "Ġphys": 2771,
      "Al": 2772,
      "Ġfre": 2773,
      "Ġrad": 2774,
      "hers": 2775,
      "nes": 2776,
      "Ġwrite": 2777,
      "Ġrespons": 2778,
      "Ġswim": 2779,
      "ural": 2780,
      "ĠYour": 2781,
      "ĠMommy": 2782,
      "Ġice": 2783,
      "Ġtakes": 2784,
      "Ġfoot": 2785,
      "Ġroad": 2786,
      "04": 2787,
      "Ġbow": 2788,
      "ledge": 2789,
      "Ġeconom": 2790,
      "ĉĉĉĉ": 2791,
      "Ġcannot": 2792,
      "ept": 2793,
      "ogn": 2794,
      "ĠPushD": 2795,
      "ĠLoad": 2796,
      "Ġcharacter": 2797,
      "Ġrecomm": 2798,
      "Ġtown": 2799,
      "Ġbaby": 2800,
      "Ġ2013": 2801,
      "Ġrealized": 2802,
      "Ġsurprise": 2803,
      "John": 2804,
      "Ġanal": 2805,
      "Ġenjoyed": 2806,
      "Ġlate": 2807,
      "Ġsnow": 2808,
      "Ġquestions": 2809,
      "Ġforward": 2810,
      "Ġmatter": 2811,
      "itted": 2812,
      "Ġamount": 2813,
      "rdi": 2814,
      "Ġespecially": 2815,
      "gest": 2816,
      "anies": 2817,
      "Ġcomputer": 2818,
      "Ġtrees": 2819,
      "Ġwhether": 2820,
      "iod": 2821,
      "ilar": 2822,
      "Ġago": 2823,
      "org": 2824,
      "era": 2825,
      "Ġfunny": 2826,
      "Ġphone": 2827,
      "ilities": 2828,
      "Ġdeterm": 2829,
      "Ġcars": 2830,
      "://": 2831,
      "ĠJust": 2832,
      "TH": 2833,
      "right": 2834,
      "itical": 2835,
      "dwattr": 2836,
      "rsi": 2837,
      "96": 2838,
      "Ġhistory": 2839,
      "Ġcup": 2840,
      "Ġet": 2841,
      "Ġclaim": 2842,
      "My": 2843,
      "Anna": 2844,
      "ES": 2845,
      "Ġalone": 2846,
      "Ġoffice": 2847,
      "Ġdisplay": 2848,
      "Ġtired": 2849,
      "Ġsell": 2850,
      "Ġamong": 2851,
      "ille": 2852,
      "elcome": 2853,
      "ĠSarah": 2854,
      "unny": 2855,
      "itor": 2856,
      "ĠDr": 2857,
      "action": 2858,
      "Ġyellow": 2859,
      "Ġrele": 2860,
      "though": 2861,
      "TA": 2862,
      "ĠMin": 2863,
      "Ġanyone": 2864,
      "Ġthank": 2865,
      "stit": 2866,
      "Ġjour": 2867,
      "ai": 2868,
      "Ġmum": 2869,
      "Ġens": 2870,
      "ĠData": 2871,
      "Ġcomfort": 2872,
      "Ġ,": 2873,
      "Ġlog": 2874,
      "Ġfurther": 2875,
      "Ġindustry": 2876,
      "ĠCount": 2877,
      "resent": 2878,
      "Ġflower": 2879,
      "rep": 2880,
      "Ġtow": 2881,
      "Ġsave": 2882,
      "Ġgrabbed": 2883,
      "Ġfilled": 2884,
      "ĠAb": 2885,
      "ĠĠĠĠĊ": 2886,
      "osed": 2887,
      "Ġtrain": 2888,
      "atural": 2889,
      "apt": 2890,
      "Ġ>": 2891,
      "eral": 2892,
      "Ġareas": 2893,
      "Ġsugg": 2894,
      "Ġener": 2895,
      "Ġsuggest": 2896,
      "ming": 2897,
      "Ġcompl": 2898,
      "Ġadded": 2899,
      "Ġhole": 2900,
      "ĠSy": 2901,
      "agon": 2902,
      "Ġauthor": 2903,
      "78": 2904,
      "Ġblog": 2905,
      "Ġsent": 2906,
      "Ġlaugh": 2907,
      "Ġfriendly": 2908,
      "ĠEveryone": 2909,
      "Ġsingle": 2910,
      "WORD": 2911,
      "Ġcirc": 2912,
      "rect": 2913,
      "Ġpet": 2914,
      "ĠSome": 2915,
      "ADDRESS": 2916,
      "arth": 2917,
      "Ġwindow": 2918,
      "33": 2919,
      "go": 2920,
      "ament": 2921,
      "Ġcommon": 2922,
      "Ġtall": 2923,
      "ply": 2924,
      "~~": 2925,
      "Ġpoints": 2926,
      "Ġcomplete": 2927,
      "FB": 2928,
      "Ġsimple": 2929,
      "Ġsix": 2930,
      "change": 2931,
      ".)": 2932,
      "ighb": 2933,
      "02": 2934,
      "Ġfig": 2935,
      "Tr": 2936,
      "Ġaud": 2937,
      "Ġdoc": 2938,
      "Ġtrue": 2939,
      "Ġposition": 2940,
      "itle": 2941,
      "Ġrange": 2942,
      "year": 2943,
      "Ġdifficult": 2944,
      "Ġaccept": 2945,
      "ĠCity": 2946,
      "Ġclot": 2947,
      "rcx": 2948,
      "ators": 2949,
      "Ġreach": 2950,
      "aging": 2951,
      "umb": 2952,
      "Ġinstead": 2953,
      "Ġpictures": 2954,
      "ĠDec": 2955,
      "Ġrelations": 2956,
      "Ġissues": 2957,
      "ese": 2958,
      "Ġate": 2959,
      "Ġenvironment": 2960,
      "aving": 2961,
      "ING": 2962,
      "Ġthird": 2963,
      "Ġfocus": 2964,
      "CL": 2965,
      "(*": 2966,
      "ief": 2967,
      "Ġremem": 2968,
      "Ġresults": 2969,
      "anoFTP": 2970,
      "xmlNanoFTP": 2971,
      "Ġpond": 2972,
      "idge": 2973,
      "anks": 2974,
      "Ġ01": 2975,
      "Ġarrived": 2976,
      "Ġfeatures": 2977,
      "ello": 2978,
      "Ġcolors": 2979,
      "urity": 2980,
      "de": 2981,
      "ĠNational": 2982,
      "Ġabs": 2983,
      "79": 2984,
      "Ġdinner": 2985,
      "85": 2986,
      "Ġdue": 2987,
      "ĠSm": 2988,
      "ĠMc": 2989,
      "resh": 2990,
      "ĠEuro": 2991,
      "Ġcarefully": 2992,
      "hl": 2993,
      "abor": 2994,
      "Ġquite": 2995,
      "Ġtravel": 2996,
      "Ġherself": 2997,
      "Ġlikes": 2998,
      "iol": 2999,
      "ires": 3000,
      "body": 3001,
      "gl": 3002,
      "ĠĠčĊ": 3003,
      "ucky": 3004,
      "Ġcontinue": 3005,
      "Ġshouted": 3006,
      "off": 3007,
      "ication": 3008,
      "Ġmodel": 3009,
      "Ġmeth": 3010,
      "Ġclimb": 3011,
      "xor": 3012,
      "ude": 3013,
      "ĠWill": 3014,
      "Ġtype": 3015,
      "Ġrace": 3016,
      "Ġtext": 3017,
      "Ġmedia": 3018,
      "Ġextra": 3019,
      "ĠServ": 3020,
      "Ġess": 3021,
      "Ġaddresses": 3022,
      "acked": 3023,
      "ules": 3024,
      "Ġneighb": 3025,
      "Ġleaves": 3026,
      "Ġaccording": 3027,
      "31": 3028,
      "ĠDep": 3029,
      "bered": 3030,
      "Ġrequired": 3031,
      "Ġways": 3032,
      "Ġdoctor": 3033,
      "Ġobject": 3034,
      "Ġwoman": 3035,
      "Ġwaved": 3036,
      "ĠPres": 3037,
      "Ġblood": 3038,
      "ification": 3039,
      "Ġtechnology": 3040,
      "je": 3041,
      "Ġshop": 3042,
      "Ġcompanies": 3043,
      "ground": 3044,
      "Ġentire": 3045,
      "Ġtight": 3046,
      "Ġperiod": 3047,
      "same": 3048,
      "Ġ...": 3049,
      "Ġexam": 3050,
      "ĠDWORD": 3051,
      "Ġsurprised": 3052,
      "zz": 3053,
      "ĠOur": 3054,
      "'d": 3055,
      "cm": 3056,
      "Ġstruct": 3057,
      "Ġinstall": 3058,
      "Ġoriginal": 3059,
      "Ġagreed": 3060,
      "(\"": 3061,
      "ram": 3062,
      "test": 3063,
      "Ġmatch": 3064,
      "Ġdou": 3065,
      "aged": 3066,
      "ushed": 3067,
      "Then": 3068,
      "Ġswing": 3069,
      "Ġinit": 3070,
      "Ġconsider": 3071,
      "66": 3072,
      "Ġbug": 3073,
      "Ġperformance": 3074,
      "Ġpubl": 3075,
      "Ġyummy": 3076,
      "ival": 3077,
      "May": 3078,
      "Wow": 3079,
      "Ġmach": 3080,
      "ĠPart": 3081,
      "Ġmanagement": 3082,
      "Ġshows": 3083,
      "ene": 3084,
      "Ġbroken": 3085,
      "Ġdry": 3086,
      "idence": 3087,
      "Ġyourself": 3088,
      "Ġrespect": 3089,
      "45": 3090,
      "eed": 3091,
      "ĠIN": 3092,
      "Ġlikely": 3093,
      "Ġcred": 3094,
      "angu": 3095,
      "elebr": 3096,
      "iant": 3097,
      "Ġwriting": 3098,
      "Ġinteresting": 3099,
      "cong": 3100,
      "ek": 3101,
      "airs": 3102,
      "EC": 3103,
      "Ġhowever": 3104,
      "Ġdelicious": 3105,
      "ĠJan": 3106,
      "Ġcarry": 3107,
      "Ġrequest": 3108,
      "ĠCor": 3109,
      "astic": 3110,
      "Ġexpect": 3111,
      "Ġpiece": 3112,
      "addresses": 3113,
      "augh": 3114,
      "ipped": 3115,
      "Ġhor": 3116,
      "ĠDad": 3117,
      "ruent": 3118,
      "Ġ{'": 3119,
      "congruent": 3120,
      "Ġple": 3121,
      "Ġscreen": 3122,
      "uffy": 3123,
      "ecut": 3124,
      "chie": 3125,
      "AV": 3126,
      "Ġ21": 3127,
      "Ġskin": 3128,
      "Ġcam": 3129,
      "SY": 3130,
      "Ġpen": 3131,
      "Ġisn": 3132,
      "ĠAust": 3133,
      "Ġoil": 3134,
      "Ġhost": 3135,
      "arget": 3136,
      "Ġseries": 3137,
      "au": 3138,
      "Ġhat": 3139,
      "Ġweb": 3140,
      "Ġprovided": 3141,
      "Ġhuge": 3142,
      "Ġprobably": 3143,
      "Ġdiv": 3144,
      "Ġunique": 3145,
      "Ġdrive": 3146,
      "Mommy": 3147,
      "))": 3148,
      "Ġmouse": 3149,
      "Ġsens": 3150,
      "Ġfile": 3151,
      "ively": 3152,
      "Ġjoin": 3153,
      "Ġspot": 3154,
      "obile": 3155,
      "84": 3156,
      "Ġlesson": 3157,
      "Ġprotect": 3158,
      "Ġlat": 3159,
      "erc": 3160,
      "Ġcried": 3161,
      "Ġdanger": 3162,
      "ope": 3163,
      "Ġsmart": 3164,
      "Ġfilm": 3165,
      "Ġage": 3166,
      "Cl": 3167,
      "Ġchoose": 3168,
      "Ġsmell": 3169,
      "Ġprep": 3170,
      "Ġsex": 3171,
      "Ġgoes": 3172,
      "ĠMark": 3173,
      "Ġengine": 3174,
      "Ġhelping": 3175,
      "Ġdisapp": 3176,
      "Ġ2011": 3177,
      "Ġsecret": 3178,
      "Ġnecess": 3179,
      "Ġversion": 3180,
      "Ġ//": 3181,
      "hel": 3182,
      "Ġstri": 3183,
      "fly": 3184,
      "ĠRec": 3185,
      "ĠOct": 3186,
      "Ġoffers": 3187,
      "Ġimprove": 3188,
      "72": 3189,
      "ancial": 3190,
      "Ġcustomers": 3191,
      "ĠDon": 3192,
      "Ġcontract": 3193,
      "Ġpan": 3194,
      "Ġpath": 3195,
      "Ġbeach": 3196,
      "Ġwish": 3197,
      "Ġlo": 3198,
      "Ġweeks": 3199,
      "Ġ26": 3200,
      "ĠStore": 3201,
      "Ġenergy": 3202,
      "ĠWeb": 3203,
      "********************************": 3204,
      "Ġremembered": 3205,
      "ctxt": 3206,
      "Ġincludes": 3207,
      "Ġheavy": 3208,
      "now": 3209,
      "empt": 3210,
      "Ġfrog": 3211,
      "inter": 3212,
      "Ġride": 3213,
      "Ġrecogn": 3214,
      "Ġwear": 3215,
      "Ġhappily": 3216,
      "eared": 3217,
      "ples": 3218,
      "Ġda": 3219,
      "ĠTw": 3220,
      "ĠNorth": 3221,
      "ĠGu": 3222,
      "fully": 3223,
      "Ġwide": 3224,
      "Ġuser": 3225,
      "Ġgives": 3226,
      "MA": 3227,
      "Ġhopped": 3228,
      "rop": 3229,
      "Ġvarious": 3230,
      "Ġpieces": 3231,
      "Sam": 3232,
      "Ġcream": 3233,
      "omes": 3234,
      "ĠSec": 3235,
      "Ġplayers": 3236,
      "gress": 3237,
      "ili": 3238,
      "Ġsil": 3239,
      "ĠGl": 3240,
      "face": 3241,
      "urance": 3242,
      "Ġfinal": 3243,
      "Sh": 3244,
      "Ġfail": 3245,
      "Ġrather": 3246,
      "Ġboard": 3247,
      "86": 3248,
      "icated": 3249,
      "1111": 3250,
      "Ext": 3251,
      "HD": 3252,
      "Ġhy": 3253,
      "ĠBar": 3254,
      "Ġshared": 3255,
      "ez": 3256,
      "ana": 3257,
      "Ġpopular": 3258,
      "Ġtail": 3259,
      "Ġrate": 3260,
      "Ġcell": 3261,
      "Ġprofessional": 3262,
      "Ġrelationship": 3263,
      "UB": 3264,
      "Ġspl": 3265,
      "Ġresour": 3266,
      "olf": 3267,
      "Ġjoy": 3268,
      "Ġplayer": 3269,
      "epend": 3270,
      "Ġinsp": 3271,
      "ĠAC": 3272,
      "ipping": 3273,
      "ceed": 3274,
      "pril": 3275,
      "Ġprovides": 3276,
      "Ġstaff": 3277,
      "Ġcode": 3278,
      "ĠEm": 3279,
      "Ġregular": 3280,
      "irth": 3281,
      "ĠJen": 3282,
      "Ġtrust": 3283,
      "Ġproperty": 3284,
      "rev": 3285,
      "orrow": 3286,
      "Ġblock": 3287,
      "Ġknowledge": 3288,
      "Ġevents": 3289,
      "Ġconduct": 3290,
      "ĠWorld": 3291,
      "Ġcoll": 3292,
      "Ġbunny": 3293,
      "Ġmaint": 3294,
      "verage": 3295,
      "ĠBy": 3296,
      "ĠGe": 3297,
      "ĠComp": 3298,
      "Ġpractice": 3299,
      "inary": 3300,
      "END": 3301,
      "Ġterms": 3302,
      "Ġmethod": 3303,
      "Be": 3304,
      "iam": 3305,
      "ĠRed": 3306,
      "Ġchanges": 3307,
      "Ġdam": 3308,
      "Ġspeak": 3309,
      "hib": 3310,
      "Ġgift": 3311,
      "Ġsimilar": 3312,
      "Ġwet": 3313,
      "Ġcelebr": 3314,
      "ĠPe": 3315,
      "ĠPar": 3316,
      "ĠEl": 3317,
      "nal": 3318,
      "Ġfarm": 3319,
      "ĠPat": 3320,
      "ĠPark": 3321,
      "(#": 3322,
      "Ġdeath": 3323,
      "pd": 3324,
      "Ġpers": 3325,
      "ĠSchool": 3326,
      "unk": 3327,
      "Ġruns": 3328,
      "ĠReg": 3329,
      "Ġmoved": 3330,
      "Ġcloud": 3331,
      "Ġwouldn": 3332,
      "Ġfeed": 3333,
      "Hello": 3334,
      "Ġrisk": 3335,
      "Ġexist": 3336,
      "Ġissue": 3337,
      "MM": 3338,
      "ĠPer": 3339,
      "Ġinj": 3340,
      "ĠTV": 3341,
      "Ġclosed": 3342,
      "cont": 3343,
      "irit": 3344,
      "Ġplaces": 3345,
      "Ġsoftware": 3346,
      "Ġparticip": 3347,
      "ĠStates": 3348,
      "tes": 3349,
      "ague": 3350,
      "Ġgets": 3351,
      "Ġver": 3352,
      "Ġsimply": 3353,
      "ĠEurope": 3354,
      "128": 3355,
      "ĠQu": 3356,
      "define": 3357,
      "Ġlay": 3358,
      "ĠJune": 3359,
      "Ġstories": 3360,
      "Ġassist": 3361,
      "Timmy": 3362,
      "CH": 3363,
      "Oh": 3364,
      "Ġord": 3365,
      "Ġtraining": 3366,
      "Ġsignific": 3367,
      "Ġdeb": 3368,
      "Ġclothes": 3369,
      "ada": 3370,
      "Ġthemselves": 3371,
      "Ġtrou": 3372,
      "ags": 3373,
      "ĠCenter": 3374,
      "His": 3375,
      "Ġachie": 3376,
      "ĠDE": 3377,
      "ĠSouth": 3378,
      "Ġusually": 3379,
      "Ġdefin": 3380,
      "ino": 3381,
      "ĠTe": 3382,
      "ĠĠĠĠĠĠĠĠĠĠĠĠĠĠĠĠĠĠĠĠĠĠĠĠĠĠĠĠĠĠĠĠĠĠčĊ": 3383,
      "Ġproblems": 3384,
      "Ġcoun": 3385,
      "Ġaction": 3386,
      "Ġwished": 3387,
      "Ġspent": 3388,
      "uction": 3389,
      "ĠBenny": 3390,
      "All": 3391,
      "Ġbat": 3392,
      "Ġmouth": 3393,
      "Ġreceive": 3394,
      "Ġgeneral": 3395,
      "yn": 3396,
      "earch": 3397,
      "Ġseems": 3398,
      "lo": 3399,
      "ental": 3400,
      "49": 3401,
      "{'": 3402,
      "itional": 3403,
      "Ġbutterfly": 3404,
      "Ġanswer": 3405,
      "erve": 3406,
      "ĠMe": 3407,
      "Ġexperienc": 3408,
      "Why": 3409,
      "Ġsud": 3410,
      "xx": 3411,
      "eddy": 3412,
      "ĠAct": 3413,
      "Ġsett": 3414,
      "dq": 3415,
      "iving": 3416,
      "Ġprevious": 3417,
      "ĠInc": 3418,
      "Ġtalking": 3419,
      "rsp": 3420,
      "Ġmember": 3421,
      "Ġreceived": 3422,
      "ror": 3423,
      "Ġ@": 3424,
      "Ġband": 3425,
      "Ġload": 3426,
      "ĠPlease": 3427,
      "iles": 3428,
      "Ġplant": 3429,
      "Ġworth": 3430,
      "izing": 3431,
      "iple": 3432,
      "opping": 3433,
      "Ġdead": 3434,
      "ipe": 3435,
      "ung": 3436,
      "Ġtrack": 3437,
      "Ġowner": 3438,
      "Ġincrease": 3439,
      "Ġsales": 3440,
      "Ġannoun": 3441,
      "me": 3442,
      "align": 3443,
      "Ġgold": 3444,
      "ĠAmerica": 3445,
      "file": 3446,
      "Ġdate": 3447,
      "Ġdance": 3448,
      "Ġreading": 3449,
      "Do": 3450,
      "Ġcross": 3451,
      "Ġhill": 3452,
      "che": 3453,
      "wor": 3454,
      "Ġsou": 3455,
      "Ġdb": 3456,
      "iction": 3457,
      "Ġimag": 3458,
      "Ġrepresent": 3459,
      "Ġstuff": 3460,
      "Ġcreated": 3461,
      "Ġeducation": 3462,
      "aughter": 3463,
      "ray": 3464,
      "Ġtrip": 3465,
      "ĠLoadI": 3466,
      "ĠDav": 3467,
      "ological": 3468,
      "Ph": 3469,
      "Ġlin": 3470,
      "ĠMr": 3471,
      "Ġmedical": 3472,
      "oogle": 3473,
      "Ġviol": 3474,
      "Ġappear": 3475,
      "MD": 3476,
      "10007": 3477,
      "ospital": 3478,
      "ager": 3479,
      "Ġarm": 3480,
      "Ġconsum": 3481,
      "NT": 3482,
      "Ġobs": 3483,
      "Ġble": 3484,
      "Ġbranch": 3485,
      "Ġseemed": 3486,
      "ĠPushI": 3487,
      "Ġtotal": 3488,
      "ades": 3489,
      "ĠHar": 3490,
      "100": 3491,
      "Ġwelcome": 3492,
      "ĠMS": 3493,
      "aturday": 3494,
      "Ã©": 3495,
      "Ġstar": 3496,
      "Ġstrange": 3497,
      "Rst": 3498,
      "ĠnRst": 3499,
      "Ġvict": 3500,
      "Ġpolice": 3501,
      "cast": 3502,
      "Ġsubject": 3503,
      "Ġofficial": 3504,
      "ĠDaisy": 3505,
      "Jack": 3506,
      "With": 3507,
      "Ġinn": 3508,
      "Ġnatural": 3509,
      "Ġimpact": 3510,
      "SHORT": 3511,
      "Ġarticle": 3512,
      "ength": 3513,
      "Ġsend": 3514,
      "ĠCounty": 3515,
      "??": 3516,
      "Ġhtt": 3517,
      "ĠAug": 3518,
      "Ġbigger": 3519,
      "gar": 3520,
      "ENT": 3521,
      "Ġindividual": 3522,
      ")(%": 3523,
      "rest": 3524,
      "Ġsmo": 3525,
      "Ġexcept": 3526,
      "ptr": 3527,
      "Ġrecently": 3528,
      "EO": 3529,
      "Ġhol": 3530,
      "Ġcouple": 3531,
      "light": 3532,
      "inger": 3533,
      "Ġrecent": 3534,
      "Ġones": 3535,
      "Ġassoci": 3536,
      "Ġdetails": 3537,
      "uary": 3538,
      "ĠSu": 3539,
      "Ġax": 3540,
      "Ġbath": 3541,
      "Ġserious": 3542,
      "Ġdesigned": 3543,
      "Ġetc": 3544,
      "istration": 3545,
      "ET": 3546,
      "mt": 3547,
      "ĠSally": 3548,
      "Ġleaders": 3549,
      "Ġitems": 3550,
      "37": 3551,
      "Ġcookies": 3552,
      "Ġsail": 3553,
      "Ġju": 3554,
      "rdx": 3555,
      "Ġill": 3556,
      "text": 3557,
      "Ġ199": 3558,
      "Ġapplication": 3559,
      "Ġconcern": 3560,
      "egr": 3561,
      "stant": 3562,
      "ĠWhile": 3563,
      "Ġpatient": 3564,
      "BC": 3565,
      "Ġsense": 3566,
      "Ġimpress": 3567,
      "Ġrights": 3568,
      "Ġloss": 3569,
      "char": 3570,
      "Ġ04": 3571,
      "Ġbuilt": 3572,
      "Ġfaster": 3573,
      "uments": 3574,
      "Ġsaying": 3575,
      "uth": 3576,
      "ulated": 3577,
      "Ġthroughout": 3578,
      "hood": 3579,
      "Ġbreat": 3580,
      "Ġbike": 3581,
      "Ġanimal": 3582,
      "Ġhealthy": 3583,
      "ĠPresident": 3584,
      "Ġwild": 3585,
      "Ġmount": 3586,
      "Ġonto": 3587,
      "ĠHouse": 3588,
      "ĠBo": 3589,
      "Ġemb": 3590,
      "ĠMaybe": 3591,
      "based": 3592,
      "ĠMore": 3593,
      "Ġattention": 3594,
      "ham": 3595,
      "Ġ28": 3596,
      "ĠMarch": 3597,
      "Ġgoal": 3598,
      "Ġlearning": 3599,
      "Ġsignificant": 3600,
      "ULL": 3601,
      "Ġdrug": 3602,
      "Ġcapt": 3603,
      "ĠApril": 3604,
      "Ġcurrently": 3605,
      "Ġdom": 3606,
      "Ġled": 3607,
      "Ġ2010": 3608,
      "Ġmaybe": 3609,
      "Ġensure": 3610,
      "ederal": 3611,
      "ocol": 3612,
      "Ġquiet": 3613,
      "Ġestab": 3614,
      "Ġaf": 3615,
      "Ġcause": 3616,
      "Ġeating": 3617,
      "ĠAf": 3618,
      "Ġprograms": 3619,
      "Ġrecommend": 3620,
      "Ġcopy": 3621,
      "Ġ27": 3622,
      "Ġchance": 3623,
      "JMP": 3624,
      "SI": 3625,
      "Ġpupp": 3626,
      "evExt": 3627,
      "Ġopportunity": 3628,
      "jmp": 3629,
      "clus": 3630,
      "Ġoptions": 3631,
      "Ġlic": 3632,
      "ĠCr": 3633,
      "Ġneg": 3634,
      "ĠChar": 3635,
      "////": 3636,
      "struction": 3637,
      "cd": 3638,
      "jne": 3639,
      "Ġcy": 3640,
      "Ġpink": 3641,
      "Ġforget": 3642,
      "Ġitself": 3643,
      "error": 3644,
      "min": 3645,
      "unt": 3646,
      "Ġ60": 3647,
      "Ġstayed": 3648,
      "ription": 3649,
      "Ġtom": 3650,
      "Ġtele": 3651,
      "Ġlegal": 3652,
      "ashing": 3653,
      "....": 3654,
      "ĠGrand": 3655,
      "Ġtarget": 3656,
      "Now": 3657,
      "Ġsold": 3658,
      "Ġfill": 3659,
      "Ġinfl": 3660,
      "arp": 3661,
      "anguage": 3662,
      "ipp": 3663,
      "Ġfresh": 3664,
      "onse": 3665,
      "Ġstyle": 3666,
      "unn": 3667,
      "Ġ22": 3668,
      "cy": 3669,
      "Ġ23": 3670,
      "Ġclick": 3671,
      "Ġsummer": 3672,
      "ĠUs": 3673,
      "ancy": 3674,
      "alk": 3675,
      "Ġnational": 3676,
      "ĠInt": 3677,
      "ĠPol": 3678,
      "ĠFace": 3679,
      "ĠJim": 3680,
      "Ġful": 3681,
      "ĠHere": 3682,
      "ocket": 3683,
      "oves": 3684,
      "Ġintrod": 3685,
      "Ġbrand": 3686,
      "ancing": 3687,
      "Ġregard": 3688,
      "Ġlion": 3689,
      "Ġexpress": 3690,
      "Ġglass": 3691,
      "ufact": 3692,
      "adem": 3693,
      "oday": 3694,
      "Ġflying": 3695,
      "Ġcontrib": 3696,
      "Ġhide": 3697,
      "Ġgrandma": 3698,
      "la": 3699,
      "ĠLila": 3700,
      "ĠEven": 3701,
      "ucks": 3702,
      "Ġincluded": 3703,
      "Ġdriver": 3704,
      "Ġpulled": 3705,
      "Ġadditional": 3706,
      "Ġbowl": 3707,
      "lier": 3708,
      "Ġexact": 3709,
      "Ġjud": 3710,
      "ocked": 3711,
      "Ġscary": 3712,
      "DA": 3713,
      "mon": 3714,
      "Ġsea": 3715,
      "Ġteacher": 3716,
      "aign": 3717,
      "Ġtrail": 3718,
      "Ġmyself": 3719,
      "Ġdangerous": 3720,
      "haps": 3721,
      "Ġtick": 3722,
      "ipment": 3723,
      "../": 3724,
      "ĠAssoci": 3725,
      "ĠTHE": 3726,
      "Ġperm": 3727,
      "Ġveh": 3728,
      ";;;;;;;;": 3729,
      "54": 3730,
      "aul": 3731,
      "data": 3732,
      "ĠSoc": 3733,
      "Ġasks": 3734,
      "attle": 3735,
      "MS": 3736,
      "Ġfeet": 3737,
      "UR": 3738,
      "Ġut": 3739,
      "kend": 3740,
      "Ġwritten": 3741,
      "Ġcastle": 3742,
      "ĠSept": 3743,
      "Ġsystems": 3744,
      ">:": 3745,
      "Ġrelease": 3746,
      "ĠOff": 3747,
      "Ġlda": 3748,
      "imum": 3749,
      "Ġrole": 3750,
      "Ġbrown": 3751,
      "Ġow": 3752,
      "Ġapply": 3753,
      "Ġfinish": 3754,
      "Ġletter": 3755,
      "Our": 3756,
      "Ġskills": 3757,
      "unday": 3758,
      "Ġeasily": 3759,
      "itation": 3760,
      "ecause": 3761,
      "ĠWest": 3762,
      "Ġlives": 3763,
      "Ġshoot": 3764,
      "Ġtreatment": 3765,
      "Ġmeeting": 3766,
      "Ġbirth": 3767,
      "ĠStud": 3768,
      "Ġprivate": 3769,
      "ying": 3770,
      "ĠHigh": 3771,
      "Ġusers": 3772,
      "Ġdecision": 3773,
      "Ġprior": 3774,
      "Ġfeels": 3775,
      "Ġpeace": 3776,
      "Ġsepar": 3777,
      "Ġencour": 3778,
      "ding": 3779,
      "Ġsecurity": 3780,
      "Ġsafety": 3781,
      "orge": 3782,
      "ications": 3783,
      "ocr": 3784,
      "Ġability": 3785,
      "Ġhungry": 3786,
      "Ġwoods": 3787,
      "Ġmention": 3788,
      "ender": 3789,
      "ustr": 3790,
      "ĠGo": 3791,
      "Ġslowly": 3792,
      "ey": 3793,
      "arter": 3794,
      "Ġgen": 3795,
      "Ġneck": 3796,
      "ĠAre": 3797,
      "Ġimmedi": 3798,
      "XT": 3799,
      "just": 3800,
      "ugg": 3801,
      "Ġhelps": 3802,
      "reng": 3803,
      "ĠNews": 3804,
      "enn": 3805,
      "ĠWar": 3806,
      "onday": 3807,
      "Ġbur": 3808,
      "Ġdaughter": 3809,
      "Ġcanc": 3810,
      "Ġmovie": 3811,
      "By": 3812,
      "Ġlower": 3813,
      "Ġrent": 3814,
      "Ġformer": 3815,
      "istic": 3816,
      "Ġstarting": 3817,
      "65": 3818,
      "Ġmist": 3819,
      "icles": 3820,
      "Ġsus": 3821,
      "Ġnote": 3822,
      "Ġprevent": 3823,
      "Ġgiving": 3824,
      "Ġchoice": 3825,
      "Ġcareer": 3826,
      "Ġautom": 3827,
      "Ġban": 3828,
      "Ġlake": 3829,
      "Ġattract": 3830,
      "Ġcenter": 3831,
      "Ġbite": 3832,
      "Ġnature": 3833,
      "Ġvac": 3834,
      "Ġrout": 3835,
      "Ġfinancial": 3836,
      "rupt": 3837,
      "Ġthinking": 3838,
      "ĠAustral": 3839,
      "EL": 3840,
      "Ġcases": 3841,
      "Ġvia": 3842,
      "OT": 3843,
      "Ġfine": 3844,
      "Ġspark": 3845,
      "Ġwrote": 3846,
      "Ġspeed": 3847,
      "ket": 3848,
      "Ġthrow": 3849,
      "Ġnetwork": 3850,
      "adu": 3851,
      "state": 3852,
      "Ġconditions": 3853,
      "ĠCalif": 3854,
      "ĠDepartment": 3855,
      "Ex": 3856,
      "Ġsister": 3857,
      "ĠDay": 3858,
      "Ġmeasure": 3859,
      "Ġpolicy": 3860,
      "column": 3861,
      "Just": 3862,
      "iable": 3863,
      "ĠSen": 3864,
      "Ġemer": 3865,
      "68": 3866,
      "Hi": 3867,
      "ĠSer": 3868,
      "Ġmoral": 3869,
      "ession": 3870,
      "Ġdevice": 3871,
      "EM": 3872,
      "Sp": 3873,
      "irty": 3874,
      "Ġdeg": 3875,
      "ĠArt": 3876,
      "Ġpotential": 3877,
      "Ġptr": 3878,
      "ateful": 3879,
      "Ġblank": 3880,
      "Pro": 3881,
      "mber": 3882,
      "uses": 3883,
      "Ġmoving": 3884,
      "includ": 3885,
      "Ġcaught": 3886,
      "Ġparts": 3887,
      "pri": 3888,
      "ym": 3889,
      "Ġbought": 3890,
      "Ġfather": 3891,
      "ĠGoogle": 3892,
      "dc": 3893,
      "Ġsource": 3894,
      "Ġlink": 3895,
      "olution": 3896,
      "erved": 3897,
      "Ġinvestig": 3898,
      "Ġlunch": 3899,
      "Ġstreet": 3900,
      "Ġnumbers": 3901,
      "Ġlevels": 3902,
      "Ġthinks": 3903,
      "IP": 3904,
      "cks": 3905,
      "itter": 3906,
      "Ġstuck": 3907,
      "Ġinternational": 3908,
      "Ġhid": 3909,
      "Ġsounds": 3910,
      "pose": 3911,
      "alt": 3912,
      "Ġreported": 3913,
      "Ġinvolved": 3914,
      "Ġforgot": 3915,
      "ĠFeb": 3916,
      "raig": 3917,
      "Ġworried": 3918,
      "Ġrelated": 3919,
      "irrel": 3920,
      "Ġcourt": 3921,
      "Ġgrowth": 3922,
      "Ġgar": 3923,
      "ĠWell": 3924,
      "oph": 3925,
      "Ġgroups": 3926,
      "Ġlatest": 3927,
      "uel": 3928,
      "Ġegg": 3929,
      "ĠĠĠĠĠĠĠĠĠĠĠĠĠĠĠĠĠĠĠĠĠĠĠĠĠĠĠĠĠĠĠĠĠčĊ": 3930,
      "www": 3931,
      "Ġaverage": 3932,
      "Ġshoes": 3933,
      "Ġallows": 3934,
      "Ġpowerful": 3935,
      "Ġcosts": 3936,
      "ĠMary": 3937,
      "ests": 3938,
      "ĠNULL": 3939,
      "Ġbusy": 3940,
      "dqa": 3941,
      "OK": 3942,
      "Ġgun": 3943,
      "Ġstra": 3944,
      "ĠJuly": 3945,
      "Ġconnect": 3946,
      "59": 3947,
      "Ġmass": 3948,
      "Ġaccident": 3949,
      "Ġactivities": 3950,
      "Ġpurchase": 3951,
      "Ġrob": 3952,
      "ĠBrown": 3953,
      "Ġsort": 3954,
      "Ġnormal": 3955,
      "Ġgas": 3956,
      "Ġimage": 3957,
      "Ġpoor": 3958,
      "Ġexplained": 3959,
      "Ġwaited": 3960,
      "Ġpuppy": 3961,
      "LA": 3962,
      "Ġeye": 3963,
      "ĠPhys": 3964,
      "08": 3965,
      "ville": 3966,
      "Ġpadd": 3967,
      "imate": 3968,
      "ovember": 3969,
      "Ġmus": 3970,
      "Ġspend": 3971,
      "Ġcustomer": 3972,
      "Ġoption": 3973,
      "ĠAg": 3974,
      "ĠBilly": 3975,
      "ĠLa": 3976,
      "Ġleading": 3977,
      "ĠFacebook": 3978,
      "atory": 3979,
      "Ġfa": 3980,
      "Ġgrateful": 3981,
      "\")": 3982,
      "Get": 3983,
      "field": 3984,
      "lex": 3985,
      "acro": 3986,
      "00000": 3987,
      "merc": 3988,
      "ornia": 3989,
      "ĠExchange": 3990,
      "gel": 3991,
      "asc": 3992,
      "acing": 3993,
      "Please": 3994,
      "Ġsilly": 3995,
      "ĠMon": 3996,
      "Ġnecessary": 3997,
      "Ġson": 3998,
      "enge": 3999,
      "unction": 4000,
      "Ġmeas": 4001,
      "Ġmodern": 4002,
      "Ġclimbed": 4003,
      "Maybe": 4004,
      "Ġmachine": 4005,
      "Ġship": 4006,
      "Ġsmiles": 4007,
      "Ġpressure": 4008,
      "ky": 4009,
      "night": 4010,
      "Ġwatching": 4011,
      "Ġpatients": 4012,
      "Ġstandard": 4013,
      "annel": 4014,
      "bp": 4015,
      "een": 4016,
      "Ġfox": 4017,
      "Ġdw": 4018,
      "ales": 4019,
      "ĠCour": 4020,
      "uk": 4021,
      "ux": 4022,
      "Ġpred": 4023,
      "Ġnation": 4024,
      "ĠMich": 4025,
      "Ġeverywhere": 4026,
      "Ġpool": 4027,
      "Ġindepend": 4028,
      "Ġattempt": 4029,
      "Ġlistened": 4030,
      "Ġsquirrel": 4031,
      "Ġchanged": 4032,
      "TION": 4033,
      "fd": 4034,
      "ĠSw": 4035,
      "iger": 4036,
      "Ġstates": 4037,
      "ĠNet": 4038,
      "Ġpromised": 4039,
      "Ġmiddle": 4040,
      "Ġcredit": 4041,
      "FP": 4042,
      "Ġmeant": 4043,
      "Ġsched": 4044,
      "Ġproduction": 4045,
      "Ġadmin": 4046,
      "net": 4047,
      "usiness": 4048,
      "ĠDirect": 4049,
      "ĠOb": 4050,
      "Ġprim": 4051,
      "Ġamazed": 4052,
      "Ġexpected": 4053,
      "Ġwaiting": 4054,
      "Ġdetail": 4055,
      "CE": 4056,
      "esign": 4057,
      "ubb": 4058,
      "Ġpresident": 4059,
      "ĠSunday": 4060,
      "ĠFriday": 4061,
      "Com": 4062,
      "ĠSaturday": 4063,
      "Ġplat": 4064,
      "Ġstudent": 4065,
      "ĠĠĠĠĠĠĠĠĠĠĠĠĠĠĠĠĠĠĠĠĠĠĠĠĠčĊ": 4066,
      "Ġdownload": 4067,
      "ios": 4068,
      "lt": 4069,
      "vest": 4070,
      "Ġclub": 4071,
      "Ġframe": 4072,
      "ĠAugust": 4073,
      "Ġturns": 4074,
      "Ġbroke": 4075,
      "Ġmessage": 4076,
      "Ġstars": 4077,
      "ship": 4078,
      "Ġprojects": 4079,
      "Ġing": 4080,
      "Ġmine": 4081,
      "Ġpropos": 4082,
      "Ġlocation": 4083,
      "asons": 4084,
      "Ġnut": 4085,
      "ĠAmy": 4086,
      "Ġsuff": 4087,
      "73": 4088,
      "Ġhous": 4089,
      "Ġ;;": 4090,
      "Ġdocument": 4091,
      "dma": 4092,
      "Ġburn": 4093,
      "ĠSan": 4094,
      "Ġvill": 4095,
      "ĠVal": 4096,
      "69": 4097,
      "Ġdaddy": 4098,
      "Ġscore": 4099,
      "po": 4100,
      "Ġgent": 4101,
      "ĠBu": 4102,
      "Ġsubs": 4103,
      "Ġ2014": 4104,
      "Ġcampaign": 4105,
      "51": 4106,
      "NE": 4107,
      "Ġfirm": 4108,
      "Ġhospital": 4109,
      "Ġenter": 4110,
      "uesday": 4111,
      "Ġresources": 4112,
      "Max": 4113,
      "aches": 4114,
      "ĠSte": 4115,
      "Ġ2015": 4116,
      "ROM": 4117,
      "Ġdescrib": 4118,
      "Here": 4119,
      "txt": 4120,
      "agement": 4121,
      "Ġshot": 4122,
      "Ġ29": 4123,
      "ĠĠĠĠĠĠĠĠĠĠĠĠĠĠĠĠĠĠĠĠĠĠĠĠĠĠĠĠĠĠĠčĊ": 4124,
      "free": 4125,
      "incess": 4126,
      "Ġcomment": 4127,
      "Ġexciting": 4128,
      "Ġbelong": 4129,
      "ĠBlack": 4130,
      "){": 4131,
      "Ġmail": 4132,
      "enty": 4133,
      "Ġriver": 4134,
      "icks": 4135,
      "ysis": 4136,
      "Ġcorner": 4137,
      "AVX": 4138,
      "ivery": 4139,
      "Ġep": 4140,
      "Ġbutton": 4141,
      "03": 4142,
      "Un": 4143,
      "mercial": 4144,
      "):": 4145,
      "Ġbud": 4146,
      "Ġshel": 4147,
      "box": 4148,
      "screen": 4149,
      "Ġholding": 4150,
      "Ġsuccessful": 4151,
      "ĠEnglish": 4152,
      "Ġsitting": 4153,
      "Ġtour": 4154,
      "Ġstage": 4155,
      "ĠWhy": 4156,
      "Ġtools": 4157,
      "Ġpaid": 4158,
      "Ġdise": 4159,
      "Ġbottom": 4160,
      "Ġchalleng": 4161,
      "aly": 4162,
      "aker": 4163,
      "Ġfeature": 4164,
      "ĠTommy": 4165,
      "Ġdifference": 4166,
      "Ġvariety": 4167,
      "wood": 4168,
      "idents": 4169,
      "Ġrestaur": 4170,
      "07": 4171,
      "ĠHealth": 4172,
      "Ġintegr": 4173,
      "Ġbasket": 4174,
      "ĠOctober": 4175,
      "ĠAND": 4176,
      "Ġ2017": 4177,
      "Ġ75": 4178,
      "Ġbehav": 4179,
      "Ġbeg": 4180,
      "Ġspread": 4181,
      "ension": 4182,
      "Ġdepend": 4183,
      "Ġeffective": 4184,
      "dst": 4185,
      "Ġtur": 4186,
      "dom": 4187,
      "Ġfear": 4188,
      "vey": 4189,
      "Ġfunction": 4190,
      "Ġremind": 4191,
      "Ġdrink": 4192,
      "ĠCalifornia": 4193,
      "Ġweight": 4194,
      "Ġclients": 4195,
      "Ġmanufact": 4196,
      "Ġweekend": 4197,
      "Ġmagic": 4198,
      "ĠJanuary": 4199,
      "Ġwife": 4200,
      "ims": 4201,
      "Ġoffered": 4202,
      "Ġaware": 4203,
      "Ġmovu": 4204,
      "Ġdropped": 4205,
      "dsp": 4206,
      "izes": 4207,
      "Ġcorrect": 4208,
      "Ġmaterials": 4209,
      "ĠInternational": 4210,
      "Ġcamera": 4211,
      "loop": 4212,
      "Ġpattern": 4213,
      "Of": 4214,
      "iring": 4215,
      "Ġplans": 4216,
      "Ġcompletely": 4217,
      "Ġpartners": 4218,
      "Ġdirectly": 4219,
      "Ġstreng": 4220,
      "ĠCO": 4221,
      "hern": 4222,
      "Ġqual": 4223,
      "ibr": 4224,
      "Ġreflect": 4225,
      "Ġpassed": 4226,
      "Ġsick": 4227,
      "Ġmax": 4228,
      "ĠFin": 4229,
      "Ġgrowing": 4230,
      "Ġign": 4231,
      "Ġsection": 4232,
      "Ġsuit": 4233,
      "Ġjourney": 4234,
      "Ġstructure": 4235,
      "hold": 4236,
      "ĠFirst": 4237,
      "Ġideas": 4238,
      "Ġfigure": 4239,
      "Ġhar": 4240,
      "icine": 4241,
      "Ġdaily": 4242,
      "?âĢĿ": 4243,
      "ha": 4244,
      "ns": 4245,
      "elly": 4246,
      "ocation": 4247,
      "ĠOf": 4248,
      "Ġserve": 4249,
      "Ġequipment": 4250,
      "Ġgentle": 4251,
      "Ġbuck": 4252,
      "Ġrules": 4253,
      "Ġspirit": 4254,
      "Ġeval": 4255,
      "ĠSeptember": 4256,
      "05": 4257,
      "isf": 4258,
      "Ġreve": 4259,
      "Ġchurch": 4260,
      "izz": 4261,
      "Ġbenefits": 4262,
      "PS": 4263,
      "uals": 4264,
      "Ġarms": 4265,
      "Ġunl": 4266,
      "bsl": 4267,
      "ĠCommun": 4268,
      "ezdsp": 4269,
      "revc": 4270,
      "Ġhttp": 4271,
      "Ġpushed": 4272,
      "Ġ\"../": 4273,
      "Ġchair": 4274,
      "Ġinsurance": 4275,
      "Ġattack": 4276,
      "Ġ2008": 4277,
      "mas": 4278,
      "itely": 4279,
      "Ġshall": 4280,
      "Ġ2016": 4281,
      "Ġsubm": 4282,
      "Ġextrem": 4283,
      "Ġdistrib": 4284,
      "Ġreleased": 4285,
      "AS": 4286,
      "ait": 4287,
      "bx": 4288,
      "wise": 4289,
      "echan": 4290,
      "CT": 4291,
      "ĠStr": 4292,
      "ĠDataC": 4293,
      "Ġvot": 4294,
      "Ġballoon": 4295,
      "Ġmagical": 4296,
      "Ġcandy": 4297,
      "47": 4298,
      "equ": 4299,
      "Ġten": 4300,
      "asm": 4301,
      "Ġremov": 4302,
      "ĠDis": 4303,
      "Ġhighly": 4304,
      "Ġ2009": 4305,
      "Ġphotos": 4306,
      "Ġcollection": 4307,
      "arc": 4308,
      "Ġlif": 4309,
      "ĠCle": 4310,
      "phone": 4311,
      "46": 4312,
      "med": 4313,
      "ops": 4314,
      "Ġlocated": 4315,
      "ĠDem": 4316,
      "ĠEQ": 4317,
      "Ġeffort": 4318,
      "Ġapproach": 4319,
      "Ġstepped": 4320,
      "Ġlimited": 4321,
      "Ġpublished": 4322,
      "ida": 4323,
      "ĠLaw": 4324,
      "ĠGener": 4325,
      "ĠAfric": 4326,
      "Ġwid": 4327,
      "isions": 4328,
      "ivity": 4329,
      "Ġbi": 4330,
      "atives": 4331,
      "apan": 4332,
      "Ġimplement": 4333,
      "Ġglobal": 4334,
      "Ġtiny": 4335,
      "Ġpig": 4336,
      "ĠOut": 4337,
      "movz": 4338,
      "CK": 4339,
      "Is": 4340,
      "ĠKing": 4341,
      "mbol": 4342,
      "Ġdigital": 4343,
      "Ġsuddenly": 4344,
      "$[": 4345,
      ")||": 4346,
      "Ġlanguage": 4347,
      "roup": 4348,
      "Ġreturned": 4349,
      "Ġfarmer": 4350,
      "Ġallowed": 4351,
      "%%%%%%%%%%%%%%%%%%%%%%%%%%%%%%%%": 4352,
      "Ġtaste": 4353,
      "DB": 4354,
      "Every": 4355,
      "Ġpages": 4356,
      "Ġthr": 4357,
      "icate": 4358,
      "ĠAcc": 4359,
      "yl": 4360,
      "Ġkiss": 4361,
      "Con": 4362,
      "ĠBro": 4363,
      "Ġhelpful": 4364,
      "Ġarch": 4365,
      "Ġincred": 4366,
      "Ġesc": 4367,
      "Ġmill": 4368,
      "ĠSub": 4369,
      "Ġappeared": 4370,
      "ibly": 4371,
      "Ġexcell": 4372,
      "ĠAnn": 4373,
      "Ġpolitical": 4374,
      "Ġresponse": 4375,
      "Ġstraight": 4376,
      "yard": 4377,
      "Ġbul": 4378,
      "Ġeight": 4379,
      "ĠHel": 4380,
      "ĠNovember": 4381,
      "AVXalign": 4382,
      "Add": 4383,
      "ald": 4384,
      "ĠMonday": 4385,
      "Ġshap": 4386,
      "Ġadvant": 4387,
      "Ġsituation": 4388,
      "Ġcrying": 4389,
      "Ġeventually": 4390,
      "Ġdemand": 4391,
      "Not": 4392,
      "},": 4393,
      "Ġduck": 4394,
      "sidered": 4395,
      "aries": 4396,
      "Ġnotice": 4397,
      "ounds": 4398,
      "ĠIndian": 4399,
      "Ð¾": 4400,
      "Ġcountries": 4401,
      "hest": 4402,
      "Ġtitle": 4403,
      "stmt": 4404,
      "psn": 4405,
      "ARG": 4406,
      "dwpsn": 4407,
      "Ġmiles": 4408,
      "Ġmultiple": 4409,
      "Ġtypes": 4410,
      "Ġplatform": 4411,
      "Ġteddy": 4412,
      "Ġmap": 4413,
      "Ġmicro": 4414,
      "ĠCons": 4415,
      "elling": 4416,
      "apers": 4417,
      "Ġmarketing": 4418,
      "uted": 4419,
      "iment": 4420,
      "09": 4421,
      "ael": 4422,
      "oe": 4423,
      "ements": 4424,
      "ĠGet": 4425,
      "ivil": 4426,
      "Ġpositive": 4427,
      "52": 4428,
      "Ġfat": 4429,
      "Ġpow": 4430,
      "Ġrare": 4431,
      "ATE": 4432,
      "Ġeffects": 4433,
      "cles": 4434,
      "ĉĉĉ": 4435,
      "Ġcreative": 4436,
      "ANK": 4437,
      "53": 4438,
      "New": 4439,
      "Ġyard": 4440,
      "Ġur": 4441,
      "ĠFlor": 4442,
      "ography": 4443,
      "Craig": 4444,
      "erry": 4445,
      "Ġmobile": 4446,
      "arn": 4447,
      "ube": 4448,
      "string": 4449,
      "Ġinterview": 4450,
      "down": 4451,
      "pen": 4452,
      "Ġstock": 4453,
      "Ġinterested": 4454,
      "cil": 4455,
      "Ġremain": 4456,
      "ris": 4457,
      "Ġbroad": 4458,
      "Ġorganiz": 4459,
      "iation": 4460,
      "Ġuses": 4461,
      "1916": 4462,
      "Ġeffic": 4463,
      "ruary": 4464,
      "Okay": 4465,
      "ĠSim": 4466,
      "ĠMolly": 4467,
      "Ġconsidered": 4468,
      "ursday": 4469,
      "Ġ__": 4470,
      "ĠJill": 4471,
      "Ġseek": 4472,
      "Ġcollege": 4473,
      "Ġconsist": 4474,
      "CC": 4475,
      "ĠWind": 4476,
      "ĠInst": 4477,
      "bur": 4478,
      "estern": 4479,
      "Ġpretend": 4480,
      "Ġnearby": 4481,
      "Ġcolorful": 4482,
      "########": 4483,
      "ĠAssociation": 4484,
      "AP": 4485,
      "OS": 4486,
      "band": 4487,
      "Ġexerc": 4488,
      "Ġarr": 4489,
      "Ġaccom": 4490,
      "Ġinstit": 4491,
      "Ġphysical": 4492,
      "Ġthrew": 4493,
      "Ġheat": 4494,
      "Ġdevices": 4495,
      "57": 4496,
      "sr": 4497,
      "ĠĠĠĠĠĠĠĠĠĠĠĠ": 4498,
      "Ġconvers": 4499,
      "ĠThank": 4500,
      "Ġproviding": 4501,
      "Ġfruit": 4502,
      "Ġdeliver": 4503,
      "Ġtower": 4504,
      "Ġneighbor": 4505,
      "Ġsmooth": 4506,
      "raid": 4507,
      "Ġdragon": 4508,
      "ecutive": 4509,
      "Sc": 4510,
      "iber": 4511,
      "mod": 4512,
      "see": 4513,
      "ĠRead": 4514,
      "Ġbalance": 4515,
      "ocolate": 4516,
      "Ġexactly": 4517,
      "ednes": 4518,
      "Ġpocket": 4519,
      "Ġhour": 4520,
      "ulations": 4521,
      "ĠOF": 4522,
      "Ġimages": 4523,
      "($": 4524,
      "nown": 4525,
      "arg": 4526,
      "oming": 4527,
      "Ġthous": 4528,
      "rax": 4529,
      "Ġgoals": 4530,
      "While": 4531,
      "Ġecx": 4532,
      "FX": 4533,
      "iate": 4534,
      "ĠPM": 4535,
      "Ġseat": 4536,
      "ĠRem": 4537,
      "Ġ44": 4538,
      "ĠRepublic": 4539,
      "Ġcomfortable": 4540,
      "Ġking": 4541,
      "Ġprec": 4542,
      "Char": 4543,
      "================": 4544,
      "QWORD": 4545,
      "oat": 4546,
      "yond": 4547,
      "ado": 4548,
      "atever": 4549,
      "Ġradio": 4550,
      "Ġmis": 4551,
      "Ġharm": 4552,
      "venue": 4553,
      "Ġnearly": 4554,
      "Ġlaws": 4555,
      "Ġveget": 4556,
      "Ġcovered": 4557,
      "Ġfederal": 4558,
      "omen": 4559,
      "ĠFree": 4560,
      "Ġguess": 4561,
      "Ġahead": 4562,
      "Ġsen": 4563,
      "Ġsect": 4564,
      "Ġcart": 4565,
      "Ġcondition": 4566,
      "ĠĉĠĠĠ": 4567,
      "Ġorange": 4568,
      "Ġcarr": 4569,
      "DEFB": 4570,
      "Ġbeginning": 4571,
      "ĠDavid": 4572,
      "63": 4573,
      "CON": 4574,
      "ĠTuesday": 4575,
      "oto": 4576,
      "ĠAc": 4577,
      "Ġearlier": 4578,
      "Ġhoped": 4579,
      "Ġrev": 4580,
      "Ġagre": 4581,
      "ometimes": 4582,
      "Ġhotel": 4583,
      "hol": 4584,
      "Ġfold": 4585,
      "ĠST": 4586,
      "Ġmilk": 4587,
      "ĠÂ£": 4588,
      "87": 4589,
      "Ġdirty": 4590,
      "term": 4591,
      "Ġsharing": 4592,
      "Ġprogress": 4593,
      "Ġupdate": 4594,
      "pm": 4595,
      "aled": 4596,
      "ĠPeter": 4597,
      "mma": 4598,
      "Ġadult": 4599,
      "Ġtrade": 4600,
      "Ġexpensive": 4601,
      "Ġmonster": 4602,
      "Ġobt": 4603,
      "Ġbench": 4604,
      "inated": 4605,
      "ilies": 4606,
      "ĠDel": 4607,
      "Ġsharp": 4608,
      "rench": 4609,
      "ashion": 4610,
      "Ġculture": 4611,
      "Ġprincess": 4612,
      "Ġdrove": 4613,
      "PM": 4614,
      "bow": 4615,
      "ĠPost": 4616,
      "Ġshr": 4617,
      "Ġsongs": 4618,
      "ted": 4619,
      "ittee": 4620,
      "ĠStreet": 4621,
      "Ġexploring": 4622,
      "Sure": 4623,
      "cean": 4624,
      "endif": 4625,
      "Ġ!=": 4626,
      "Ġhang": 4627,
      "Ġshown": 4628,
      "ĠThom": 4629,
      "Ġcomplex": 4630,
      "Ġafraid": 4631,
      "ION": 4632,
      "OW": 4633,
      "eep": 4634,
      "arant": 4635,
      "imately": 4636,
      "ulate": 4637,
      "âĢĿ.": 4638,
      "Ġprices": 4639,
      "Ġapple": 4640,
      "Ġachieve": 4641,
      "mark": 4642,
      "Ġbill": 4643,
      "Ġbank": 4644,
      "ĠAut": 4645,
      "Ġupset": 4646,
      "Ġknows": 4647,
      "example": 4648,
      "rast": 4649,
      "Ġded": 4650,
      "Ġlift": 4651,
      "Ġearth": 4652,
      "Ġplaced": 4653,
      "Ġuseful": 4654,
      "SET": 4655,
      "PA": 4656,
      "new": 4657,
      "Ġstack": 4658,
      "Ġresist": 4659,
      "Ġlovely": 4660,
      "Finally": 4661,
      "layer": 4662,
      "Ġforce": 4663,
      "Ġasking": 4664,
      "Ġtwins": 4665,
      "Ġdolls": 4666,
      "Ġdecor": 4667,
      "Ġ90": 4668,
      "Ġdelivery": 4669,
      "ĠCollege": 4670,
      "ednesday": 4671,
      "hand": 4672,
      "uzz": 4673,
      "wr": 4674,
      "arily": 4675,
      "Ġkill": 4676,
      "Ġnose": 4677,
      "Ġolder": 4678,
      "Ġtrouble": 4679,
      "Ġmechan": 4680,
      "ĠTheir": 4681,
      "Ġplants": 4682,
      "Ġscr": 4683,
      "ventory": 4684,
      "ĠâĢ¦": 4685,
      "ondon": 4686,
      "Ġcapital": 4687,
      "Ġmotor": 4688,
      "Ġhl": 4689,
      "Ġund": 4690,
      "Ġphoto": 4691,
      "Ġhonest": 4692,
      "Ġingred": 4693,
      "ĠSee": 4694,
      "Ġrub": 4695,
      "agn": 4696,
      "Ġproced": 4697,
      "Ġapprec": 4698,
      "Ġrespond": 4699,
      "Ġadvice": 4700,
      "Ġsolution": 4701,
      "Ġsites": 4702,
      "ĠDecember": 4703,
      "UT": 4704,
      "Ġlines": 4705,
      "Ġbrain": 4706,
      "Ġavoid": 4707,
      "Ġmemory": 4708,
      "rbx": 4709,
      "ĠTex": 4710,
      "Ġmyster": 4711,
      "Ġfunct": 4712,
      "Ġfully": 4713,
      "house": 4714,
      "Ġbillion": 4715,
      "Ġcute": 4716,
      "Ġlon": 4717,
      "Ġincome": 4718,
      "SSFP": 4719,
      "Ġinvestment": 4720,
      "Ġparticularly": 4721,
      "Ġinnov": 4722,
      "Er": 4723,
      "ls": 4724,
      "ĠSch": 4725,
      "igr": 4726,
      "ĠHall": 4727,
      "vention": 4728,
      "Ġtreasure": 4729,
      "Ġreports": 4730,
      "aff": 4731,
      "Ġstring": 4732,
      "Ġdelight": 4733,
      "42": 4734,
      "base": 4735,
      "igg": 4736,
      "Ġwearing": 4737,
      "Ġorganization": 4738,
      "Che": 4739,
      "di": 4740,
      "ffee": 4741,
      "Ġcharge": 4742,
      "Ġunderstanding": 4743,
      "IF": 4744,
      "itary": 4745,
      "Ġscience": 4746,
      "ords": 4747,
      "Ġprefer": 4748,
      "Ġoccur": 4749,
      "Ġblanket": 4750,
      "91": 4751,
      "DevExt": 4752,
      "kin": 4753,
      "ĠTechn": 4754,
      "Ġaltern": 4755,
      "ĠGreen": 4756,
      "soft": 4757,
      "Ġowners": 4758,
      "Ġsteps": 4759,
      "eat": 4760,
      "nces": 4761,
      "ĠBusiness": 4762,
      "Ġring": 4763,
      "Ġseven": 4764,
      "undred": 4765,
      "Ġmanaged": 4766,
      "lin": 4767,
      "Ġtalked": 4768,
      "Ġwings": 4769,
      "Ġfan": 4770,
      "adow": 4771,
      "emon": 4772,
      "ffff": 4773,
      "Ġrelax": 4774,
      "Inst": 4775,
      "Ġfamous": 4776,
      "ares": 4777,
      "Ġbread": 4778,
      "Ġconcept": 4779,
      "Tramp": 4780,
      "Ġannounced": 4781,
      "Ġaward": 4782,
      "Ġsinging": 4783,
      "tag": 4784,
      "Ġ2020": 4785,
      "Ġcorpor": 4786,
      "Ġloves": 4787,
      "Ġymm": 4788,
      "ĠMor": 4789,
      "Ġ31": 4790,
      "ĠDan": 4791,
      "ĠOR": 4792,
      "ĠProgram": 4793,
      "Ġstatement": 4794,
      "BANK": 4795,
      "Ġrates": 4796,
      "Ġseed": 4797,
      "useum": 4798,
      "ĠAlso": 4799,
      "~~~~": 4800,
      "Ġdefinitely": 4801,
      "Ġjuice": 4802,
      "Ġimmediately": 4803,
      "ĠPhysDevExt": 4804,
      ")),": 4805,
      "43": 4806,
      "eff": 4807,
      "Ġtouc": 4808,
      "ishes": 4809,
      "ston": 4810,
      "rief": 4811,
      "Ġsmaller": 4812,
      "ĠProf": 4813,
      "Ġboo": 4814,
      "Ġcateg": 4815,
      "aching": 4816,
      "ĠMicro": 4817,
      "ternal": 4818,
      "Ġemployees": 4819,
      "ato": 4820,
      "ĠFound": 4821,
      "ĠOther": 4822,
      "pty": 4823,
      "Ġincreasing": 4824,
      "Ġsatisf": 4825,
      "include": 4826,
      "fast": 4827,
      "ference": 4828,
      "ashed": 4829,
      "Ġthreat": 4830,
      "Ġcomments": 4831,
      "Ġcolour": 4832,
      "Ġcalls": 4833,
      "Ġemot": 4834,
      "Ġsurround": 4835,
      "Ġcreating": 4836,
      "58": 4837,
      "uing": 4838,
      "ams": 4839,
      "ĠRob": 4840,
      "ĠFluffy": 4841,
      "Ġfans": 4842,
      "sequ": 4843,
      "andy": 4844,
      "Ġoverall": 4845,
      "ĠBrit": 4846,
      "Ġpurpose": 4847,
      "----------------------------------------------------------------": 4848,
      "Ġfrequ": 4849,
      "ĠMSG": 4850,
      "AB": 4851,
      "Ġcommercial": 4852,
      "Ġhorse": 4853,
      "Ġmaster": 4854,
      "ĠCoun": 4855,
      "Ġrelig": 4856,
      "Ġbusinesses": 4857,
      "Ġteams": 4858,
      "Ġeasier": 4859,
      "Ġappropri": 4860,
      "Well": 4861,
      "bon": 4862,
      "Ġlucky": 4863,
      "Ġrow": 4864,
      "Ġanc": 4865,
      "ĠPaul": 4866,
      "ups": 4867,
      "ĠCheck": 4868,
      "Ġtim": 4869,
      "ĠJapan": 4870,
      "Ġtells": 4871,
      "Ġapplications": 4872,
      "Ġtemper": 4873,
      "ashington": 4874,
      "Ġpal": 4875,
      "Ġstream": 4876,
      "Ġperhaps": 4877,
      "azine": 4878,
      "Ġdeveloped": 4879,
      "flow": 4880,
      "ses": 4881,
      "wide": 4882,
      "Ġlength": 4883,
      "Ġstret": 4884,
      "umber": 4885,
      "ĠUK": 4886,
      "ĠChina": 4887,
      "Ġslight": 4888,
      "amic": 4889,
      "ĠCome": 4890,
      "Ġchick": 4891,
      "Ġdecide": 4892,
      "Ġcertainly": 4893,
      "Ġcompleted": 4894,
      "ĠService": 4895,
      "Ġinflu": 4896,
      "LCL": 4897,
      "UD": 4898,
      "ĠSet": 4899,
      "ĠGood": 4900,
      "Ġadvert": 4901,
      "Ġtruth": 4902,
      "Ġrocks": 4903,
      "Ġprem": 4904,
      "Ġsurface": 4905,
      "Ġdrop": 4906,
      "ĠChristian": 4907,
      "Ġwine": 4908,
      "Ġbiggest": 4909,
      "ously": 4910,
      "ĠTrans": 4911,
      "Ġdemon": 4912,
      "Ġabsol": 4913,
      "last": 4914,
      "ĠMost": 4915,
      "alloc": 4916,
      "ean": 4917,
      "Ġstorm": 4918,
      "ĠMod": 4919,
      "Ġrat": 4920,
      "Ġdriving": 4921,
      "Ġincreased": 4922,
      "Ġdisease": 4923,
      "Bob": 4924,
      "Fr": 4925,
      "Ġrich": 4926,
      "Ġforever": 4927,
      "Ġopportunities": 4928,
      "ML": 4929,
      "Str": 4930,
      "iance": 4931,
      "men": 4932,
      "tle": 4933,
      "Ġnames": 4934,
      "ĠAir": 4935,
      "Ġwhose": 4936,
      "Ġcalling": 4937,
      "Ġadventures": 4938,
      "Ġactivity": 4939,
      "ĠSuper": 4940,
      "Ġvehicle": 4941,
      "Ġlonely": 4942,
      "MOV": 4943,
      "roy": 4944,
      "order": 4945,
      "Ġsetting": 4946,
      "Ġ2007": 4947,
      "ĠInternet": 4948,
      "Ġcash": 4949,
      "emp": 4950,
      "Ġlibr": 4951,
      "Ġkid": 4952,
      "ustain": 4953,
      "Ġprinc": 4954,
      "Ġsoup": 4955,
      "bb": 4956,
      "Ġcas": 4957,
      "Ġpun": 4958,
      "ica": 4959,
      "Ġdirector": 4960,
      "Ġresponsible": 4961,
      "Att": 4962,
      "Ġstation": 4963,
      "Ġflav": 4964,
      "ertain": 4965,
      "Ġguys": 4966,
      "Ġmovement": 4967,
      "inate": 4968,
      "Ġclin": 4969,
      "Ġannual": 4970,
      "Ġhistor": 4971,
      "Ġfixed": 4972,
      "IR": 4973,
      "ped": 4974,
      "ĠTO": 4975,
      "Ġcray": 4976,
      "Ġfamilies": 4977,
      "Ġreduce": 4978,
      "ĠCanada": 4979,
      "Ġswimming": 4980,
      "uits": 4981,
      "Ġtoug": 4982,
      "ĠBill": 4983,
      "ĠRE": 4984,
      "istry": 4985,
      "Ġsupply": 4986,
      "IM": 4987,
      "Ġwww": 4988,
      "Ġlose": 4989,
      "ether": 4990,
      "Ġthanks": 4991,
      "Ġopening": 4992,
      "overn": 4993,
      "Ġfairy": 4994,
      "Ġbottle": 4995,
      "Ġchallenge": 4996,
      "ĠWilliam": 4997,
      "fr": 4998,
      "Ġnest": 4999,
      "Ġweak": 5000,
      "Ġregion": 5001,
      "Ġpromise": 5002,
      "ĠScience": 5003,
      "while": 5004,
      "Ġexcellent": 5005,
      "reamed": 5006,
      "Ġfem": 5007,
      "Ġmir": 5008,
      "Ġrepe": 5009,
      "Ġdesk": 5010,
      "Ġgreater": 5011,
      "Ġplanning": 5012,
      "Ġflex": 5013,
      "Ġeconomic": 5014,
      "stitute": 5015,
      "fn": 5016,
      "gment": 5017,
      "Ġcompared": 5018,
      "âĢ¢âĢ¢": 5019,
      "II": 5020,
      "IX": 5021,
      "Ġcab": 5022,
      "Ġmad": 5023,
      "Ġ55": 5024,
      "ĠIndia": 5025,
      "Ġanalysis": 5026,
      "Ar": 5027,
      "no": 5028,
      "Ðµ": 5029,
      "reak": 5030,
      "Ġthick": 5031,
      "Ġcheese": 5032,
      "Ġstanding": 5033,
      "Ġdouble": 5034,
      "vision": 5035,
      "Ġstress": 5036,
      "Ġalthough": 5037,
      "ĠLondon": 5038,
      "ĠGold": 5039,
      "Ġactive": 5040,
      "Ġjobs": 5041,
      "printf": 5042,
      "het": 5043,
      "ĠPet": 5044,
      "oyal": 5045,
      "Ġshowing": 5046,
      "Ġpointed": 5047,
      "Ġschools": 5048,
      "sych": 5049,
      "Ġdoub": 5050,
      "Ġaren": 5051,
      "ĠJames": 5052,
      "Ġassess": 5053,
      "Ġfiles": 5054,
      "ointed": 5055,
      "Ġtraditional": 5056,
      "jal": 5057,
      "void": 5058,
      "Ġboun": 5059,
      "imed": 5060,
      "Ġhaven": 5061,
      "Ġconv": 5062,
      "Ġleaving": 5063,
      "Ġteach": 5064,
      "Ġ80": 5065,
      "Ġconfirm": 5066,
      "Ġprofession": 5067,
      "Ġbenefit": 5068,
      "ĠGeorge": 5069,
      "41": 5070,
      "Ġwave": 5071,
      "Ġhundred": 5072,
      "Ġguy": 5073,
      "Ġestabl": 5074,
      "Good": 5075,
      "ae": 5076,
      "iers": 5077,
      "asy": 5078,
      "ander": 5079,
      "Ġproduc": 5080,
      "Ġeleph": 5081,
      "ĠFlorida": 5082,
      "67": 5083,
      "mul": 5084,
      "Ġmask": 5085,
      "ĠBel": 5086,
      "ĠBig": 5087,
      "Ġcontain": 5088,
      "Ġcarried": 5089,
      "Ġexpert": 5090,
      "ĠWhite": 5091,
      "Ġbasic": 5092,
      "Ġrequirements": 5093,
      ",[": 5094,
      "Music": 5095,
      "ties": 5096,
      "Ġter": 5097,
      "Ġnap": 5098,
      "ocal": 5099,
      "ellig": 5100,
      "Ġgirls": 5101,
      "ĠChristmas": 5102,
      "Ġindependent": 5103,
      "Ġer": 5104,
      "Ġfinger": 5105,
      "ĠHome": 5106,
      "ĠMag": 5107,
      "Ġpray": 5108,
      "atively": 5109,
      "gn": 5110,
      "oly": 5111,
      "overy": 5112,
      "Ġpill": 5113,
      "start": 5114,
      "roc": 5115,
      "ĠDesign": 5116,
      "Ġquarter": 5117,
      "ĠProd": 5118,
      "Gr": 5119,
      "Ġinform": 5120,
      "Ġrestr": 5121,
      "Ġshook": 5122,
      "Ġvan": 5123,
      "Ġleader": 5124,
      "Ġsale": 5125,
      "Ġwed": 5126,
      "Ġcave": 5127,
      "oms": 5128,
      "Ġbeyond": 5129,
      "Ġadjust": 5130,
      "ĠAny": 5131,
      "Ġmeaning": 5132,
      "ĠEduc": 5133,
      "Ġshapes": 5134,
      "SC": 5135,
      "Ġfence": 5136,
      "aser": 5137,
      "Ġevening": 5138,
      "Ġsurv": 5139,
      "Ġdistance": 5140,
      "ĠXAR": 5141,
      "ronic": 5142,
      "ĠCourt": 5143,
      "Ġstrength": 5144,
      "Ġwise": 5145,
      "ifts": 5146,
      "using": 5147,
      "Ġhandle": 5148,
      "Ġ&&": 5149,
      "Ġ2006": 5150,
      "ĠBlue": 5151,
      "Ġtag": 5152,
      "Ġliter": 5153,
      "Ġjew": 5154,
      "ĠGreat": 5155,
      "Ġclient": 5156,
      "ogether": 5157,
      "Ġrelie": 5158,
      "Ġacqu": 5159,
      "Ġmodels": 5160,
      "Ġvalues": 5161,
      "Ġpromot": 5162,
      "Are": 5163,
      "dec": 5164,
      "orage": 5165,
      "Ġlack": 5166,
      "Ġaspect": 5167,
      "Ġplane": 5168,
      "Ġkite": 5169,
      "elled": 5170,
      "ĠĠĠĠĠĠĠĠĠĠĠĠĠĠĠĠĠĠĠĠĠĠĠčĊ": 5171,
      "Ġ48": 5172,
      "ĠThursday": 5173,
      "ĠSpec": 5174,
      "Ġspring": 5175,
      "BA": 5176,
      "Bl": 5177,
      "Cont": 5178,
      "vis": 5179,
      "unte": 5180,
      "These": 5181,
      "ĠEast": 5182,
      "force": 5183,
      "Ġindividuals": 5184,
      "Ġbreath": 5185,
      "Mia": 5186,
      "à¤": 5187,
      "Ġstood": 5188,
      "Ġmanager": 5189,
      "cre": 5190,
      "ĠSur": 5191,
      "Ġ2019": 5192,
      "Ġfinding": 5193,
      "Ġdogs": 5194,
      "Ġdegree": 5195,
      "92": 5196,
      "Ġtaught": 5197,
      "Ġsang": 5198,
      "ĠEmma": 5199,
      "Ġchocolate": 5200,
      "Ġflag": 5201,
      "Ġproduce": 5202,
      "Ġconsult": 5203,
      "Ġanaly": 5204,
      "fit": 5205,
      "ĠPort": 5206,
      "ĠWashington": 5207,
      "Ġhappens": 5208,
      "Ġoffering": 5209,
      "ences": 5210,
      "Ġserved": 5211,
      "Ġsem": 5212,
      "Ġfaces": 5213,
      "Ġaffect": 5214,
      "ĠFebruary": 5215,
      "Ġadvantage": 5216,
      "fortun": 5217,
      "nic": 5218,
      "Ġpair": 5219,
      "Ġspo": 5220,
      "Ġguide": 5221,
      "otted": 5222,
      "ĠTexas": 5223,
      "mem": 5224,
      "itic": 5225,
      "Ġcmp": 5226,
      "isa": 5227,
      "Ġdbl": 5228,
      "Ġlayer": 5229,
      "illa": 5230,
      "apter": 5231,
      "Ġcrow": 5232,
      "Ġlargest": 5233,
      "Ġwondered": 5234,
      "met": 5235,
      "itors": 5236,
      "Ġcop": 5237,
      "ĠRuss": 5238,
      "ampions": 5239,
      "Ġmovdqa": 5240,
      "Hey": 5241,
      "Ġfighting": 5242,
      "itude": 5243,
      "Ġreasons": 5244,
      "ĠEnd": 5245,
      "ervation": 5246,
      "Ġmonkey": 5247,
      "Ġlaughing": 5248,
      "itiz": 5249,
      "iling": 5250,
      "Ġspin": 5251,
      "ĠJes": 5252,
      "256": 5253,
      "Ġclapped": 5254,
      "Or": 5255,
      "Some": 5256,
      "ystem": 5257,
      "Ġoven": 5258,
      "Ġctxt": 5259,
      "arian": 5260,
      "ĠTwe": 5261,
      "Ġgra": 5262,
      "antic": 5263,
      "ĠFinally": 5264,
      "Ġseeing": 5265,
      "ĠReview": 5266,
      "Ġloan": 5267,
      "Ġcancer": 5268,
      "like": 5269,
      "Ġblow": 5270,
      "iture": 5271,
      "Ġfurn": 5272,
      "ĠToday": 5273,
      "ĠAnt": 5274,
      "ĠMat": 5275,
      "Ġtomorrow": 5276,
      "Ġinstruct": 5277,
      "itty": 5278,
      "ĠGroup": 5279,
      "Ġ64": 5280,
      "Ġcheered": 5281,
      "ĠClick": 5282,
      "Ġsociety": 5283,
      "Ġvillage": 5284,
      "Ġtouched": 5285,
      "ĉĊ": 5286,
      "Ġtend": 5287,
      "ategy": 5288,
      "TAG": 5289,
      "IV": 5290,
      "ker": 5291,
      "oices": 5292,
      "with": 5293,
      "Ġocean": 5294,
      "Ġden": 5295,
      "Ġlabel": 5296,
      "estival": 5297,
      "Ġtraffic": 5298,
      "isters": 5299,
      "amm": 5300,
      "ĠCON": 5301,
      "Ġenh": 5302,
      "Ġcoffee": 5303,
      "Ġsolutions": 5304,
      "ĠDevelop": 5305,
      "SYS": 5306,
      "xb": 5307,
      "Ġcore": 5308,
      "Ġcra": 5309,
      "iven": 5310,
      "Ġsquare": 5311,
      "ĠServices": 5312,
      "pa": 5313,
      "}}": 5314,
      "Ġsaved": 5315,
      "ribe": 5316,
      "ĠDaddy": 5317,
      "Ġshut": 5318,
      "Ġattend": 5319,
      "Ġdiscover": 5320,
      "Ġfootball": 5321,
      "ĠMarket": 5322,
      "Ġbucket": 5323,
      "Ġwash": 5324,
      "Ġjun": 5325,
      "Ġstarts": 5326,
      "Ġdecl": 5327,
      "encies": 5328,
      "ĠApple": 5329,
      "sing": 5330,
      "Ġlab": 5331,
      "ĠTra": 5332,
      "Ġsugar": 5333,
      "Ġmanage": 5334,
      "reek": 5335,
      "Ġbackyard": 5336,
      "Ġ70": 5337,
      "Ġafford": 5338,
      "vant": 5339,
      "ĠÐ": 5340,
      "urrent": 5341,
      "akers": 5342,
      "Ġnoises": 5343,
      "Ġ2018": 5344,
      "ĠĠĠĠĠĠĠĠĠĠĠĠĠĠĠĠĠĠĠĠĠĠĠĠĠĠĠĠĠĠĠĠĠĠĠĠčĊ": 5345,
      "IGH": 5346,
      "Ġexisting": 5347,
      ":[": 5348,
      "More": 5349,
      "imal": 5350,
      "ĠHot": 5351,
      "ago": 5352,
      "known": 5353,
      "lied": 5354,
      "Ġwra": 5355,
      "ils": 5356,
      "Ġgiant": 5357,
      "ĠPress": 5358,
      "Ġopin": 5359,
      "ford": 5360,
      "Ġdied": 5361,
      "ĠIS": 5362,
      "Ġisland": 5363,
      "Ġsear": 5364,
      "ĠOver": 5365,
      "Ġscient": 5366,
      "Ġroof": 5367,
      "Ġteeth": 5368,
      "Ġteaching": 5369,
      "TEXT": 5370,
      "ĠBoard": 5371,
      "SOU": 5372,
      "mpt": 5373,
      "hered": 5374,
      "udd": 5375,
      "Ġedge": 5376,
      "Ġmenu": 5377,
      "ĠSmith": 5378,
      "Fl": 5379,
      "Re": 5380,
      "Where": 5381,
      "Your": 5382,
      "ij": 5383,
      "Ġwoke": 5384,
      "Ġfab": 5385,
      "Ġlit": 5386,
      "iled": 5387,
      "ico": 5388,
      "Ġnaught": 5389,
      "ĠAlex": 5390,
      "ĠPublic": 5391,
      "istics": 5392,
      "Ġpartner": 5393,
      "Ġpopulation": 5394,
      "Ġbirthday": 5395,
      "len": 5396,
      "icip": 5397,
      "Ġgrew": 5398,
      "ĠMany": 5399,
      "Ġlea": 5400,
      "Ġstrateg": 5401,
      "Ġoccas": 5402,
      "Ġoccurs": 5403,
      "Ġassociated": 5404,
      "Ġingredients": 5405,
      "care": 5406,
      "Ġcoo": 5407,
      "Ġpin": 5408,
      "isl": 5409,
      "ening": 5410,
      "Ġwhatever": 5411,
      "ĠPRO": 5412,
      "Ġtruly": 5413,
      "Ġgradu": 5414,
      "Ġexpand": 5415,
      "Ġcompetition": 5416,
      "iest": 5417,
      "actions": 5418,
      "ĠInter": 5419,
      "ĠMiss": 5420,
      "tery": 5421,
      "ĠEach": 5422,
      "ĠGerm": 5423,
      "Ġended": 5424,
      "coming": 5425,
      "Ġposted": 5426,
      "Ġmissed": 5427,
      "Ġstatus": 5428,
      "Ġpackage": 5429,
      "ĠSystem": 5430,
      "Ġdamage": 5431,
      "Ġcounter": 5432,
      "Ġbudget": 5433,
      "Ġbehavior": 5434,
      "81": 5435,
      "UN": 5436,
      "ring": 5437,
      "rey": 5438,
      "ette": 5439,
      "Ġwealth": 5440,
      "rian": 5441,
      "Ġknowing": 5442,
      "ĠDEFB": 5443,
      "ĠOffice": 5444,
      "Ġowl": 5445,
      "500": 5446,
      "ĠCamp": 5447,
      "ĠRet": 5448,
      "osure": 5449,
      "Ġbasis": 5450,
      "Ġsusp": 5451,
      "Ġbee": 5452,
      "Ġshape": 5453,
      "Ġjar": 5454,
      "ĠâĢ¢": 5455,
      "ighter": 5456,
      "Ġcoach": 5457,
      "Ġcandid": 5458,
      "Ġhappening": 5459,
      "ĠPeople": 5460,
      "ĠAustralia": 5461,
      "Read": 5462,
      "jp": 5463,
      "kes": 5464,
      "macro": 5465,
      "ĠBook": 5466,
      "ĠWednesday": 5467,
      "ĠEv": 5468,
      "place": 5469,
      "ogue": 5470,
      "Ġchem": 5471,
      "shine": 5472,
      "ĠĠĠĠĠĠĠĠĠĠĠĠĠĠĠĠĠĠĠĠĠĠĠĠčĊ": 5473,
      "Ġdemonstr": 5474,
      "ipl": 5475,
      "Ġstir": 5476,
      "ĠMart": 5477,
      "Ġweather": 5478,
      "Ġsunny": 5479,
      "Ġgenerally": 5480,
      "Ġreviews": 5481,
      "ĠThomas": 5482,
      "hy": 5483,
      "aming": 5484,
      "Ġrax": 5485,
      "ologies": 5486,
      "ception": 5487,
      "Ġtrend": 5488,
      "Ġhidden": 5489,
      "Ġorganizations": 5490,
      "Lila": 5491,
      "do": 5492,
      "Ġtoward": 5493,
      "Ġgain": 5494,
      "entially": 5495,
      "osing": 5496,
      "Ġpurple": 5497,
      "Ġprotection": 5498,
      "Ġcaused": 5499,
      "ĠMichael": 5500,
      "iders": 5501,
      "ota": 5502,
      "Ġbeat": 5503,
      "ĠHist": 5504,
      "ĠAM": 5505,
      "Ġshipping": 5506,
      "Ġempty": 5507,
      "Ġnaughty": 5508,
      "IL": 5509,
      "ca": 5510,
      "cing": 5511,
      "Ġhus": 5512,
      "Ġnerv": 5513,
      "Ġaccur": 5514,
      "dwtag": 5515,
      "Ġevidence": 5516,
      "ĠResearch": 5517,
      "Check": 5518,
      "Ab": 5519,
      "xy": 5520,
      "Â®": 5521,
      "utely": 5522,
      "ĠIm": 5523,
      "acity": 5524,
      "rial": 5525,
      "Ġspending": 5526,
      "ĠClass": 5527,
      "Ġobvious": 5528,
      "Ġmission": 5529,
      "Ġrainbow": 5530,
      "ĠPre": 5531,
      "Ġagree": 5532,
      "Ġfrustr": 5533,
      "Ġconference": 5534,
      "part": 5535,
      "Ġkick": 5536,
      "osis": 5537,
      "Ġputting": 5538,
      "Ġacadem": 5539,
      "Ġjoined": 5540,
      "Ġcharacters": 5541,
      "ixt": 5542,
      "Ġir": 5543,
      "ĠSum": 5544,
      "Ġbackground": 5545,
      "Ġswings": 5546,
      "Ġunderst": 5547,
      "FFSET": 5548,
      "98": 5549,
      "ĠMid": 5550,
      "alls": 5551,
      "Ġputs": 5552,
      "Ġworkers": 5553,
      "Ġdesp": 5554,
      "Ġactual": 5555,
      "Ġguarant": 5556,
      "Ġrolled": 5557,
      "Ġrestaurant": 5558,
      "gency": 5559,
      "Ġrough": 5560,
      "Ġwhist": 5561,
      "Ġmedicine": 5562,
      "Ġconnection": 5563,
      "Ġeconomy": 5564,
      "Ad": 5565,
      "ĠPri": 5566,
      "Ġbecomes": 5567,
      "Ġkeeping": 5568,
      "Ġbeauty": 5569,
      "Ġselection": 5570,
      "ĠDemocr": 5571,
      "TS": 5572,
      "ĠFrench": 5573,
      "lla": 5574,
      "ĠAngel": 5575,
      "Ġtransfer": 5576,
      "Ġwheel": 5577,
      "ĠGeneral": 5578,
      "Ġincredible": 5579,
      "UC": 5580,
      "Ġtank": 5581,
      "aling": 5582,
      "enses": 5583,
      "ĠTrue": 5584,
      "Pl": 5585,
      "ader": 5586,
      "ĠRich": 5587,
      "ĠYes": 5588,
      "ovel": 5589,
      "Ġcozy": 5590,
      "Ġdiscovered": 5591,
      "da": 5592,
      "dqu": 5593,
      "Ġbc": 5594,
      "Ġcraw": 5595,
      "Ġcards": 5596,
      "Ġmm": 5597,
      "Ġlegs": 5598,
      "Ġlock": 5599,
      "ĠSometimes": 5600,
      "Ġtea": 5601,
      "STOR": 5602,
      "Ġbedroom": 5603,
      "ĠStoreI": 5604,
      "Ġfaith": 5605,
      "Ġappropriate": 5606,
      "SYSCALL": 5607,
      "noon": 5608,
      "ĠBest": 5609,
      "uman": 5610,
      "Ġshell": 5611,
      "osition": 5612,
      "Ġefforts": 5613,
      "Ġfavour": 5614,
      "Ġhighest": 5615,
      "ĠEngine": 5616,
      "Ġseparate": 5617,
      "AA": 5618,
      "Ġpuzz": 5619,
      "terday": 5620,
      "ums": 5621,
      "ĠRoad": 5622,
      "ĠUse": 5623,
      "ĠIsland": 5624,
      "Ġlimit": 5625,
      "Ġdetermine": 5626,
      "SOUND": 5627,
      "Ġxml": 5628,
      "esome": 5629,
      "ĠSupp": 5630,
      "cend": 5631,
      "Ġconstruction": 5632,
      "Ġenem": 5633,
      "Ġswam": 5634,
      "Ġwindows": 5635,
      "Ġcentral": 5636,
      "Ġcircuit": 5637,
      "YTE": 5638,
      "ii": 5639,
      "amb": 5640,
      "Ġshopping": 5641,
      "Ġdetermined": 5642,
      "Phone": 5643,
      "ĠWindows": 5644,
      "Come": 5645,
      "ari": 5646,
      "leg": 5647,
      "ĠSpr": 5648,
      "Ġult": 5649,
      "ushing": 5650,
      "return": 5651,
      "Ġlarger": 5652,
      "ĠLeague": 5653,
      "reedom": 5654,
      "Ġsandw": 5655,
      "Go": 5656,
      "Ġru": 5657,
      "Ġcompon": 5658,
      "ĠInside": 5659,
      "Ġgrant": 5660,
      "Ġhugs": 5661,
      "ĠPhil": 5662,
      "porary": 5663,
      "Ġcommit": 5664,
      "iverse": 5665,
      "ĠManagement": 5666,
      "ĠEuropean": 5667,
      "Ġbathroom": 5668,
      "ĠObama": 5669,
      "ĠTy": 5670,
      "Ġforms": 5671,
      "ression": 5672,
      "Ġanywhere": 5673,
      "igned": 5674,
      "Ġmissing": 5675,
      "Ġinjury": 5676,
      "FL": 5677,
      "ĠOnce": 5678,
      "ĠPal": 5679,
      "Ġplus": 5680,
      "ittens": 5681,
      "Ġwhenever": 5682,
      "Ġremove": 5683,
      "Ġserver": 5684,
      "bling": 5685,
      "Ġwalls": 5686,
      "Ġtough": 5687,
      "zen": 5688,
      "Ġnic": 5689,
      "Ġstone": 5690,
      "ĠMac": 5691,
      "ĠLook": 5692,
      "Ġstrugg": 5693,
      "Ġrequires": 5694,
      "ifying": 5695,
      "Ġcalc": 5696,
      "friend": 5697,
      "erg": 5698,
      "Ġhoney": 5699,
      "imp": 5700,
      "384": 5701,
      "Ġclaims": 5702,
      "Ġmountain": 5703,
      "opp": 5704,
      "Ġbell": 5705,
      "Ġmur": 5706,
      "sey": 5707,
      "ĠInformation": 5708,
      "ĠStar": 5709,
      "Ġ2005": 5710,
      "Ġsigns": 5711,
      "Ġstandards": 5712,
      "works": 5713,
      "Ġchallenges": 5714,
      "Ġelephant": 5715,
      "under": 5716,
      "Ġfant": 5717,
      "Ġbyte": 5718,
      "Ġproduced": 5719,
      "Ġauth": 5720,
      "82": 5721,
      "Ġcivil": 5722,
      "ĠTH": 5723,
      "ĠSince": 5724,
      "Ġconstant": 5725,
      "ption": 5726,
      "Ġindic": 5727,
      "cohol": 5728,
      "float": 5729,
      "Ġmentioned": 5730,
      "62": 5731,
      "Ġfashion": 5732,
      "uty": 5733,
      "ĠIr": 5734,
      "assed": 5735,
      "cla": 5736,
      "Ġunit": 5737,
      "Ġadding": 5738,
      "standing": 5739,
      "Ġaudience": 5740,
      "ĠCouncil": 5741,
      "Ġterri": 5742,
      "Last": 5743,
      "ĠTime": 5744,
      "Ġgraph": 5745,
      "irgin": 5746,
      "ĠCong": 5747,
      "riage": 5748,
      "Ġexhib": 5749,
      "ĠUSA": 5750,
      "Ġtalent": 5751,
      "Ġsunshine": 5752,
      "Ġjournal": 5753,
      "Ġagreement": 5754,
      ";*": 5755,
      "CTION": 5756,
      "hem": 5757,
      "atically": 5758,
      "Ġpic": 5759,
      "vere": 5760,
      "ĠRober": 5761,
      "que": 5762,
      "ĠOpen": 5763,
      "Ġstudies": 5764,
      "Ġelectric": 5765,
      "EE": 5766,
      "Ġtherap": 5767,
      "ournal": 5768,
      "Ġdish": 5769,
      "ildren": 5770,
      "Ġswitch": 5771,
      "Ġdrawing": 5772,
      "DS": 5773,
      "Ġmud": 5774,
      "ĠPC": 5775,
      "hens": 5776,
      "Ġiniti": 5777,
      "ĠCorpor": 5778,
      "Ġpleased": 5779,
      "Ġsenior": 5780,
      "71": 5781,
      "pet": 5782,
      "inking": 5783,
      "Ġtor": 5784,
      "ola": 5785,
      "ĠMake": 5786,
      "ĠForm": 5787,
      "ĠGovern": 5788,
      "Ġchest": 5789,
      "Ġsymbol": 5790,
      "Ġexercise": 5791,
      "icing": 5792,
      "anta": 5793,
      "Ġplate": 5794,
      "ĠClub": 5795,
      "ĠPlay": 5796,
      "Ġholiday": 5797,
      "aked": 5798,
      "Ġbush": 5799,
      "Ġpsych": 5800,
      "Ġlabor": 5801,
      "ĠNY": 5802,
      "ource": 5803,
      "Ġwinter": 5804,
      "Ġcompetitive": 5805,
      "ĠGrandma": 5806,
      "Ġdescribed": 5807,
      "itz": 5808,
      "Ġrise": 5809,
      "Ġcontains": 5810,
      "Ġafternoon": 5811,
      "Ġtelling": 5812,
      "ĠEducation": 5813,
      "PE": 5814,
      "han": 5815,
      "temp": 5816,
      "ĠMal": 5817,
      "rip": 5818,
      "ella": 5819,
      "Ġremains": 5820,
      "STEM": 5821,
      "En": 5822,
      "RA": 5823,
      "Ġlemon": 5824,
      "ĠCall": 5825,
      "Ġregister": 5826,
      "Ġextremely": 5827,
      "Ġhusband": 5828,
      "itect": 5829,
      "ena": 5830,
      "Ġknee": 5831,
      "ĠYear": 5832,
      "Ġotherwise": 5833,
      "Ġsmiling": 5834,
      "Ġchec": 5835,
      "Ġtasty": 5836,
      "Ġlinks": 5837,
      "ĠMicrosoft": 5838,
      "Ġrelieved": 5839,
      "ĠAtt": 5840,
      "Ġ$(": 5841,
      "ĠNe": 5842,
      "issions": 5843,
      "ĠEngland": 5844,
      "Ġraise": 5845,
      "Ġapart": 5846,
      "See": 5847,
      "Ġtask": 5848,
      "Ġsne": 5849,
      "Ġbrief": 5850,
      "urb": 5851,
      "olic": 5852,
      "Ġchain": 5853,
      "Ġappears": 5854,
      "Ġcontinues": 5855,
      "const": 5856,
      "Ġmilitary": 5857,
      "pdate": 5858,
      "Ġregarding": 5859,
      "Ġpaddw": 5860,
      "Ġthousands": 5861,
      "wo": 5862,
      "Ġsrc": 5863,
      "Ġwire": 5864,
      "asp": 5865,
      "ache": 5866,
      "ĠCare": 5867,
      "Ġplenty": 5868,
      "ĠUp": 5869,
      "Ġorganized": 5870,
      "Ġsolid": 5871,
      "lies": 5872,
      "top": 5873,
      "eck": 5874,
      "Ġspoon": 5875,
      "Ġwilling": 5876,
      "Ġmeal": 5877,
      "Ġcontext": 5878,
      "Ġflat": 5879,
      "Ġoperations": 5880,
      "ĠJimmy": 5881,
      "Ġestablished": 5882,
      "@_": 5883,
      "host": 5884,
      "Ġmer": 5885,
      "Ġreb": 5886,
      "ĠMill": 5887,
      "ĠRom": 5888,
      "Ġsports": 5889,
      "iano": 5890,
      "rbp": 5891,
      "??_": 5892,
      "94": 5893,
      "fa": 5894,
      "yer": 5895,
      "orney": 5896,
      "ĠSun": 5897,
      "uries": 5898,
      "istered": 5899,
      "Ġplays": 5900,
      "Ġbecoming": 5901,
      "ĠChurch": 5902,
      "adder": 5903,
      "Ġkinds": 5904,
      "Ġdirection": 5905,
      "ĠJesus": 5906,
      "ĠBecause": 5907,
      "Ġintellig": 5908,
      "icted": 5909,
      "Ġboys": 5910,
      "Ġpayment": 5911,
      ".||": 5912,
      "STR": 5913,
      "look": 5914,
      "Ġborn": 5915,
      "Ġfc": 5916,
      "ĠOh": 5917,
      "Ġloop": 5918,
      "Ġguard": 5919,
      "movzbl": 5920,
      "normal": 5921,
      "Ġpm": 5922,
      "Ġdanced": 5923,
      "Ġgently": 5924,
      "uled": 5925,
      "ĠDef": 5926,
      "Ġbrings": 5927,
      "Ġflour": 5928,
      "Who": 5929,
      "Ġselected": 5930,
      "97": 5931,
      "Later": 5932,
      "list": 5933,
      "ĠImp": 5934,
      "Ġfort": 5935,
      "ĠAv": 5936,
      "Ġtherefore": 5937,
      "Ġclearly": 5938,
      "SYSTEM": 5939,
      "ĠParis": 5940,
      "Ġprimary": 5941,
      "Ġarrang": 5942,
      "LC": 5943,
      "LIC": 5944,
      "swe": 5945,
      "Ġtap": 5946,
      "Ġeager": 5947,
      "ads": 5948,
      "Ġjmp": 5949,
      "Ġscale": 5950,
      "Ġstrategy": 5951,
      "Ġearn": 5952,
      "Ġdiagn": 5953,
      "arry": 5954,
      "Ġgather": 5955,
      "ĠLife": 5956,
      "exp": 5957,
      "ĠSoon": 5958,
      "Ġrefer": 5959,
      "Ġenvironmental": 5960,
      "fortunately": 5961,
      "SOUNDSYSTEM": 5962,
      "Free": 5963,
      "bor": 5964,
      "Ġhomes": 5965,
      "ĠMet": 5966,
      "Ġbutt": 5967,
      "odes": 5968,
      "Ġfeather": 5969,
      "Ġunc": 5970,
      "Ġflo": 5971,
      "Ġfrag": 5972,
      "Ġraised": 5973,
      "Ġexperienced": 5974,
      "Ġcere": 5975,
      "abet": 5976,
      "ĠUnder": 5977,
      "ĠVol": 5978,
      "Ġcheap": 5979,
      "Ġentry": 5980,
      "Ġancient": 5981,
      "Ġwedding": 5982,
      "uable": 5983,
      "itness": 5984,
      "Ġce": 5985,
      "ĠTre": 5986,
      "ĠWater": 5987,
      "ĠRiver": 5988,
      "berry": 5989,
      "Ġrecords": 5990,
      "ĠCarol": 5991,
      "LOAD": 5992,
      "Ġessential": 5993,
      "Ġunderstood": 5994,
      "Dec": 5995,
      "door": 5996,
      "Ġhello": 5997,
      "berg": 5998,
      "opyright": 5999,
      "DD": 6000,
      "Ġ\\": 6001,
      "Ġbp": 6002,
      "Ġbattle": 6003,
      "Ġhero": 6004,
      "Ġalb": 6005,
      "ĠOK": 6006,
      "Ġ%%": 6007,
      "Ġapples": 6008,
      "Ġlaunch": 6009,
      "tered": 6010,
      "spect": 6011,
      "Ġdeveloping": 6012,
      "appy": 6013,
      "ĠCommission": 6014,
      "Ġdestroy": 6015,
      "ds": 6016,
      "omb": 6017,
      "Ġimpl": 6018,
      "byte": 6019,
      "Ġadvance": 6020,
      "////////": 6021,
      "((": 6022,
      "61": 6023,
      "you": 6024,
      "ading": 6025,
      "Ġwaste": 6026,
      "ĠMama": 6027,
      "Ġnumer": 6028,
      "Ġmetal": 6029,
      "Ġpainting": 6030,
      "Ġselling": 6031,
      "Ġsearched": 6032,
      "run": 6033,
      "Ġthus": 6034,
      "uts": 6035,
      "ĠCam": 6036,
      "Ġshift": 6037,
      "Ġkilled": 6038,
      "ĠElect": 6039,
      "Ġreality": 6040,
      "Ġcooking": 6041,
      "Ġembarr": 6042,
      "Ġaccidentally": 6043,
      "Pr": 6044,
      "gly": 6045,
      "move": 6046,
      "point": 6047,
      "Ġterr": 6048,
      "inn": 6049,
      "Ġboss": 6050,
      "olar": 6051,
      "ĠCap": 6052,
      "ĠMem": 6053,
      "aine": 6054,
      "Ġbrows": 6055,
      "Ġsigned": 6056,
      "Ġpurs": 6057,
      "ĠColor": 6058,
      "control": 6059,
      "SIZ": 6060,
      "ĠLake": 6061,
      "ĠWhere": 6062,
      "rael": 6063,
      "Ġlights": 6064,
      "ĠLeg": 6065,
      "Ġcouch": 6066,
      "Ġteachers": 6067,
      "Ġmajority": 6068,
      "Ġelements": 6069,
      "Ġvolunte": 6070,
      "Post": 6071,
      "RAM": 6072,
      "life": 6073,
      "Ġbone": 6074,
      "Ġforth": 6075,
      "Ġunus": 6076,
      "ĠĠĠĠĠčĊ": 6077,
      "Ġincor": 6078,
      "Ġretail": 6079,
      "Ġminute": 6080,
      "Ġestim": 6081,
      "Ġslightly": 6082,
      ",__": 6083,
      "gen": 6084,
      "Ġâ": 6085,
      "ĠRel": 6086,
      "Ġcoin": 6087,
      "Ġsecure": 6088,
      "Ġartist": 6089,
      "Ġsalt": 6090,
      "Ġeggs": 6091,
      "Ġcabin": 6092,
      "OM": 6093,
      "PRO": 6094,
      "Ġrid": 6095,
      "Ġshirt": 6096,
      "Ġsuc": 6097,
      "?$": 6098,
      "UM": 6099,
      "ini": 6100,
      "orter": 6101,
      "Ġsty": 6102,
      "Ġstorage": 6103,
      "ula": 6104,
      "ivered": 6105,
      "Ġmeat": 6106,
      "ĠOl": 6107,
      "Ġdefense": 6108,
      "Ġestate": 6109,
      "Ġofficials": 6110,
      "EST": 6111,
      "fe": 6112,
      "uke": 6113,
      "well": 6114,
      "orial": 6115,
      "ĠSal": 6116,
      "Ġcontroll": 6117,
      "Ġcritical": 6118,
      "Ġwinning": 6119,
      "record": 6120,
      "div": 6121,
      "eah": 6122,
      "Ġtie": 6123,
      "Ġmoon": 6124,
      "Ġscar": 6125,
      "Ġmode": 6126,
      "Ġconfused": 6127,
      "Ġcalm": 6128,
      "but": 6129,
      "ĠSl": 6130,
      "amily": 6131,
      "Ġwhom": 6132,
      "Ġspotted": 6133,
      "Ġbridge": 6134,
      "Ġtwice": 6135,
      "__(": 6136,
      "Ġzoo": 6137,
      "Ġanti": 6138,
      "Ġinitial": 6139,
      "Ġclouds": 6140,
      "Ġrobot": 6141,
      "Ġhouses": 6142,
      "izza": 6143,
      "draw": 6144,
      "rit": 6145,
      "ĠMike": 6146,
      "Ġash": 6147,
      "Ġsurvey": 6148,
      "Ġcommunities": 6149,
      "Ġsubsc": 6150,
      "TER": 6151,
      "ruct": 6152,
      "Ġsession": 6153,
      "Ġhiding": 6154,
      "Ġrap": 6155,
      "Ġspoke": 6156,
      "Ġ02": 6157,
      "Ġfunds": 6158,
      "MMWORD": 6159,
      "Ġexperiences": 6160,
      "Ġì": 6161,
      "Ġtiss": 6162,
      "ilot": 6163,
      "osh": 6164,
      "Ġuns": 6165,
      "Ġposts": 6166,
      "Ġbreakfast": 6167,
      "Ġmixed": 6168,
      "which": 6169,
      "Col": 6170,
      "hus": 6171,
      "Ġcitiz": 6172,
      "ĠTop": 6173,
      "Ġrule": 6174,
      "ĠJew": 6175,
      "Ġdistr": 6176,
      "Ġformat": 6177,
      "aulty": 6178,
      "Ġutil": 6179,
      "mail": 6180,
      "nect": 6181,
      "Ġrot": 6182,
      "Ġanx": 6183,
      "Ġsympt": 6184,
      "Reg": 6185,
      "Ġsouth": 6186,
      "oul": 6187,
      "lder": 6188,
      "ĠIts": 6189,
      "Ġlisted": 6190,
      "Ġcentury": 6191,
      "Ġholds": 6192,
      "Ġpresented": 6193,
      "Ġsnowman": 6194,
      "iliar": 6195,
      "ĠFoundation": 6196,
      "Ġlibrary": 6197,
      "End": 6198,
      "hab": 6199,
      "áĢ": 6200,
      "Ġfuel": 6201,
      "ĠBay": 6202,
      "Ġpassion": 6203,
      "Ġtesting": 6204,
      "Ġdisappointed": 6205,
      "Ġcollabor": 6206,
      "Ġabsolutely": 6207,
      "Ġdespite": 6208,
      "Doc": 6209,
      "hether": 6210,
      "Ġapparent": 6211,
      "tract": 6212,
      "ĠTwitter": 6213,
      "ĠCompany": 6214,
      "inct": 6215,
      "ĠCA": 6216,
      "ĠLittle": 6217,
      "Ġconven": 6218,
      "uddle": 6219,
      "Ġgrown": 6220,
      "Ġcoat": 6221,
      "ĠWho": 6222,
      "Ġviews": 6223,
      "Ġinternet": 6224,
      "PI": 6225,
      "fo": 6226,
      "function": 6227,
      "Ġsack": 6228,
      "Ġthread": 6229,
      "Ġrevenue": 6230,
      "Ġideal": 6231,
      "ĠAlthough": 6232,
      "Ġtasted": 6233,
      ";;;;;;;;;;;;;;;;": 6234,
      "Ġchicken": 6235,
      "map": 6236,
      "inating": 6237,
      "Ġtourn": 6238,
      "Ġhall": 6239,
      "verse": 6240,
      "ĠMrs": 6241,
      "ipes": 6242,
      "7777": 6243,
      "iques": 6244,
      "Ġcombination": 6245,
      "Ġprepared": 6246,
      "ĠProduct": 6247,
      "Lucy": 6248,
      "OL": 6249,
      "dl": 6250,
      "lor": 6251,
      "Ġcow": 6252,
      "Ġcraft": 6253,
      "Ġdirt": 6254,
      "ĠBet": 6255,
      "Ġasleep": 6256,
      "Ġvirt": 6257,
      "Ġadop": 6258,
      "Ġzoom": 6259,
      "Ġconnected": 6260,
      "11111111": 6261,
      "Ġerror": 6262,
      "Ġcorn": 6263,
      "Ġpump": 6264,
      "ĠLou": 6265,
      "Ġjog": 6266,
      "].": 6267,
      "cr": 6268,
      "nz": 6269,
      "pack": 6270,
      "itar": 6271,
      "icon": 6272,
      "lee": 6273,
      "ĠHy": 6274,
      "Ġshy": 6275,
      "Ġprotected": 6276,
      "Ġpractices": 6277,
      "Ġfields": 6278,
      "ĠIsrael": 6279,
      "ĠDirector": 6280,
      "ĠDevelopment": 6281,
      "ien": 6282,
      "Ġdiet": 6283,
      "ĠĠĠĠĠĠĠĠĠĠĠĠĠĠ": 6284,
      "Ġspect": 6285,
      "Ġ41": 6286,
      "Ġfee": 6287,
      "ĠInstitute": 6288,
      "Ġends": 6289,
      "Ġthoughts": 6290,
      "Ġpresentation": 6291,
      "CF": 6292,
      "cx": 6293,
      "Ġmedi": 6294,
      "igation": 6295,
      "ĠJournal": 6296,
      "Ġreliable": 6297,
      "Ġclever": 6298,
      "Ġsupposed": 6299,
      "Ġrooms": 6300,
      "Ġcapacity": 6301,
      "ĠFranc": 6302,
      "ĠPlan": 6303,
      "Ġfunding": 6304,
      "ĠJenny": 6305,
      "Ġleadership": 6306,
      "Ġsustain": 6307,
      "rier": 6308,
      "Ġshining": 6309,
      "ĠFood": 6310,
      "Ġexclus": 6311,
      "Ġvs": 6312,
      "Ġprocessing": 6313,
      "Ġapprox": 6314,
      "Ġbuying": 6315,
      "Ġsexual": 6316,
      "Ġlicense": 6317,
      "Ġgarage": 6318,
      "ĠPerson": 6319,
      "ores": 6320,
      "ĠWestern": 6321,
      "ĠWomen": 6322,
      "ĠJul": 6323,
      "ocking": 6324,
      "Ġcommand": 6325,
      "Ġpurpos": 6326,
      "Ġcookie": 6327,
      "Ġmanufacture": 6328,
      "Ġdistrict": 6329,
      "Me": 6330,
      "rical": 6331,
      "Ð°": 6332,
      "Ġscene": 6333,
      "Ġcoord": 6334,
      "Ġtechnical": 6335,
      "Ġmarried": 6336,
      "Ġtaxes": 6337,
      "Ġsmelled": 6338,
      "Ġdedicated": 6339,
      "Ġcrayons": 6340,
      "Ġauthors": 6341,
      "'}": 6342,
      "BS": 6343,
      "Ġmo": 6344,
      "Ġhom": 6345,
      "Ġeth": 6346,
      "ĠLike": 6347,
      "ems": 6348,
      "Ġvote": 6349,
      "arks": 6350,
      "ountain": 6351,
      "azon": 6352,
      "Ġtransport": 6353,
      "ĠiPhone": 6354,
      "ĠAmericans": 6355,
      "Ġdiscussion": 6356,
      "Ġmethods": 6357,
      "ĠHarry": 6358,
      "ĠSocial": 6359,
      "ĠBritish": 6360,
      "swered": 6361,
      "App": 6362,
      "Any": 6363,
      "WT": 6364,
      "ona": 6365,
      "Ġpile": 6366,
      "Ġparking": 6367,
      "ĠSammy": 6368,
      "SECTION": 6369,
      "Ġfactors": 6370,
      "Ġproperly": 6371,
      "global": 6372,
      "ĠSociety": 6373,
      "Ġnervous": 6374,
      "aded": 6375,
      "ĠMil": 6376,
      "ĠDown": 6377,
      "active": 6378,
      "Ġactions": 6379,
      "Ġmostly": 6380,
      "aze": 6381,
      "Ġsimulated": 6382,
      "Ġvision": 6383,
      "inese": 6384,
      "Ġcommunication": 6385,
      "Ġcoverage": 6386,
      "Ġvegetables": 6387,
      "ĠProfess": 6388,
      "Ġunusual": 6389,
      "CMD": 6390,
      "cious": 6391,
      "Ġtries": 6392,
      "Ġfol": 6393,
      "roid": 6394,
      "oles": 6395,
      "Ġalcohol": 6396,
      "ĠWall": 6397,
      "Ġnotes": 6398,
      "Ġsequ": 6399,
      "Ġparties": 6400,
      "Ġexplain": 6401,
      "Ġvideos": 6402,
      "Ġspray": 6403,
      "ĠTwo": 6404,
      "Ġschedule": 6405,
      "Call": 6406,
      "ĠSus": 6407,
      "Ġcloth": 6408,
      "Ġscen": 6409,
      "âĢĿ,": 6410,
      "Ġcheer": 6411,
      "Ġleads": 6412,
      "Ġboxes": 6413,
      "Ġsnack": 6414,
      "Ġblew": 6415,
      "Acc": 6416,
      "oured": 6417,
      "ĠSing": 6418,
      "ĠHol": 6419,
      "ĠWay": 6420,
      "outhern": 6421,
      "Ġflash": 6422,
      "Ġpoly": 6423,
      "block": 6424,
      "Ġvaluable": 6425,
      "However": 6426,
      "Ġaccompl": 6427,
      "Ġprofessionals": 6428,
      "::": 6429,
      "Hel": 6430,
      "tp": 6431,
      "ĠTour": 6432,
      "Ġhearing": 6433,
      "ĠDet": 6434,
      "ĠFore": 6435,
      "Ġcris": 6436,
      "Ġguid": 6437,
      "ĠReal": 6438,
      "Ġclosely": 6439,
      "Ġreference": 6440,
      "Ġcleaning": 6441,
      "Ġclasses": 6442,
      "errors": 6443,
      "Ġoperation": 6444,
      "Ġ>,": 6445,
      "EX": 6446,
      "IB": 6447,
      "enance": 6448,
      "acement": 6449,
      "lying": 6450,
      "ĠBank": 6451,
      "ĠLibr": 6452,
      "Ġchannel": 6453,
      "Ġagency": 6454,
      "Ġbrill": 6455,
      "Ġprev": 6456,
      "Ġpolic": 6457,
      "Ġbugs": 6458,
      "ĠCommunity": 6459,
      "GB": 6460,
      "atab": 6461,
      "Ġgate": 6462,
      "ighed": 6463,
      "Ġproceed": 6464,
      "that": 6465,
      "Ġfacilities": 6466,
      "Ind": 6467,
      "main": 6468,
      "Ġnorm": 6469,
      "Ġending": 6470,
      "lets": 6471,
      "ĠCharl": 6472,
      "ĠAfrica": 6473,
      "Sound": 6474,
      "Ġwand": 6475,
      "Ġdim": 6476,
      "ĠSk": 6477,
      "Ġanswered": 6478,
      "agged": 6479,
      "Ġ2000": 6480,
      "andom": 6481,
      "Ġgray": 6482,
      "Ġrepair": 6483,
      "Ġguests": 6484,
      "Ġdepartment": 6485,
      "Ġlegisl": 6486,
      "Ġdrugs": 6487,
      "93": 6488,
      "SL": 6489,
      "ora": 6490,
      "Ġinput": 6491,
      "rie": 6492,
      "oving": 6493,
      "ĠFred": 6494,
      "ĠKore": 6495,
      "Ġoperating": 6496,
      "Ġyesterday": 6497,
      "Ġprocedure": 6498,
      "Ġmysterious": 6499,
      "Am": 6500,
      "GE": 6501,
      "buf": 6502,
      "how": 6503,
      "athered": 6504,
      "Ġfishing": 6505,
      "Ġpacked": 6506,
      "oma": 6507,
      "ĠII": 6508,
      "Ġsauce": 6509,
      "una": 6510,
      "ĠDiv": 6511,
      "ĠFire": 6512,
      "Ġupgr": 6513,
      "ĠTimes": 6514,
      "ĠKim": 6515,
      "Ġmovq": 6516,
      "Ġoptim": 6517,
      "++;": 6518,
      "ĉĉĉĉĉ": 6519,
      "going": 6520,
      "Ġshooting": 6521,
      "iency": 6522,
      "Ġfancy": 6523,
      "icago": 6524,
      "Ġsav": 6525,
      "Ġweird": 6526,
      "Ġvalid": 6527,
      "Ġspeech": 6528,
      "Ġcutting": 6529,
      "istrict": 6530,
      "Ġsources": 6531,
      "Ġaudio": 6532,
      "BI": 6533,
      "ius": 6534,
      "site": 6535,
      "itics": 6536,
      "ĠBur": 6537,
      "umes": 6538,
      "resp": 6539,
      "Ġoutput": 6540,
      "erences": 6541,
      "Ġcrack": 6542,
      "Ġeditor": 6543,
      "Ġgeneration": 6544,
      "Ġfourth": 6545,
      "Ġaccepted": 6546,
      "Ġperspect": 6547,
      "ampionship": 6548,
      "MENT": 6549,
      "semb": 6550,
      "keep": 6551,
      "Ġwhis": 6552,
      "ĠLord": 6553,
      "abilities": 6554,
      "ĠStart": 6555,
      "Ġlaun": 6556,
      "ancer": 6557,
      "Ġtransl": 6558,
      "Ġconfig": 6559,
      "Ġseconds": 6560,
      "Ġfailed": 6561,
      "Ġtickets": 6562,
      "Ġmistake": 6563,
      ")|": 6564,
      "atoes": 6565,
      "isher": 6566,
      "ĠMus": 6567,
      "rive": 6568,
      "Ġdoors": 6569,
      "Ġvent": 6570,
      "ĠThanks": 6571,
      "ĠIns": 6572,
      "Ġcolumn": 6573,
      "Ġflu": 6574,
      "upid": 6575,
      "Ġlistening": 6576,
      "Ġrocket": 6577,
      "Ġassistance": 6578,
      "Ġevaluation": 6579,
      "ĠCongress": 6580,
      "bits": 6581,
      "si": 6582,
      "Ġugly": 6583,
      "ĠMo": 6584,
      "Ġplastic": 6585,
      "Ġ03": 6586,
      "Ġfollows": 6587,
      "Ġminimum": 6588,
      "Ġarticles": 6589,
      "HA": 6590,
      "Ġweap": 6591,
      "ĠJon": 6592,
      "Ġamb": 6593,
      "Ġjumping": 6594,
      "ĠTrump": 6595,
      "Ġrelationships": 6596,
      "Ġmaintain": 6597,
      "Ġpurposes": 6598,
      "*)": 6599,
      "NY": 6600,
      "inks": 6601,
      "Ġodd": 6602,
      "ĠWr": 6603,
      "Ġveter": 6604,
      "ĠGen": 6605,
      "Ġexcit": 6606,
      "Ġballs": 6607,
      "array": 6608,
      "Ġforgive": 6609,
      "ĠMedia": 6610,
      "Ġcrazy": 6611,
      "CR": 6612,
      "rehens": 6613,
      "eless": 6614,
      "Ġsport": 6615,
      "Ġspicy": 6616,
      "Ġworse": 6617,
      "Ġrope": 6618,
      "gery": 6619,
      "Ġsearching": 6620,
      "Ġintroduced": 6621,
      "Ġsucceed": 6622,
      "Ptr": 6623,
      "Sub": 6624,
      "aa": 6625,
      "Ġtro": 6626,
      "Ġtips": 6627,
      "Ġtears": 6628,
      "ĠSP": 6629,
      "ĠHave": 6630,
      "Ġchanging": 6631,
      "CODE": 6632,
      "THIS": 6633,
      "cp": 6634,
      "Ġcities": 6635,
      "odies": 6636,
      "Ġintended": 6637,
      "assign": 6638,
      "Ġawesome": 6639,
      "Ġindex": 6640,
      "ĠUnion": 6641,
      "Ġimproved": 6642,
      "Ġsuggested": 6643,
      "Ġfeedback": 6644,
      "Ġpartnership": 6645,
      "Ġmirror": 6646,
      "Ġfavourite": 6647,
      "Ent": 6648,
      "dr": 6649,
      "tmp": 6650,
      "what": 6651,
      "yan": 6652,
      "Ġfreedom": 6653,
      "asks": 6654,
      "Ġnor": 6655,
      "ĠPower": 6656,
      "oses": 6657,
      "Ġresidents": 6658,
      "Ġunless": 6659,
      "athy": 6660,
      "ikes": 6661,
      "Ġtypically": 6662,
      "Ġnegative": 6663,
      "Ġshelf": 6664,
      "IO": 6665,
      "Ġborrow": 6666,
      "Ġnovel": 6667,
      "ĠWork": 6668,
      "Ġ500": 6669,
      "Ġdecisions": 6670,
      "Ġadvanced": 6671,
      "Ġperformed": 6672,
      "proc": 6673,
      "Ġmulti": 6674,
      "Ġpanel": 6675,
      "Ġmeasures": 6676,
      "Ġefficient": 6677,
      "Ġjewel": 6678,
      "ĠRobert": 6679,
      "awn": 6680,
      "isode": 6681,
      "orable": 6682,
      "omin": 6683,
      "ĠTur": 6684,
      "ĠMex": 6685,
      "ĠBra": 6686,
      "Ġrug": 6687,
      "ĠLo": 6688,
      "ĠLove": 6689,
      "ĠFollow": 6690,
      "ucing": 6691,
      "ictions": 6692,
      "ERA": 6693,
      "Ġstronger": 6694,
      "Ġclassic": 6695,
      "Ġproperties": 6696,
      "Ġfurniture": 6697,
      "Ġacademic": 6698,
      "Ġsymptoms": 6699,
      "cher": 6700,
      "lace": 6701,
      "Ġtit": 6702,
      "Ġped": 6703,
      "Ġmental": 6704,
      "ala": 6705,
      "Ġinstr": 6706,
      "Ġgolf": 6707,
      "eline": 6708,
      "---": 6709,
      "estic": 6710,
      "output": 6711,
      "ĠStep": 6712,
      "Ġflight": 6713,
      "Ġtransm": 6714,
      "Tommy": 6715,
      "ĠCommittee": 6716,
      "Ġrecommended": 6717,
      "Ġdocuments": 6718,
      "Ġcells": 6719,
      "Ġexcitement": 6720,
      "First": 6721,
      "Jim": 6722,
      "Term": 6723,
      "ref": 6724,
      "idy": 6725,
      "ett": 6726,
      "ĠCD": 6727,
      "Ġspecies": 6728,
      "Ġcreature": 6729,
      "Ġclassroom": 6730,
      "ĠOnly": 6731,
      "Ġdreams": 6732,
      "ĠValley": 6733,
      "Ġstretch": 6734,
      "husi": 6735,
      "VD": 6736,
      "View": 6737,
      "cut": 6738,
      "lim": 6739,
      "pret": 6740,
      "Ġsch": 6741,
      "Ġdancing": 6742,
      "ĠCard": 6743,
      "ideo": 6744,
      "ĠJer": 6745,
      "Ġadapt": 6746,
      "Ġbuf": 6747,
      "Ġsitu": 6748,
      "ĠCentral": 6749,
      "Ġenemy": 6750,
      "Us": 6751,
      "db": 6752,
      "Ġmort": 6753,
      "Ġnorth": 6754,
      "Ġebx": 6755,
      "ĠLead": 6756,
      "abled": 6757,
      "raq": 6758,
      "ĠVirgin": 6759,
      "Ġcommitted": 6760,
      "Ġ2004": 6761,
      "Ġtrial": 6762,
      "Ġcombined": 6763,
      "Ġprepare": 6764,
      "Ġadministration": 6765,
      "Ġtemperature": 6766,
      "Ġnumerous": 6767,
      ".|": 6768,
      "DI": 6769,
      "HL": 6770,
      "Molly": 6771,
      "SR": 6772,
      "ĠHD": 6773,
      "ĠDL": 6774,
      "anda": 6775,
      "osite": 6776,
      "Ġcultural": 6777,
      "Ġestablish": 6778,
      "Ġtelevision": 6779,
      "ĠEQUB": 6780,
      "Ġpicnic": 6781,
      "TMP": 6782,
      "nam": 6783,
      "inventory": 6784,
      "Ġwore": 6785,
      "Ġwake": 6786,
      "Ġladder": 6787,
      "Ġgathered": 6788,
      "ĠDB": 6789,
      "ĠDi": 6790,
      "ends": 6791,
      "ĠRad": 6792,
      "Ġbuff": 6793,
      "Ġwalks": 6794,
      "Ġcharges": 6795,
      "centr": 6796,
      "Ġofficer": 6797,
      "Ġbags": 6798,
      "Ġvolume": 6799,
      "Ġtotally": 6800,
      "Ġemergency": 6801,
      "Ġalternative": 6802,
      "Ġbrilliant": 6803,
      "System": 6804,
      "iples": 6805,
      "Ġĉĉ": 6806,
      "Ġalert": 6807,
      "aren": 6808,
      "ĠJeff": 6809,
      "Ġarrest": 6810,
      "Ġvisited": 6811,
      "ĠProt": 6812,
      "Ġimpressive": 6813,
      "Ġremoved": 6814,
      "press": 6815,
      "input": 6816,
      "omer": 6817,
      "ĠTor": 6818,
      "ĠTogether": 6819,
      "Ġglow": 6820,
      "Ġleaf": 6821,
      "Ġourselves": 6822,
      "Ġfamiliar": 6823,
      "Ġguitar": 6824,
      "Ġenthusi": 6825,
      "ĠEmily": 6826,
      "IA": 6827,
      "pat": 6828,
      "Ġwaves": 6829,
      "Ġdrew": 6830,
      "ĠDou": 6831,
      "ĠDig": 6832,
      "Ġprop": 6833,
      "Ġjack": 6834,
      "ĠJud": 6835,
      "Ġscreamed": 6836,
      "bert": 6837,
      "unnels": 6838,
      "Text": 6839,
      "dx": 6840,
      "pb": 6841,
      "uous": 6842,
      "ycl": 6843,
      "Ġiron": 6844,
      "Ġsight": 6845,
      "Ġhook": 6846,
      "Ġnine": 6847,
      "ĠSpe": 6848,
      "acc": 6849,
      "Ġquant": 6850,
      "Ġharder": 6851,
      "Ġfalls": 6852,
      "Ġvera": 6853,
      "Ġfemale": 6854,
      "Br": 6855,
      "Ġpor": 6856,
      "ĠSil": 6857,
      "Ġreward": 6858,
      "amin": 6859,
      "endar": 6860,
      "Ġliqu": 6861,
      "osen": 6862,
      "iped": 6863,
      "Ġreturns": 6864,
      "Ġorders": 6865,
      "Ġimagine": 6866,
      "Ġchemical": 6867,
      "Ġrice": 6868,
      "Ġappoint": 6869,
      "ĠChinese": 6870,
      "Ġconfident": 6871,
      "ĠShow": 6872,
      "ĠAtl": 6873,
      "Dr": 6874,
      "PC": 6875,
      "fin": 6876,
      "long": 6877,
      "Ġ`": 6878,
      "ros": 6879,
      "ĠWord": 6880,
      "Ġdiscount": 6881,
      "Ġwinner": 6882,
      "Ġelection": 6883,
      "ĠParty": 6884,
      "Ġsilver": 6885,
      "ĠSpecial": 6886,
      "Ġopinion": 6887,
      "TC": 6888,
      "hell": 6889,
      "Ġbits": 6890,
      "oco": 6891,
      "Ġagent": 6892,
      "Ġanyway": 6893,
      "Ġserving": 6894,
      "aws": 6895,
      "ĠArch": 6896,
      "Ġprofile": 6897,
      "ĠFrank": 6898,
      "Ġfacility": 6899,
      "ĠNetwork": 6900,
      "Ġfunctional": 6901,
      "ĠMSGTMP": 6902,
      "Ġembarrassed": 6903,
      "TO": 6904,
      "craft": 6905,
      "jr": 6906,
      "rance": 6907,
      "wind": 6908,
      "Ġtables": 6909,
      "Ġbon": 6910,
      "Ġfool": 6911,
      "Ġpapers": 6912,
      "ĠLDA": 6913,
      "unning": 6914,
      "Ġminor": 6915,
      "Ġevalu": 6916,
      "ĠÑ": 6917,
      "Ġgifts": 6918,
      "urt": 6919,
      "ĠLong": 6920,
      "ĠWil": 6921,
      "Ġgrace": 6922,
      "Ġfinds": 6923,
      "Ġ65": 6924,
      "Ġ2002": 6925,
      "Ġpretended": 6926,
      "Ġtransform": 6927,
      "Ġplanned": 6928,
      "Ġmarriage": 6929,
      "ommod": 6930,
      "Ġfocused": 6931,
      "Ġpreviously": 6932,
      "Ġflexible": 6933,
      "Ġbuttons": 6934,
      "ĠFrancis": 6935,
      "')": 6936,
      "Ġtape": 6937,
      "ĠMusic": 6938,
      "Ġris": 6939,
      "Ġmanner": 6940,
      "Ġfees": 6941,
      "prise": 6942,
      "ĠProject": 6943,
      "Ġsnake": 6944,
      "ethod": 6945,
      "Ġupdates": 6946,
      "game": 6947,
      "kins": 6948,
      "Ġgum": 6949,
      "ĠIraq": 6950,
      "igan": 6951,
      "illing": 6952,
      "antly": 6953,
      "Ġlean": 6954,
      "ribute": 6955,
      "Ġsupported": 6956,
      "Ġperfectly": 6957,
      "Ġjudge": 6958,
      "Ġpeaceful": 6959,
      "Ġreligious": 6960,
      "ĠLibrary": 6961,
      "NA": 6962,
      "Today": 6963,
      "rics": 6964,
      "win": 6965,
      "Ġbound": 6966,
      "Ġge": 6967,
      "Ġgall": 6968,
      "idth": 6969,
      "Ġrom": 6970,
      "ĠPot": 6971,
      "umer": 6972,
      "ĠFil": 6973,
      "ĠJohnson": 6974,
      "9999": 6975,
      "ĠFrance": 6976,
      "Ġsticks": 6977,
      "Ġescape": 6978,
      "ĠInstead": 6979,
      "ĠCorporation": 6980,
      "Ġalbum": 6981,
      "Mum": 6982,
      "Two": 6983,
      "ĠĠĊ": 6984,
      "Ġbull": 6985,
      "Ġcm": 6986,
      "Ġpitch": 6987,
      "Ġdyn": 6988,
      "Ġnone": 6989,
      "Ġ000000": 6990,
      "uggle": 6991,
      "Ġknocked": 6992,
      "Ġsomewhere": 6993,
      "Ġprison": 6994,
      "ĠKen": 6995,
      "ĠSoft": 6996,
      "Ġentered": 6997,
      "Ġfurry": 6998,
      "Gener": 6999,
      "UP": 7000,
      "WC": 7001,
      "Ġloyal": 7002,
      "ĠIT": 7003,
      "ĠId": 7004,
      "ĠMad": 7005,
      "ĠMel": 7006,
      "aven": 7007,
      "Ġappeal": 7008,
      "Ġpepper": 7009,
      "ĠChicago": 7010,
      "Ġsets": 7011,
      "Ġjoint": 7012,
      "Ġconsumers": 7013,
      "Ġconcerns": 7014,
      "cue": 7015,
      "Ġbelt": 7016,
      "Ġfro": 7017,
      "Ġham": 7018,
      "Ġder": 7019,
      "idering": 7020,
      "ĠSqu": 7021,
      "Ġforces": 7022,
      "ĠDistrict": 7023,
      "Ġexchange": 7024,
      "Ġspons": 7025,
      "outs": 7026,
      "plate": 7027,
      "ensions": 7028,
      "Ġpresence": 7029,
      "Ġforeign": 7030,
      "Ġspeaking": 7031,
      "Ġtreats": 7032,
      "Ġresearc": 7033,
      "Ġlanded": 7034,
      "Ġinternal": 7035,
      "Ġargument": 7036,
      "iences": 7037,
      "Ġmaximum": 7038,
      "Ġcarrot": 7039,
      "Ġpolicies": 7040,
      "DF": 7041,
      "ui": 7042,
      "Ġcher": 7043,
      "Ġpizza": 7044,
      "irus": 7045,
      "ĠWild": 7046,
      "Ġchat": 7047,
      "orthern": 7048,
      "Ġbytes": 7049,
      "Ġmovies": 7050,
      "Ġchew": 7051,
      "Ġvisitors": 7052,
      "Ġlandsc": 7053,
      "related": 7054,
      "Ġidentify": 7055,
      "UBLIC": 7056,
      "Ġincorpor": 7057,
      "pan": 7058,
      "anna": 7059,
      "Ġgear": 7060,
      "Ġyouth": 7061,
      "ĠCustom": 7062,
      "ĠBack": 7063,
      "ĠLos": 7064,
      "Ġspider": 7065,
      "Ġdecre": 7066,
      "Ġrealize": 7067,
      "ĠConference": 7068,
      "Ġcelebrate": 7069,
      "Ġdetailed": 7070,
      "Ġadults": 7071,
      "Ġappreciate": 7072,
      "Ġjungle": 7073,
      "UL": 7074,
      "stances": 7075,
      "lymp": 7076,
      "uration": 7077,
      "keys": 7078,
      "anges": 7079,
      "addi": 7080,
      "Ġmoves": 7081,
      "Ġbuildings": 7082,
      "Ġgenerous": 7083,
      "Ġreplace": 7084,
      "Ġpossibly": 7085,
      "Ġpicking": 7086,
      "afe": 7087,
      "Ġcircum": 7088,
      "Ġarchitect": 7089,
      "rastruct": 7090,
      "Ġrapid": 7091,
      "Ġcater": 7092,
      "Ġfing": 7093,
      "Ġpuddle": 7094,
      "ĠMittens": 7095,
      "ĠLic": 7096,
      "ĠNov": 7097,
      "Ġunits": 7098,
      "Ġvisual": 7099,
      "ERS": 7100,
      "Ġinterests": 7101,
      "Ġinvestors": 7102,
      "Ġbringing": 7103,
      "Ġimpressed": 7104,
      "Ġcorporate": 7105,
      "can": 7106,
      "location": 7107,
      "mar": 7108,
      "Ġtied": 7109,
      "reens": 7110,
      "Ġmole": 7111,
      "Ġdie": 7112,
      "Ġducks": 7113,
      "ĠFOR": 7114,
      "ĠGra": 7115,
      "Ġroot": 7116,
      "Ġdiscl": 7117,
      "Ġmovl": 7118,
      "Ġvari": 7119,
      "400": 7120,
      "UG": 7121,
      "Ġwolf": 7122,
      "Ġbump": 7123,
      "ita": 7124,
      "Ġpxor": 7125,
      "isation": 7126,
      "ĠAD": 7127,
      "ĠCat": 7128,
      "ĠPage": 7129,
      "ĠWood": 7130,
      "ĠExt": 7131,
      "ĠNOT": 7132,
      "Ġcharm": 7133,
      "Ġmoments": 7134,
      "Ġtrucks": 7135,
      "Ġcontem": 7136,
      "ixel": 7137,
      "Ġdelivered": 7138,
      "Ġconfl": 7139,
      "Ġprize": 7140,
      "Ġtechniques": 7141,
      "Ġallowing": 7142,
      "ya": 7143,
      "Ġgigg": 7144,
      "lear": 7145,
      "Ġyog": 7146,
      "âĢĺ": 7147,
      "ĠMass": 7148,
      "ĠBE": 7149,
      "usion": 7150,
      "ĠNext": 7151,
      "Ġscream": 7152,
      "Ġaccommod": 7153,
      "Ġcreation": 7154,
      "Ġresponsibility": 7155,
      "Ġvictory": 7156,
      "Ġbegins": 7157,
      "Ġcategory": 7158,
      "Because": 7159,
      "Ġes": 7160,
      "Ġfd": 7161,
      "Ġnom": 7162,
      "achel": 7163,
      "ĠHill": 7164,
      "ĠDuring": 7165,
      "Ġvary": 7166,
      "Ġtrick": 7167,
      "ograp": 7168,
      "Ġprovider": 7169,
      "Ġprofit": 7170,
      "Click": 7171,
      "Most": 7172,
      "inue": 7173,
      "Ġfake": 7174,
      "Ġdating": 7175,
      "ĠnA": 7176,
      "Ġnav": 7177,
      "otal": 7178,
      "urse": 7179,
      "ĠLast": 7180,
      "Ġpros": 7181,
      "Ġconcentr": 7182,
      "Ġje": 7183,
      "isted": 7184,
      "ĠJose": 7185,
      "Ġcolle": 7186,
      "Ġreaders": 7187,
      "uality": 7188,
      "azz": 7189,
      "Ġexperts": 7190,
      "Ġpaying": 7191,
      "Ġconductive": 7192,
      "ĠAcadem": 7193,
      "Val": 7194,
      "Ġpie": 7195,
      "oral": 7196,
      "ĠSol": 7197,
      "ĠHam": 7198,
      "Ġcrime": 7199,
      "Ġdefend": 7200,
      "Ġhoping": 7201,
      "ĠCanad": 7202,
      "ĠOnline": 7203,
      "Ġinstalled": 7204,
      "Ġencourage": 7205,
      "ĠSteve": 7206,
      "Ġconversation": 7207,
      "Ġboost": 7208,
      "Ġapproximately": 7209,
      "made": 7210,
      "Ġ||": 7211,
      "Ġesi": 7212,
      "Ġbored": 7213,
      "Ġstupid": 7214,
      "ĠMa": 7215,
      "ĠLear": 7216,
      "Ġclock": 7217,
      "ĠOffic": 7218,
      "Ġcompar": 7219,
      "Ġapplied": 7220,
      "Ġmarkets": 7221,
      "ĠĠĠĠĠĠĠĠĠĠĠĠĠĠĠĠĠĠĠĠĠĠĠĠĠĠĠĠĠĠĠĠĠĠĠĠĠĠĠ": 7222,
      "Ġenjoying": 7223,
      "Ġdiam": 7224,
      "!!!": 7225,
      "****************************************************************": 7226,
      "Error": 7227,
      "iveness": 7228,
      "Ġwrapped": 7229,
      "AF": 7230,
      "CD": 7231,
      "td": 7232,
      "ĠIll": 7233,
      "ĠMont": 7234,
      "ĠMatt": 7235,
      "ĠPan": 7236,
      "Ġath": 7237,
      "Ġ07": 7238,
      "Ġdrum": 7239,
      "Ġpolite": 7240,
      "Ġstores": 7241,
      "ÅĵI": 7242,
      "reme": 7243,
      "Ġviolence": 7244,
      "Ġpermission": 7245,
      "Ġrental": 7246,
      "Ġdoubt": 7247,
      "()": 7248,
      "PR": 7249,
      "bh": 7250,
      "eries": 7251,
      "ario": 7252,
      "ĠAward": 7253,
      "ĠDen": 7254,
      "Ġkitten": 7255,
      "ĠJump": 7256,
      "ĠOld": 7257,
      "Ġqueen": 7258,
      "Ġsafely": 7259,
      "Ġvisiting": 7260,
      "Stop": 7261,
      "ĠJohnny": 7262,
      "Ġvend": 7263,
      "ĠScott": 7264,
      "Ġhyp": 7265,
      "ĠAccording": 7266,
      "Ġterrible": 7267,
      "Ġperspective": 7268,
      "Res": 7269,
      "Ð¸": 7270,
      "Ġdu": 7271,
      "Ġdatab": 7272,
      "Ġhears": 7273,
      "Ġyarn": 7274,
      "Ġtechnologies": 7275,
      "Ġdollars": 7276,
      "Ġessay": 7277,
      "ĠTeam": 7278,
      "Ġrevealed": 7279,
      "Ġadvertising": 7280,
      "ĠAngeles": 7281,
      "cel": 7282,
      "hop": 7283,
      "Ġbond": 7284,
      "Ġupper": 7285,
      "Ġrude": 7286,
      "ĠLand": 7287,
      "Ġleague": 7288,
      "Ġdeer": 7289,
      "ĠInvest": 7290,
      "Ġskip": 7291,
      "Ġgreatest": 7292,
      "bytes": 7293,
      "Ġjoke": 7294,
      "Ġrecorded": 7295,
      "Ġcauses": 7296,
      "Ġfabric": 7297,
      "Ġtournament": 7298,
      "512": 7299,
      "ga": 7300,
      "xff": 7301,
      "Ġok": 7302,
      "Ġcage": 7303,
      "enry": 7304,
      "asis": 7305,
      "ĠID": 7306,
      "ĠHaw": 7307,
      "ĠRock": 7308,
      "Ġlocations": 7309,
      "Ġelast": 7310,
      "Ġtopic": 7311,
      "Ġpicks": 7312,
      "Ġtests": 7313,
      "arrant": 7314,
      "Ġselfish": 7315,
      "Ġtightly": 7316,
      "Ġproposed": 7317,
      "Ġobtain": 7318,
      "Ġwhistle": 7319,
      "Ġcitizens": 7320,
      "Dis": 7321,
      "loy": 7322,
      "label": 7323,
      "Ġmale": 7324,
      "Ġheight": 7325,
      "iration": 7326,
      "ĠBer": 7327,
      "Ġnoted": 7328,
      "essage": 7329,
      "Ġjam": 7330,
      "aks": 7331,
      "Ġsmoke": 7332,
      "Ġtracks": 7333,
      "Ġletters": 7334,
      "Ġturning": 7335,
      "Ġdesigns": 7336,
      "Ġplanet": 7337,
      "Ġcircle": 7338,
      "Ġabsor": 7339,
      "MDAT": 7340,
      "Ġtissue": 7341,
      "Ġconflict": 7342,
      "fs": 7343,
      "ki": 7344,
      "was": 7345,
      "Ġsides": 7346,
      "Ġfif": 7347,
      "orters": 7348,
      "Ġmarch": 7349,
      "Ġsock": 7350,
      "ĠFind": 7351,
      "Ġnewsp": 7352,
      "Ġuniversity": 7353,
      "addr": 7354,
      "Ġinvited": 7355,
      "Ġdepending": 7356,
      "Ġsolve": 7357,
      "Ġsteel": 7358,
      "ĠOrgan": 7359,
      "Ġaccounts": 7360,
      "offset": 7361,
      ".'": 7362,
      "Desc": 7363,
      "Ed": 7364,
      "bles": 7365,
      "Ġhate": 7366,
      "Ġstated": 7367,
      "Ġstamp": 7368,
      "Ġliber": 7369,
      "ilding": 7370,
      "Ġcoal": 7371,
      "Ġattacks": 7372,
      "Ġreduced": 7373,
      "ounter": 7374,
      "Ġelim": 7375,
      "Ġfoods": 7376,
      "Ġsnacks": 7377,
      "dword": 7378,
      "Start": 7379,
      "ĠQue": 7380,
      "ublished": 7381,
      "ĠTechnology": 7382,
      "rehensive": 7383,
      "Termin": 7384,
      ",(": 7385,
      "Ġbeer": 7386,
      "Ġhabit": 7387,
      "Ġsoil": 7388,
      "Ġhadn": 7389,
      "ĠNE": 7390,
      "Ġchoo": 7391,
      "Ġchief": 7392,
      "Ġrose": 7393,
      "Ġdiss": 7394,
      "Ġcovers": 7395,
      "Ġelig": 7396,
      "ĠEnter": 7397,
      "Ġobjects": 7398,
      "ĠSenate": 7399,
      "Int": 7400,
      "IDE": 7401,
      "Out": 7402,
      "hester": 7403,
      "Ġaim": 7404,
      "onom": 7405,
      "Ġpatch": 7406,
      "utional": 7407,
      "Ġforced": 7408,
      "ĠCEO": 7409,
      "ĠLisa": 7410,
      "ĠDisc": 7411,
      "ĠOlymp": 7412,
      "ĠYOU": 7413,
      "Ġagencies": 7414,
      "Ġshouldn": 7415,
      "Ġcrab": 7416,
      "Ġcrash": 7417,
      "Ġkeeps": 7418,
      "ĠExper": 7419,
      "Ġzero": 7420,
      "Ġcarrying": 7421,
      "Ġconcerned": 7422,
      "Ġattractive": 7423,
      "burg": 7424,
      "Ġinstructions": 7425,
      "ĠHistory": 7426,
      "According": 7427,
      "rastructure": 7428,
      "nov": 7429,
      "ye": 7430,
      "Ġbare": 7431,
      "Ġlying": 7432,
      "Ġears": 7433,
      "assion": 7434,
      "Ġseeking": 7435,
      "Thanks": 7436,
      "Ġhopes": 7437,
      "Ġmatches": 7438,
      "Ġthankful": 7439,
      "aptop": 7440,
      "umbled": 7441,
      "ĠSecret": 7442,
      "Ġinfluence": 7443,
      "buff": 7444,
      "gu": 7445,
      "oons": 7446,
      "xf": 7447,
      "oration": 7448,
      "acter": 7449,
      "olph": 7450,
      "Ġdoct": 7451,
      "Ġconsequ": 7452,
      "------------": 7453,
      "ĠChris": 7454,
      "Ġwriter": 7455,
      "Ġcrown": 7456,
      "Ġdelay": 7457,
      "Ġcourses": 7458,
      "Ġmagazine": 7459,
      "Ġupdated": 7460,
      "Ġrecognize": 7461,
      "Ġnecklace": 7462,
      "Ġinstitutions": 7463,
      "Ġneighborhood": 7464,
      "FA": 7465,
      "bled": 7466,
      "cf": 7467,
      "near": 7468,
      "parent": 7469,
      "Ġsizes": 7470,
      "Ġmelt": 7471,
      "Ġelder": 7472,
      "ĠAccess": 7473,
      "ĠFull": 7474,
      "Ġyours": 7475,
      "Ġknife": 7476,
      "ĠStand": 7477,
      "anging": 7478,
      "ampion": 7479,
      "short": 7480,
      "Ġentertain": 7481,
      "Ġprocesses": 7482,
      "Ġaffected": 7483,
      "lastname": 7484,
      "Ġoccasion": 7485,
      "eer": 7486,
      "ka": 7487,
      "Ġhits": 7488,
      "ilit": 7489,
      "adium": 7490,
      "road": 7491,
      "ĠBud": 7492,
      "agram": 7493,
      "ĠJake": 7494,
      "espite": 7495,
      "Ġincreases": 7496,
      "Ġphotograph": 7497,
      "USIC": 7498,
      "LOG": 7499,
      "ĠAmazon": 7500,
      "Ġmaintenance": 7501,
      "Ġfantastic": 7502,
      "ĠCarolina": 7503,
      "FC": 7504,
      "sm": 7505,
      "Ġwel": 7506,
      "ani": 7507,
      "Ġinner": 7508,
      "ste": 7509,
      "stack": 7510,
      "ĠFL": 7511,
      "Ġhappiness": 7512,
      "Ġbrush": 7513,
      "ĠVict": 7514,
      "Ġpointing": 7515,
      "ĠAdmin": 7516,
      "INE": 7517,
      "Ġeducational": 7518,
      "Ġspecifically": 7519,
      "Ġdebt": 7520,
      "Ġlicens": 7521,
      "Ġcarrots": 7522,
      "creation": 7523,
      "Over": 7524,
      "Soon": 7525,
      "Ġstones": 7526,
      "ĠList": 7527,
      "ĠFund": 7528,
      "ĠRose": 7529,
      "Ġ42": 7530,
      "Ġusual": 7531,
      "Ġfeelings": 7532,
      "Ġcrim": 7533,
      "Ġrelatively": 7534,
      "pushl": 7535,
      "ĠAdv": 7536,
      "ĠMcC": 7537,
      "Ġrecognized": 7538,
      "ĠSecond": 7539,
      "ĠSeries": 7540,
      "ĠHelp": 7541,
      "Ġpuzzle": 7542,
      "Americ": 7543,
      "jo": 7544,
      "Ġtent": 7545,
      "Ġcrew": 7546,
      "Ġelement": 7547,
      "riff": 7548,
      "Ġsevere": 7549,
      "Ġvoid": 7550,
      "ĠEconom": 7551,
      "ĠNor": 7552,
      "Ġchose": 7553,
      "epi": 7554,
      "Ġdesire": 7555,
      "Ġpoll": 7556,
      "Ġconfidence": 7557,
      "ĠBeach": 7558,
      "Ġcrowd": 7559,
      "IGHT": 7560,
      "Ġfrustrated": 7561,
      "RAN": 7562,
      "gal": 7563,
      "ĠMA": 7564,
      "iform": 7565,
      "ĠDev": 7566,
      "ĠWal": 7567,
      "ĠFarm": 7568,
      "Ġbranc": 7569,
      "Ġrecipe": 7570,
      "Ġregistered": 7571,
      "ATION": 7572,
      "Ġconsidering": 7573,
      "Ġsupporting": 7574,
      "Ġpromote": 7575,
      "Ġbelieved": 7576,
      "Ġwebsites": 7577,
      "ACK": 7578,
      "Ġhonor": 7579,
      "Ġpainted": 7580,
      "Ġrelevant": 7581,
      "EOF": 7582,
      "Ġsector": 7583,
      "About": 7584,
      "300": 7585,
      "orough": 7586,
      "otic": 7587,
      "ĠCup": 7588,
      "ĠDevExt": 7589,
      "gets": 7590,
      "Ġsyn": 7591,
      "true": 7592,
      "Ġextensive": 7593,
      "ĠiP": 7594,
      "ĠPhysDevExtTramp": 7595,
      "ĠPhysDevExtTermin": 7596,
      "ĠDevExtTramp": 7597,
      "TY": 7598,
      "case": 7599,
      "lib": 7600,
      "rees": 7601,
      "Ġol": 7602,
      "atures": 7603,
      "Ġmuseum": 7604,
      "Ġluck": 7605,
      "ĠAT": 7606,
      "essions": 7607,
      "Ġlie": 7608,
      "ĠKeep": 7609,
      "Ġdecades": 7610,
      "ĠVis": 7611,
      "Ġsubstant": 7612,
      "Ġdrivers": 7613,
      "ĠBefore": 7614,
      "Ġdisappeared": 7615,
      "Ġfailure": 7616,
      "Ġvictims": 7617,
      "ĠColorado": 7618,
      "KE": 7619,
      "Le": 7620,
      "gers": 7621,
      "Ġid": 7622,
      "Ġboring": 7623,
      "Ġlen": 7624,
      "ilty": 7625,
      "igen": 7626,
      "olve": 7627,
      "ĠBoth": 7628,
      "ĠFamily": 7629,
      "ansas": 7630,
      "Ġfruits": 7631,
      "Ġinstance": 7632,
      "____": 7633,
      "ITE": 7634,
      "ĠPrint": 7635,
      "Ġashamed": 7636,
      "Qu": 7637,
      "pass": 7638,
      "Ġwrap": 7639,
      "Ġcro": 7640,
      "ĠMer": 7641,
      "ĠPac": 7642,
      "ĠEll": 7643,
      "ĠNight": 7644,
      "Ġchased": 7645,
      "Ġremaining": 7646,
      "Ġcloset": 7647,
      "ĠAbout": 7648,
      "Ġsplash": 7649,
      "Ġcycle": 7650,
      "Ġscarf": 7651,
      "Ġlaunched": 7652,
      "Other": 7653,
      "Ġdust": 7654,
      "arrow": 7655,
      "ĠSign": 7656,
      "ĠBi": 7657,
      "Ġconstruct": 7658,
      "ĠGame": 7659,
      "itionally": 7660,
      "Ġwrit": 7661,
      "Ġanswers": 7662,
      "Ġannounce": 7663,
      "unnel": 7664,
      "Name": 7665,
      "OD": 7666,
      "mit": 7667,
      "atre": 7668,
      "ĠEV": 7669,
      "ĠEarth": 7670,
      "Ġuncom": 7671,
      "phy": 7672,
      "Ġowned": 7673,
      "ĠEverywhere": 7674,
      "Ġmatters": 7675,
      "Ġsleepy": 7676,
      "Ġblend": 7677,
      "Ġaspects": 7678,
      "MUSIC": 7679,
      "Sorry": 7680,
      "rene": 7681,
      "eds": 7682,
      "ĠSand": 7683,
      "Ġstraw": 7684,
      "Ġrail": 7685,
      "Ġalle": 7686,
      "Ġplug": 7687,
      "Ġshore": 7688,
      "Ġshots": 7689,
      "Ġexit": 7690,
      "ĠRh": 7691,
      "ulty": 7692,
      "Ġopens": 7693,
      "ossible": 7694,
      "Ġglue": 7695,
      "Ġ2003": 7696,
      "mmgr": 7697,
      "Ġinterpret": 7698,
      "Ġsettings": 7699,
      "Ġillustr": 7700,
      "Ġhousing": 7701,
      "ĠAfrican": 7702,
      "abetes": 7703,
      "Ġtut": 7704,
      "Ġwins": 7705,
      "Ġyelled": 7706,
      "Ġsoap": 7707,
      "ĠRest": 7708,
      "Ġven": 7709,
      "Ġjsr": 7710,
      "oston": 7711,
      "Ġenable": 7712,
      "ĠUN": 7713,
      "berries": 7714,
      "obby": 7715,
      "angle": 7716,
      "cknow": 7717,
      "Ġsurgery": 7718,
      "ATA": 7719,
      "Ġevil": 7720,
      "Ġfairly": 7721,
      "ĠMedical": 7722,
      "Ġdestination": 7723,
      "Ġtelephone": 7724,
      "Ġclinical": 7725,
      "iated": 7726,
      "Ġedi": 7727,
      "Ġfellow": 7728,
      "elines": 7729,
      "Ġriding": 7730,
      "Ġalive": 7731,
      "ĠPay": 7732,
      "arts": 7733,
      "ective": 7734,
      "Ġdisp": 7735,
      "ĠWeek": 7736,
      "Ġ*/": 7737,
      "ĠAsia": 7738,
      "Ġcounty": 7739,
      "Ġcertific": 7740,
      "rban": 7741,
      "repare": 7742,
      "ĠGlobal": 7743,
      "Ġroutine": 7744,
      "forcement": 7745,
      "Ġbranches": 7746,
      ".âĢĻ": 7747,
      "Rec": 7748,
      "Ġdial": 7749,
      "Ġdraft": 7750,
      "Ġgym": 7751,
      "ĠHuman": 7752,
      "Ġexecutive": 7753,
      "Ġspaces": 7754,
      "Ġ->": 7755,
      "Ġheads": 7756,
      "Ġrefused": 7757,
      "ruit": 7758,
      "Ġearned": 7759,
      "fficient": 7760,
      "Ġsplit": 7761,
      "Ġvehicles": 7762,
      "ubbles": 7763,
      "################": 7764,
      "Since": 7765,
      "false": 7766,
      "nel": 7767,
      "rick": 7768,
      "Ġ?": 7769,
      "itory": 7770,
      "Ġplayground": 7771,
      "Ġcontest": 7772,
      "orders": 7773,
      "obe": 7774,
      "Ġemph": 7775,
      "Ġdefined": 7776,
      "Ġpassing": 7777,
      "ĠPrice": 7778,
      "Ġticket": 7779,
      "Ġautomatically": 7780,
      "Ġvacc": 7781,
      "ĠAustralian": 7782,
      "Ġsandwich": 7783,
      "!)": 7784,
      "'.": 7785,
      ",(%": 7786,
      "Ġment": 7787,
      "ĠTem": 7788,
      "stat": 7789,
      "ĠBow": 7790,
      "ĠLight": 7791,
      "Ġchosen": 7792,
      "Ġtrash": 7793,
      "Ġunknown": 7794,
      "Ġedx": 7795,
      "ĠProv": 7796,
      "profit": 7797,
      "Ġcollected": 7798,
      "Ġresource": 7799,
      "Ġexception": 7800,
      "Ġseeds": 7801,
      "CI": 7802,
      "Ġsample": 7803,
      "acle": 7804,
      "ĠLat": 7805,
      "ria": 7806,
      "Ġchoices": 7807,
      "Ġpref": 7808,
      "Ġteen": 7809,
      "merce": 7810,
      "lection": 7811,
      "Ġcats": 7812,
      "SEH": 7813,
      "Ġhumans": 7814,
      "Ġclimate": 7815,
      "Ġmotiv": 7816,
      "Ġappearance": 7817,
      "Ġmedium": 7818,
      "800": 7819,
      "SFX": 7820,
      "Ġbx": 7821,
      "Ġlux": 7822,
      "ĠTest": 7823,
      "ĠMuseum": 7824,
      "ĠLabel": 7825,
      "ifdef": 7826,
      "Ġsha": 7827,
      "Ġsheep": 7828,
      "ĠEric": 7829,
      "Ġabuse": 7830,
      "Ġtheme": 7831,
      "ĠON": 7832,
      "Ġassum": 7833,
      "ĠComput": 7834,
      "Ġreceiving": 7835,
      "ĠPlus": 7836,
      "Ġexamples": 7837,
      "Ġparticipate": 7838,
      "Ġvacation": 7839,
      "Ġsparkly": 7840,
      "Ġpowder": 7841,
      "Ġemotional": 7842,
      "fol": 7843,
      "Ġpir": 7844,
      "ĠTake": 7845,
      "amber": 7846,
      "urther": 7847,
      "ĠHope": 7848,
      "Ġvase": 7849,
      "izzy": 7850,
      "Ġ43": 7851,
      "ORE": 7852,
      "Ġemp": 7853,
      "Ġsurf": 7854,
      "ART": 7855,
      "Sta": 7856,
      "Ġtreated": 7857,
      "Ġbaseball": 7858,
      "Ġidentity": 7859,
      "Ġentirely": 7860,
      "Ġengineering": 7861,
      "Ġscheduled": 7862,
      "Ġsubmit": 7863,
      "Ġresistance": 7864,
      "~~~~~~~~": 7865,
      "Ġhundreds": 7866,
      "from": 7867,
      "Ġtack": 7868,
      "Ġpra": 7869,
      "estyle": 7870,
      "ĠEvent": 7871,
      "ĠNO": 7872,
      "Ġjustice": 7873,
      "Ġinches": 7874,
      "Init": 7875,
      "Ġartists": 7876,
      "Ġmonthly": 7877,
      "Ġconsumer": 7878,
      "Ġinvestigation": 7879,
      "Ġbrowser": 7880,
      "Ġcrisis": 7881,
      "ĠDLabel": 7882,
      "=(": 7883,
      "rome": 7884,
      "vy": 7885,
      "water": 7886,
      "Ġpants": 7887,
      "Ġpilot": 7888,
      "icial": 7889,
      "Ġang": 7890,
      "ĠLog": 7891,
      "rif": 7892,
      "unes": 7893,
      "Ġshares": 7894,
      "ĠRos": 7895,
      "Ġfriendship": 7896,
      "Ġmonitor": 7897,
      "Ġassign": 7898,
      "Ġlocked": 7899,
      "lands": 7900,
      "ĠĠĠĠĠĠčĊ": 7901,
      "Ġcentre": 7902,
      "Ġbasically": 7903,
      "Ġsleeping": 7904,
      "ĠPolice": 7905,
      "pointer": 7906,
      "fish": 7907,
      "zer": 7908,
      "Ġwest": 7909,
      "ingly": 7910,
      "ĠSTA": 7911,
      "Ġyards": 7912,
      "Ġexternal": 7913,
      "Ġvine": 7914,
      "ĠOFFSET": 7915,
      "Ġperman": 7916,
      "125": 7917,
      "Ġremote": 7918,
      "Ġattorney": 7919,
      "Ġinterior": 7920,
      "Ġmemories": 7921,
      "uitar": 7922,
      "Ġpatterns": 7923,
      "ĠTweet": 7924,
      "Ġcomponents": 7925,
      "SoundSystem": 7926,
      "ĠVirginia": 7927,
      "Ġfingers": 7928,
      "DMA": 7929,
      "Will": 7930,
      "iors": 7931,
      "Ġaid": 7932,
      "Ġacknow": 7933,
      "Ġtoil": 7934,
      "ĠHand": 7935,
      "ulous": 7936,
      "Ġarray": 7937,
      "Ġkeys": 7938,
      "Ġflood": 7939,
      "Ġrelief": 7940,
      "Ġhighlight": 7941,
      "Ġexpans": 7942,
      "Ġguilty": 7943,
      "Ġlawyer": 7944,
      "Ġrecording": 7945,
      "ĠBobby": 7946,
      "Ġsensitive": 7947,
      "Ġliquid": 7948,
      "member": 7949,
      "Ġpounds": 7950,
      "Ġhorn": 7951,
      "ĠCost": 7952,
      "rawn": 7953,
      "ĠĠĠĠĠĠĠĠĠĠĠĠĠĠĠĠĠĠĠĠĠĠĠ": 7954,
      "Ġquot": 7955,
      "ĠChildren": 7956,
      "Ġrecovery": 7957,
      "Ġhousehold": 7958,
      "Ġadvoc": 7959,
      "Ġinstallation": 7960,
      "Ġinspired": 7961,
      "Ġdomain": 7962,
      "ĠJapanese": 7963,
      "QU": 7964,
      "Se": 7965,
      "za": 7966,
      "reets": 7967,
      "Ġfestival": 7968,
      "Ġmul": 7969,
      "Ġsaving": 7970,
      "ĠLim": 7971,
      "Ġprove": 7972,
      "Ġprospect": 7973,
      "ĠThose": 7974,
      "ĠKitty": 7975,
      "Ġimportance": 7976,
      "ĠAlice": 7977,
      "Ġstops": 7978,
      "Ġidentified": 7979,
      "Ġfreep": 7980,
      "Ġstrategies": 7981,
      "Ġcommitment": 7982,
      "ĠDigital": 7983,
      "FE": 7984,
      "nie": 7985,
      "Ġobl": 7986,
      "Ġtonight": 7987,
      "ouch": 7988,
      "Ġlosing": 7989,
      "icit": 7990,
      "ĠMP": 7991,
      "ership": 7992,
      "Ġbless": 7993,
      "Ġunf": 7994,
      "angers": 7995,
      "Ġcolours": 7996,
      "Ġissued": 7997,
      "00000000": 7998,
      "Ġordered": 7999,
      "Ġenhance": 8000,
      "!âĢĿ": 8001,
      "Even": 8002,
      "FIG": 8003,
      "Next": 8004,
      "Rem": 8005,
      "hi": 8006,
      "Ġsam": 8007,
      "Ġcable": 8008,
      "ician": 8009,
      "Ġ05": 8010,
      "Ġpregn": 8011,
      "Ġacting": 8012,
      "Ġwrites": 8013,
      "Ġbelieves": 8014,
      "Ġinfrastructure": 8015,
      "Ġsquee": 8016,
      "Ġprinted": 8017,
      "Ġindustrial": 8018,
      "Ġemployee": 8019,
      "Ġcampus": 8020,
      "LOCK": 8021,
      "Ġapolog": 8022,
      "Ġbattery": 8023,
      "Ġadministr": 8024,
      "ĠEQUS": 8025,
      "Ġinnovation": 8026,
      "Ġscientific": 8027,
      "ĠSupport": 8028,
      "WA": 8029,
      "pon": 8030,
      "rim": 8031,
      "Ġtidy": 8032,
      "Ġcx": 8033,
      "ĠIsl": 8034,
      "aints": 8035,
      "Ġconstit": 8036,
      "ĠEr": 8037,
      "ĠGal": 8038,
      "Ġworm": 8039,
      "Ġrode": 8040,
      "Ġoffset": 8041,
      "Ġgrad": 8042,
      "ĠKn": 8043,
      "Ġindeed": 8044,
      "Ġequal": 8045,
      "Ġsalad": 8046,
      "2013": 8047,
      "Ġportion": 8048,
      "ENDS": 8049,
      "Ġinjuries": 8050,
      "Ġsoul": 8051,
      "igration": 8052,
      "Ġdelighted": 8053,
      "Data": 8054,
      "Ġah": 8055,
      "ĠBYTE": 8056,
      "inder": 8057,
      "Ġfirstname": 8058,
      "Ġfridge": 8059,
      "Ġmonit": 8060,
      "Ġmini": 8061,
      "Ġdefault": 8062,
      "Ġdepart": 8063,
      "Ġdinos": 8064,
      "Ġmotion": 8065,
      "cmd": 8066,
      "Ġregularly": 8067,
      "Ġdistribution": 8068,
      "Ð¾Ð": 8069,
      "Ġfunctions": 8070,
      "ĠMartin": 8071,
      "Funnels": 8072,
      "PUBLIC": 8073,
      "Ġtmp": 8074,
      "Ġterror": 8075,
      "inations": 8076,
      "Ġwitness": 8077,
      "iser": 8078,
      "Ġrandom": 8079,
      "Ġconvert": 8080,
      "ĠRef": 8081,
      "ĠĠĠĠĠĠĠĠĠĠĠĠĠĠĠĠĠĠĠĠ": 8082,
      "oster": 8083,
      "Ġcontr": 8084,
      "Ġshoulder": 8085,
      "Ġphil": 8086,
      "Ġphase": 8087,
      "Ġ2001": 8088,
      "Ġformed": 8089,
      "Ġcalendar": 8090,
      "Ġprivacy": 8091,
      "ĠJustice": 8092,
      "ĠHotel": 8093,
      "Ġtherapy": 8094,
      "ĠSoftware": 8095,
      "];": 8096,
      "oh": 8097,
      "Ġfork": 8098,
      "ĠPR": 8099,
      "Ġ150": 8100,
      "Their": 8101,
      "Ġcontrast": 8102,
      "Ġunivers": 8103,
      "Ġpointer": 8104,
      "Ġregistration": 8105,
      "xmmword": 8106,
      "Ġcourage": 8107,
      "ĠJackson": 8108,
      "ĠIndust": 8109,
      "Ġchecked": 8110,
      "Help": 8111,
      "Ġcircumstances": 8112,
      "Mem": 8113,
      "bal": 8114,
      "fect": 8115,
      "rum": 8116,
      "ĠÃ": 8117,
      "requ": 8118,
      "Ġwarrant": 8119,
      "rient": 8120,
      "user": 8121,
      "ĠDog": 8122,
      "open": 8123,
      "ĠFe": 8124,
      "asts": 8125,
      "ĠStat": 8126,
      "Ġreput": 8127,
      "Ġassets": 8128,
      "Ġhealthcare": 8129,
      "Ġinfo": 8130,
      "Ġpractical": 8131,
      "Ġofficers": 8132,
      "Sarah": 8133,
      "Ġmachines": 8134,
      "Before": 8135,
      "Ġcopyright": 8136,
      "Ġchallenging": 8137,
      "Ġelderly": 8138,
      "AUD": 8139,
      "Jane": 8140,
      "apped": 8141,
      "lw": 8142,
      "mes": 8143,
      "Ġq": 8144,
      "Ġë": 8145,
      "hent": 8146,
      "Ġcott": 8147,
      "Ġfasc": 8148,
      "Ġpushing": 8149,
      "Ġnurse": 8150,
      "ĠAff": 8151,
      "ĠCH": 8152,
      "ifer": 8153,
      "Ġlip": 8154,
      "icket": 8155,
      "ĠInxmm": 8156,
      "Ġ72": 8157,
      "Ġsimpl": 8158,
      "Ġhurts": 8159,
      "Ġfilms": 8160,
      "Ġmessages": 8161,
      "Ġsudden": 8162,
      "ĠLicense": 8163,
      "Mama": 8164,
      "Update": 8165,
      "bu": 8166,
      "Ġtip": 8167,
      "ĠSearch": 8168,
      "ĠMur": 8169,
      "Ġalarm": 8170,
      "ĠPoint": 8171,
      "Ġ((": 8172,
      "ĠResp": 8173,
      "istent": 8174,
      "Ġlaid": 8175,
      "Ġcoins": 8176,
      "ĠAndroid": 8177,
      "nergy": 8178,
      "Ġrestore": 8179,
      "Ġfacts": 8180,
      "iece": 8181,
      "Another": 8182,
      "Ġaffordable": 8183,
      "Ġaccurate": 8184,
      "Ġguarantee": 8185,
      "Ġcries": 8186,
      "alian": 8187,
      "ĠTen": 8188,
      "ĠMum": 8189,
      "andon": 8190,
      "ĠJac": 8191,
      "Ġrecall": 8192,
      "Ġlazy": 8193,
      "Ġboot": 8194,
      "issors": 8195,
      "Ġextended": 8196,
      "Ġapproved": 8197,
      "Ġaffili": 8198,
      "ĠCentre": 8199,
      "ENDC": 8200,
      "working": 8201,
      "GA": 8202,
      "Many": 8203,
      "ĠTony": 8204,
      "ĠCast": 8205,
      "umin": 8206,
      "this": 8207,
      "Ġmere": 8208,
      "Ġeveryday": 8209,
      "Ġbitter": 8210,
      "Ġmagn": 8211,
      "Ġmessy": 8212,
      "Ġpurchased": 8213,
      "clusion": 8214,
      "Ġawareness": 8215,
      "Ġflavor": 8216,
      "Ġruined": 8217,
      "ĠGovernment": 8218,
      "NO": 8219,
      "Pre": 8220,
      "SO": 8221,
      "ml": 8222,
      "Ġtear": 8223,
      "Ġbin": 8224,
      "icious": 8225,
      "ĠHT": 8226,
      "ĠMobile": 8227,
      "tering": 8228,
      "abs": 8229,
      "ĠRights": 8230,
      "ĠEp": 8231,
      "Ġdishes": 8232,
      "Ġstruggle": 8233,
      "REE": 8234,
      "Ġregional": 8235,
      "State": 8236,
      "ITY": 8237,
      "Ġwheels": 8238,
      "Ġelev": 8239,
      "ĠRepublican": 8240,
      "Ġmurder": 8241,
      "Ġresearchers": 8242,
      "date": 8243,
      "west": 8244,
      "Ġpure": 8245,
      "Ġgam": 8246,
      "stone": 8247,
      "ĠMen": 8248,
      "ĠBaby": 8249,
      "ushes": 8250,
      "resents": 8251,
      "ĠRoom": 8252,
      "ĠGive": 8253,
      "Ġcomprehensive": 8254,
      "Ġresident": 8255,
      "Ġ74": 8256,
      "Ġcommission": 8257,
      "Ġpresc": 8258,
      "Ġmarked": 8259,
      "IGN": 8260,
      "claimed": 8261,
      "ĠLouis": 8262,
      "Ġgiggled": 8263,
      "Mr": 8264,
      "bi": 8265,
      "Ġsan": 8266,
      "owed": 8267,
      "ĠĠĠĠĠĠĠĠĠĠĠĠčĊ": 8268,
      "ĠNumber": 8269,
      "ects": 8270,
      "Ġworst": 8271,
      "Ġmeadow": 8272,
      "Ġweren": 8273,
      "ibilities": 8274,
      "Ġunable": 8275,
      "Ġpresents": 8276,
      "plete": 8277,
      "gypt": 8278,
      "Ġfactor": 8279,
      "Ġtested": 8280,
      "Ġfalling": 8281,
      "Ġbarked": 8282,
      "ĠReport": 8283,
      "ealous": 8284,
      "Ġtowel": 8285,
      "Ġloans": 8286,
      "Ġroute": 8287,
      "Ġmassive": 8288,
      "Ġfolks": 8289,
      "Ġsighed": 8290,
      "Ġbark": 8291,
      "Ġlaptop": 8292,
      "owing": 8293,
      "ĠBh": 8294,
      "Ġshake": 8295,
      "Ġvul": 8296,
      "Ġscissors": 8297,
      "Ġgoods": 8298,
      "Ġmighty": 8299,
      "Ġauthority": 8300,
      "ĠPersonal": 8301,
      "101": 8302,
      "BE": 8303,
      "doc": 8304,
      "mode": 8305,
      "Ġtub": 8306,
      "Ġtunnel": 8307,
      "esh": 8308,
      "Ġnurs": 8309,
      "ĠBoston": 8310,
      "Ġsole": 8311,
      "ĠOil": 8312,
      "Ġscript": 8313,
      "Ġenvelop": 8314,
      "Ġroar": 8315,
      "Ġcompens": 8316,
      "ĠStyle": 8317,
      "150": 8318,
      "Ġedition": 8319,
      "Ġyounger": 8320,
      "Ġfundament": 8321,
      "Although": 8322,
      "Ġcups": 8323,
      "Ġsailed": 8324,
      "ĠIntel": 8325,
      "Ġsuspect": 8326,
      "Ġmuscle": 8327,
      "Ġsuitable": 8328,
      "Ġassessment": 8329,
      "sembly": 8330,
      "ĠCanadian": 8331,
      ":||": 8332,
      "BIT": 8333,
      "RI": 8334,
      "lines": 8335,
      "math": 8336,
      "mosp": 8337,
      "xa": 8338,
      "ÑĢ": 8339,
      "Ġbaking": 8340,
      "Ġpit": 8341,
      "Ġhats": 8342,
      "idays": 8343,
      "ĠMult": 8344,
      "Ġ101": 8345,
      "ĠWatch": 8346,
      "Ġshock": 8347,
      "Ġworldwide": 8348,
      "Ġnods": 8349,
      "Ġfulf": 8350,
      "ba": 8351,
      "heart": 8352,
      "Ġbake": 8353,
      "ĠTeddy": 8354,
      "ownt": 8355,
      "Ġupcoming": 8356,
      "Ġ($": 8357,
      "eller": 8358,
      "Ġhasn": 8359,
      "Ġuniform": 8360,
      "ensity": 8361,
      "Ġcarbon": 8362,
      "ĠAnother": 8363,
      "Ġdrinking": 8364,
      "Ġheaded": 8365,
      "Ġmembership": 8366,
      "okes": 8367,
      "Ġdisplayed": 8368,
      "Ġordinary": 8369,
      "Ġreminded": 8370,
      "Ġpreferred": 8371,
      "Ġcandidates": 8372,
      "SIZE": 8373,
      "respond": 8374,
      "ĠVictor": 8375,
      "MO": 8376,
      "ja": 8377,
      "zard": 8378,
      "Ġdys": 8379,
      "ĠPrem": 8380,
      "ĠDI": 8381,
      "Ġexecut": 8382,
      "Ġguest": 8383,
      "ĠBlog": 8384,
      "Ġsuccessfully": 8385,
      "Ġoccup": 8386,
      "Ġbrothers": 8387,
      "Ġefficiency": 8388,
      "Ġfrequently": 8389,
      "Ġprinciples": 8390,
      "Ġcooper": 8391,
      "ĠMexico": 8392,
      "Ġsituations": 8393,
      "after": 8394,
      "Ġsle": 8395,
      "Ġpour": 8396,
      "Ġdates": 8397,
      "Ġlamp": 8398,
      "Ġyield": 8399,
      "Ġrein": 8400,
      "ĠBre": 8401,
      "Ġanch": 8402,
      "ĠWould": 8403,
      "ĠRyan": 8404,
      "apa": 8405,
      "Ġclown": 8406,
      "plus": 8407,
      "Ġenorm": 8408,
      "Ġtwe": 8409,
      "ĠView": 8410,
      "Ġimpossible": 8411,
      "Ġfluffy": 8412,
      "Ġrepresents": 8413,
      "ĠRev": 8414,
      "Ġcharged": 8415,
      "Ġ2021": 8416,
      "ĠCla": 8417,
      "Ġstands": 8418,
      "Ġeffectively": 8419,
      "Ġpositions": 8420,
      "Ġpercentage": 8421,
      "OUT": 8422,
      "Ġencouraged": 8423,
      "Ġkissed": 8424,
      "Ġsurrounding": 8425,
      "Ġrisks": 8426,
      "Ġentertainment": 8427,
      "Fi": 8428,
      "Hz": 8429,
      "LY": 8430,
      "Ob": 8431,
      "Per": 8432,
      "Table": 8433,
      "rection": 8434,
      "Ġhopping": 8435,
      "alle": 8436,
      "ĠAud": 8437,
      "Ġangel": 8438,
      "ĠWin": 8439,
      "ĠEqu": 8440,
      "ĠEND": 8441,
      "Ġspots": 8442,
      "Ġblind": 8443,
      "Ġdesired": 8444,
      "umpy": 8445,
      "Ġdistinct": 8446,
      "Ġprompt": 8447,
      "Ġtypical": 8448,
      "Ġconfirmed": 8449,
      "Ġwealthy": 8450,
      "Ġapparently": 8451,
      "Man": 8452,
      "bro": 8453,
      "first": 8454,
      "lpe": 8455,
      "lpb": 8456,
      "pill": 8457,
      "sec": 8458,
      "Ġtasks": 8459,
      "Ġbodies": 8460,
      "lete": 8461,
      "ĠMaster": 8462,
      "ĠLive": 8463,
      "ĠDave": 8464,
      "ĠDVD": 8465,
      "Ġjealous": 8466,
      "movdqa": 8467,
      "Ġcompassion": 8468,
      "ĠUt": 8469,
      "ailability": 8470,
      "Ġpean": 8471,
      "ishment": 8472,
      "letter": 8473,
      "Ġcleaned": 8474,
      "Ġfacing": 8475,
      "Ġanticip": 8476,
      "Ġdescription": 8477,
      "Ġgolden": 8478,
      "Ġlifted": 8479,
      "spe": 8480,
      "zed": 8481,
      "Ġske": 8482,
      "Ġmild": 8483,
      "aylor": 8484,
      "vell": 8485,
      "ĠLee": 8486,
      "ĠEgypt": 8487,
      "Ġcritic": 8488,
      "Ġremained": 8489,
      "Ġdram": 8490,
      "Ġhardware": 8491,
      "ĠSpirit": 8492,
      "Ġinterface": 8493,
      "Ġsupports": 8494,
      "Ġaccessible": 8495,
      "Ġelectronic": 8496,
      "Ġrolling": 8497,
      "Ġexpectations": 8498,
      "Ġpremium": 8499,
      "Ġgraduate": 8500,
      "rid": 8501,
      "Ġfib": 8502,
      "Ġpand": 8503,
      "sters": 8504,
      "ĠIP": 8505,
      "else": 8506,
      "ĠHenry": 8507,
      "ĠAP": 8508,
      "Ġrac": 8509,
      "Ġ300": 8510,
      "Ġseats": 8511,
      "ĠNick": 8512,
      "ĠOper": 8513,
      "Ġscored": 8514,
      "ĠThrough": 8515,
      "Ġprince": 8516,
      "comm": 8517,
      "SEG": 8518,
      "Ġcapable": 8519,
      "Ġcuts": 8520,
      "Ġwarned": 8521,
      "Ġtrading": 8522,
      "Ġreasonable": 8523,
      "ĠMinister": 8524,
      "Ġcasino": 8525,
      "Ġconvenient": 8526,
      "cur": 8527,
      "spr": 8528,
      "then": 8529,
      "Ġ??_": 8530,
      "edy": 8531,
      "Ġstairs": 8532,
      "Ġshield": 8533,
      "ĠFed": 8534,
      "ĠField": 8535,
      "ĠEar": 8536,
      "ockey": 8537,
      "Ġoutdoor": 8538,
      "owned": 8539,
      "ĠVERA": 8540,
      "Ġtransition": 8541,
      "Ġcircles": 8542,
      "ĠAcademy": 8543,
      "ran": 8544,
      "Ġsin": 8545,
      "ingu": 8546,
      "ĠRight": 8547,
      "oding": 8548,
      "Ġ400": 8549,
      "ĠKe": 8550,
      "?\".": 8551,
      "Ġadds": 8552,
      "Ġcommittee": 8553,
      "Ġdirected": 8554,
      "Ġreplaced": 8555,
      "Ġmeetings": 8556,
      "ĠMaria": 8557,
      "Ġsweetie": 8558,
      "Ġsignificantly": 8559,
      "Ġcapture": 8560,
      "ĠWilliams": 8561,
      "hetic": 8562,
      "ĠGerman": 8563,
      "De": 8564,
      "RL": 8565,
      "message": 8566,
      "Ġsorts": 8567,
      "Ġber": 8568,
      "Ġfier": 8569,
      "Ġmel": 8570,
      "ĠSnow": 8571,
      "stream": 8572,
      "Ġreject": 8573,
      "Ġstreets": 8574,
      "uls": 8575,
      "Ġ180": 8576,
      "Ġexec": 8577,
      "ĠJones": 8578,
      "izard": 8579,
      "ailed": 8580,
      "Ġreserved": 8581,
      "ulture": 8582,
      "erves": 8583,
      "Ġflags": 8584,
      "Ġ66": 8585,
      "Ġreturning": 8586,
      "Ġsounded": 8587,
      "ĠLeo": 8588,
      "Ġapartment": 8589,
      "Ġfitness": 8590,
      "Ġdiscussed": 8591,
      "Ġfigures": 8592,
      "(*$": 8593,
      "Ġmusical": 8594,
      "Ġrestaurants": 8595,
      "================================": 8596,
      "keeper": 8597,
      "Date": 8598,
      "EA": 8599,
      "ipt": 8600,
      "uin": 8601,
      "Ġ**": 8602,
      "Ġbicy": 8603,
      "Ġpale": 8604,
      "ĠMot": 8605,
      "Ġaside": 8606,
      "usting": 8607,
      "Ġchapter": 8608,
      "ĠOpt": 8609,
      "uces": 8610,
      "next": 8611,
      "Ġattach": 8612,
      "ifications": 8613,
      "Ġpossibility": 8614,
      "Ġsizeof": 8615,
      "ECT": 8616,
      "Ġproposal": 8617,
      "ĠAuthor": 8618,
      "ĠReturn": 8619,
      "ixture": 8620,
      "ĠSpring": 8621,
      "oppy": 8622,
      "Ġinstrument": 8623,
      "Ġdatabase": 8624,
      "BO": 8625,
      "Em": 8626,
      "dis": 8627,
      "gener": 8628,
      "page": 8629,
      "rm": 8630,
      "tain": 8631,
      "ua": 8632,
      "ype": 8633,
      "zing": 8634,
      "Â°": 8635,
      "Ġicon": 8636,
      "utch": 8637,
      "Ġsoph": 8638,
      "Ġvital": 8639,
      "Ġchase": 8640,
      "Ġclay": 8641,
      "Ġdisag": 8642,
      "Ġcarpet": 8643,
      "Ġmovdqu": 8644,
      "Ġgotten": 8645,
      "Ġrelative": 8646,
      "Joe": 8647,
      "Ġpressed": 8648,
      "Ġdelicate": 8649,
      "ĠEnvironment": 8650,
      "Ġparticipants": 8651,
      "Ġmistakes": 8652,
      "Ġdegrees": 8653,
      "Ġburning": 8654,
      "ĠPete": 8655,
      "ĠEngineering": 8656,
      "Ġlandscape": 8657,
      "ĠPacific": 8658,
      "sen": 8659,
      "Ġille": 8660,
      "inent": 8661,
      "rete": 8662,
      "Ġmummy": 8663,
      "ania": 8664,
      "ĠTurn": 8665,
      "adel": 8666,
      "Ġatmosp": 8667,
      "Ġintr": 8668,
      "movq": 8669,
      "movdqu": 8670,
      "Ġscrew": 8671,
      "ĠKent": 8672,
      "Ġreprod": 8673,
      "Ġtalks": 8674,
      "250": 8675,
      "Ġbreaking": 8676,
      "Ġperforming": 8677,
      "evin": 8678,
      "Ġdeeper": 8679,
      "fortable": 8680,
      "ĠMichigan": 8681,
      "write": 8682,
      "Ġathlet": 8683,
      "RC": 8684,
      "Set": 8685,
      "Ġ)": 8686,
      "Ġwishes": 8687,
      "itage": 8688,
      "Ġpa": 8689,
      "esides": 8690,
      "asant": 8691,
      "ĠSanta": 8692,
      "Ġumb": 8693,
      "Ġseal": 8694,
      "Ġdeals": 8695,
      "ressed": 8696,
      "ĠKey": 8697,
      "Ġshower": 8698,
      "Ġbooking": 8699,
      "Ġoppon": 8700,
      "Ġdealing": 8701,
      "ĠCoast": 8702,
      "Ġpenny": 8703,
      "Ġfolder": 8704,
      "Ġmoist": 8705,
      "Ġnormally": 8706,
      "igenous": 8707,
      "URE": 8708,
      "greg": 8709,
      "ih": 8710,
      "inch": 8711,
      "ican": 8712,
      "ĠSite": 8713,
      "ĠSaf": 8714,
      "ĠCir": 8715,
      "ĠBas": 8716,
      "ĠBrian": 8717,
      "ĠLLC": 8718,
      "ĠPen": 8719,
      "Ġneither": 8720,
      "essert": 8721,
      "redit": 8722,
      "Ġknight": 8723,
      "Ġbrace": 8724,
      "oby": 8725,
      "Ġapps": 8726,
      "Ġexcess": 8727,
      "Ġcounted": 8728,
      "ĠDean": 8729,
      "Ġneighbour": 8730,
      "Ġconducted": 8731,
      "Ġachieved": 8732,
      "Ġcolourful": 8733,
      "ĠRichard": 8734,
      "Ġfeathers": 8735,
      "Ġenormous": 8736,
      "RS": 8737,
      "SM": 8738,
      "Wr": 8739,
      "rl": 8740,
      "yp": 8741,
      "erning": 8742,
      "Ġtooth": 8743,
      "Ġmg": 8744,
      "arge": 8745,
      "ĠSO": 8746,
      "iginal": 8747,
      "ĠCopyright": 8748,
      "ĠLine": 8749,
      "ĠLtd": 8750,
      "ĠDid": 8751,
      "Ġsegment": 8752,
      "ocated": 8753,
      "Ġ47": 8754,
      "Ġ06": 8755,
      "Ġrod": 8756,
      "Ġresolution": 8757,
      "Ġattached": 8758,
      "Ġstudio": 8759,
      "Ġcommunications": 8760,
      "Ġcorrespond": 8761,
      "Ġtrem": 8762,
      "Ġresulting": 8763,
      "Ġairport": 8764,
      "iki": 8765,
      "Ġimmediate": 8766,
      "ĠAgain": 8767,
      "Ġbasketball": 8768,
      "Ġhanging": 8769,
      "Ġfoolish": 8770,
      "ĠFrancisco": 8771,
      ")]": 8772,
      "Jill": 8773,
      "Rep": 8774,
      "Sm": 8775,
      "bar": 8776,
      "Ġoword": 8777,
      "Ġcush": 8778,
      "Ġlaser": 8779,
      "ĠTech": 8780,
      "Ġease": 8781,
      "eting": 8782,
      "imer": 8783,
      "ĠCook": 8784,
      "emo": 8785,
      "ĠRon": 8786,
      "ĠEX": 8787,
      "onduct": 8788,
      "Ġacts": 8789,
      "Ġ1999": 8790,
      "Ġsurre": 8791,
      "undry": 8792,
      "otten": 8793,
      "Ġinterrupt": 8794,
      "AND": 8795,
      "Ġorganic": 8796,
      "Ġzip": 8797,
      "Ġexplored": 8798,
      "Ġwheat": 8799,
      "ĠSmall": 8800,
      "Ġsensor": 8801,
      "Ġnegot": 8802,
      "Ġpredict": 8803,
      "Ġscratch": 8804,
      "Jimmy": 8805,
      "Ġbonus": 8806,
      "Bu": 8807,
      "Pe": 8808,
      "prepare": 8809,
      "hett": 8810,
      "reate": 8811,
      "ĠTri": 8812,
      "ĠSave": 8813,
      "irms": 8814,
      "ĠCath": 8815,
      "ĠMah": 8816,
      "ĠBush": 8817,
      "Ġsew": 8818,
      "class": 8819,
      "Ġtwirl": 8820,
      "ĠVideo": 8821,
      "athan": 8822,
      "Ġincident": 8823,
      "Ġfright": 8824,
      "Ġsupplies": 8825,
      "Ġbites": 8826,
      "Ġdepth": 8827,
      "Ġstored": 8828,
      "ĠĠĠĠĠĠĠĠĠĠĠĠĠĠĠĠĠĠĠĠĠĠĠĠĠĠĠ": 8829,
      "Ġsurprising": 8830,
      "Ġdrops": 8831,
      "ĠColumb": 8832,
      "Ġcontrols": 8833,
      "Ġdivision": 8834,
      "Ġdefinition": 8835,
      "Ġinnovative": 8836,
      "Ġintelligent": 8837,
      "ocoa": 8838,
      "Generic": 8839,
      "Ġcaterpill": 8840,
      "Loop": 8841,
      "Ġtire": 8842,
      "Ġbunch": 8843,
      "isdom": 8844,
      "Ġdump": 8845,
      "Ġinventory": 8846,
      "ĠSU": 8847,
      "ĠSn": 8848,
      "emic": 8849,
      "endmacro": 8850,
      "aped": 8851,
      "ubble": 8852,
      "Ġunp": 8853,
      "ushroom": 8854,
      "Ġskipped": 8855,
      "Ġexposure": 8856,
      "enced": 8857,
      "Ġrealised": 8858,
      "Ġdrank": 8859,
      "Ġhearts": 8860,
      "Ġhung": 8861,
      "ĠControl": 8862,
      "Also": 8863,
      "Ġstrip": 8864,
      "Ġbroadcast": 8865,
      "Ġhistorical": 8866,
      "ĠSusie": 8867,
      "Ġcriminal": 8868,
      "VE": 8869,
      "Wor": 8870,
      "bing": 8871,
      "mary": 8872,
      "Ġpenc": 8873,
      "asters": 8874,
      "Ġthorough": 8875,
      "ĠColl": 8876,
      "ĠMain": 8877,
      "ĠBal": 8878,
      "ĠLin": 8879,
      "ĠWhether": 8880,
      "ĠFile": 8881,
      "Ġoutstanding": 8882,
      "ĠOS": 8883,
      "away": 8884,
      "ĠEverything": 8885,
      "Ġweekly": 8886,
      "Ġbreaks": 8887,
      "Ġfeatured": 8888,
      "Ġinvolve": 8889,
      "Ġobserved": 8890,
      "Ġhttps": 8891,
      "aduate": 8892,
      "%%%%%%%%%%%%%%%%%%%%%%%%%%%%%%%%%%%%%%%%%%%%%%%%%%%%%%%%%%%%%%%%": 8893,
      "ĠGermany": 8894,
      "Ġreferred": 8895,
      "ĠRadio": 8896,
      "Ġwriters": 8897,
      "During": 8898,
      "mond": 8899,
      "sk": 8900,
      "vol": 8901,
      "Ġtheater": 8902,
      "Ġdull": 8903,
      "ĠTax": 8904,
      "ĠTown": 8905,
      "Ġerect": 8906,
      "stal": 8907,
      "ĠHE": 8908,
      "ĠHead": 8909,
      "ĠFriend": 8910,
      "ĠFestival": 8911,
      "Ġkicked": 8912,
      "Ġvast": 8913,
      "osoph": 8914,
      "ĠGames": 8915,
      "Ġscare": 8916,
      "ĠVer": 8917,
      "Ġhanded": 8918,
      "Ġserves": 8919,
      "Ġextent": 8920,
      "Ġreporting": 8921,
      "Ġfactory": 8922,
      "Ġelectrical": 8923,
      "Ġconcert": 8924,
      "Ġwarning": 8925,
      "THAT": 8926,
      "ĠSecurity": 8927,
      "pdated": 8928,
      "Ġepisode": 8929,
      "ĠMarketing": 8930,
      "Ġconstantly": 8931,
      "Ġchoosing": 8932,
      "Ġenvelope": 8933,
      "\");": 8934,
      "Fd": 8935,
      "GC": 8936,
      "Ġtoast": 8937,
      "ester": 8938,
      "Ġhors": 8939,
      "Ġdrawn": 8940,
      "Ġgroc": 8941,
      "Ġhed": 8942,
      "acles": 8943,
      "urous": 8944,
      "ĠLO": 8945,
      "Ġdose": 8946,
      "aret": 8947,
      "aste": 8948,
      "hings": 8949,
      "Ġbrands": 8950,
      "Ġpee": 8951,
      "Ġcoast": 8952,
      "Ġregulations": 8953,
      "Ġkindness": 8954,
      "itches": 8955,
      "Ġstatue": 8956,
      "ĠManager": 8957,
      "ĠContact": 8958,
      "Ġsplashed": 8959,
      "Ġnuts": 8960,
      "Ġintegrated": 8961,
      "CONST": 8962,
      "Ġcooked": 8963,
      "Ġbuffer": 8964,
      "789": 8965,
      "PU": 8966,
      "PORT": 8967,
      "bour": 8968,
      "faulty": 8969,
      "init": 8970,
      "info": 8971,
      "Ġwing": 8972,
      "Ġwagon": 8973,
      "Ġpace": 8974,
      "icians": 8975,
      "Ġgig": 8976,
      "Ġstro": 8977,
      "ĠWi": 8978,
      "ĠRo": 8979,
      "ĠEnergy": 8980,
      "Ġ09": 8981,
      "Ġdism": 8982,
      "iously": 8983,
      "Ġrecipes": 8984,
      "Ġmova": 8985,
      "ĠSports": 8986,
      "ĠBrad": 8987,
      "Ġtopics": 8988,
      "Ġharsh": 8989,
      "Ġtoilet": 8990,
      "Amy": 8991,
      "Comm": 8992,
      "Find": 8993,
      "Gu": 8994,
      "Note": 8995,
      "best": 8996,
      "cor": 8997,
      "ipper": 8998,
      "tics": 8999,
      "Ġtube": 9000,
      "Ġbab": 9001,
      "anes": 9002,
      "Ġdiverse": 9003,
      "alog": 9004,
      "level": 9005,
      "Ġeast": 9006,
      "etime": 9007,
      "Ġrenew": 9008,
      "ĠAL": 9009,
      "ĠBat": 9010,
      "ĠFact": 9011,
      "Ġexceed": 9012,
      "istan": 9013,
      "odd": 9014,
      "Ġintent": 9015,
      "icking": 9016,
      "Ġnobody": 9017,
      "Ġgrumpy": 9018,
      "Ġuncle": 9019,
      "Ġrank": 9020,
      "Ġskill": 9021,
      "ĠAdam": 9022,
      "Ġcreatures": 9023,
      "thew": 9024,
      "Ġmanagers": 9025,
      "Ġopposite": 9026,
      "Ġoriginally": 9027,
      "Ġdomestic": 9028,
      "cycle": 9029,
      "Ġexpression": 9030,
      "Ġbanana": 9031,
      "ĠSTATE": 9032,
      "flower": 9033,
      "Ġpillow": 9034,
      "SEGMENT": 9035,
      "Best": 9036,
      "NC": 9037,
      "fig": 9038,
      "sd": 9039,
      "Ġtheory": 9040,
      "Ġbh": 9041,
      "Ġcos": 9042,
      "Ġlect": 9043,
      "Ġhes": 9044,
      "ĠSup": 9045,
      "Ġstom": 9046,
      "ĠLow": 9047,
      "chr": 9048,
      "ĠFederal": 9049,
      "ĠNote": 9050,
      "Ġleather": 9051,
      "onym": 9052,
      "value": 9053,
      "ĠDaily": 9054,
      "glass": 9055,
      "Ġpersons": 9056,
      "Ġlinked": 9057,
      "Ġoccurred": 9058,
      "looking": 9059,
      "Posted": 9060,
      "ĠDivision": 9061,
      "Ġcaterpillar": 9062,
      "600": 9063,
      "Mar": 9064,
      "bc": 9065,
      "cons": 9066,
      "lights": 9067,
      "va": 9068,
      "Ġtech": 9069,
      "Ġdual": 9070,
      "idi": 9071,
      "verty": 9072,
      "ĠBon": 9073,
      "ifies": 9074,
      "ector": 9075,
      "uclear": 9076,
      "yscall": 9077,
      "Ġstruck": 9078,
      "Ġsword": 9079,
      "Ġdifferences": 9080,
      "Ġlets": 9081,
      "Ġslipped": 9082,
      "ounce": 9083,
      "Ġapproval": 9084,
      "ĠScot": 9085,
      "Ġoperate": 9086,
      "Ġtrusted": 9087,
      "ĠArea": 9088,
      "Ġsuffering": 9089,
      "Ġspiritual": 9090,
      "Frame": 9091,
      "Ġdestroyed": 9092,
      "364": 9093,
      "Back": 9094,
      "core": 9095,
      "pres": 9096,
      "yers": 9097,
      "Ġobed": 9098,
      "Ġcaut": 9099,
      "ouston": 9100,
      "Ġloving": 9101,
      "Ġstim": 9102,
      "ĠDie": 9103,
      "Ġages": 9104,
      "Ġpoverty": 9105,
      "Ġthoughtful": 9106,
      "Ġregul": 9107,
      "Ġrefr": 9108,
      "Ġtransaction": 9109,
      "Ġtransactions": 9110,
      "ĠTherefore": 9111,
      "Ġdepos": 9112,
      "Ġpayments": 9113,
      "Ġpotentially": 9114,
      "words": 9115,
      "Ġfeaturing": 9116,
      "Ġbatter": 9117,
      "Ġcycl": 9118,
      "Ġbelonged": 9119,
      "Ġdependable": 9120,
      "Ġmillions": 9121,
      "Err": 9122,
      "Ġstruggling": 9123,
      "ĠCharlie": 9124,
      "Ġdiamond": 9125,
      "Ġdoctors": 9126,
      "Mummy": 9127,
      "cal": 9128,
      "whel": 9129,
      "wMusic": 9130,
      "Ġwagged": 9131,
      "Ġpul": 9132,
      "Ġnative": 9133,
      "Ġwashed": 9134,
      "ira": 9135,
      "irts": 9136,
      "ĠMic": 9137,
      "ĠBG": 9138,
      "Ġrib": 9139,
      "http": 9140,
      "ĠJun": 9141,
      "ĠItalian": 9142,
      "Ġusage": 9143,
      "Ġ76": 9144,
      "iana": 9145,
      "Ġcounting": 9146,
      "Ġreplacement": 9147,
      "aturally": 9148,
      "Ġmagnet": 9149,
      "Ġadventurous": 9150,
      "Ġemployment": 9151,
      "Trans": 9152,
      "Ġcelebrated": 9153,
      "Ġsettle": 9154,
      "Ġcontribute": 9155,
      "Ġmanufacturing": 9156,
      "ĠPriv": 9157,
      "Ġappointment": 9158,
      "Ġeligible": 9159,
      "IE": 9160,
      "Welcome": 9161,
      "found": 9162,
      "iro": 9163,
      "length": 9164,
      "Ġbid": 9165,
      "Ġdolph": 9166,
      "omed": 9167,
      "ĠnG": 9168,
      "Ġrul": 9169,
      "Ġshade": 9170,
      "Ġsheet": 9171,
      "Ġstranger": 9172,
      "ventional": 9173,
      "ĠBlood": 9174,
      "Ġtechnique": 9175,
      "Ġmanaging": 9176,
      "Ġfaced": 9177,
      "Class": 9178,
      "Ġcaptain": 9179,
      "Ġexclusive": 9180,
      "Ġuncomfortable": 9181,
      "Did": 9182,
      "Feb": 9183,
      "Have": 9184,
      "Ġfo": 9185,
      "Ġnarrow": 9186,
      "ĠSa": 9187,
      "sem": 9188,
      "âĢĻ.": 9189,
      "ĠJr": 9190,
      "Ġadc": 9191,
      "Ġintel": 9192,
      "Ġrescue": 9193,
      "Ġneedle": 9194,
      "Ġlaundry": 9195,
      "Ġattrib": 9196,
      "REPM": 9197,
      "Ġsubsequ": 9198,
      "768": 9199,
      "Ġfacilit": 9200,
      "2012": 9201,
      "ĠSelect": 9202,
      "ĠWorks": 9203,
      "color": 9204,
      "Ġroads": 9205,
      "Ġdistributed": 9206,
      "Ġobtained": 9207,
      "Ġcategories": 9208,
      "Ġhistoric": 9209,
      "Ġbounce": 9210,
      "Ġestimated": 9211,
      "American": 9212,
      ",'": 9213,
      "616": 9214,
      "Mark": 9215,
      "ta": 9216,
      "walk": 9217,
      "Ġdil": 9218,
      "ĠTaylor": 9219,
      "lyn": 9220,
      "ĠRex": 9221,
      "usted": 9222,
      "ĠGall": 9223,
      "Ġwanting": 9224,
      "Ġdecade": 9225,
      "Ġnowhere": 9226,
      "Ġpolitics": 9227,
      "Ġrefund": 9228,
      "Ġjoining": 9229,
      "Ġdebate": 9230,
      "Ġsoldiers": 9231,
      "Ġvoters": 9232,
      "ĠJoseph": 9233,
      "Ġmonitoring": 9234,
      "GenericError": 9235,
      "IZ": 9236,
      "Sue": 9237,
      "USE": 9238,
      "eon": 9239,
      "eration": 9240,
      "Ġnarr": 9241,
      "ĠCross": 9242,
      "Ġrum": 9243,
      "Ġrushed": 9244,
      "units": 9245,
      "Ġcone": 9246,
      "Ġgoat": 9247,
      "ipal": 9248,
      "ĠThus": 9249,
      "anged": 9250,
      "203": 9251,
      "Ġminim": 9252,
      "Ġinteract": 9253,
      "conv": 9254,
      "Ġcapabilities": 9255,
      "Ġphotograp": 9256,
      "Ġdining": 9257,
      "Ġholes": 9258,
      "Ġsuffer": 9259,
      "holders": 9260,
      "Ġcrawled": 9261,
      "Ġcontemporary": 9262,
      "Ġpermanent": 9263,
      "Ġexpansion": 9264,
      "Ġdinosaur": 9265,
      "DP": 9266,
      "iological": 9267,
      "nl": 9268,
      "pck": 9269,
      "Ġwool": 9270,
      "Ġbanks": 9271,
      "itled": 9272,
      "asures": 9273,
      "Ġlung": 9274,
      "etic": 9275,
      "ĠHolly": 9276,
      "ĠAri": 9277,
      "ĠAction": 9278,
      "ĠDate": 9279,
      "opard": 9280,
      "Ġshine": 9281,
      "ĠFair": 9282,
      "Ġproof": 9283,
      "Ġconclud": 9284,
      "Ġconio": 9285,
      "Ġmoms": 9286,
      "Ġsmelly": 9287,
      "Ġroles": 9288,
      "erving": 9289,
      "Ġpole": 9290,
      "Ġ<=": 9291,
      "OVID": 9292,
      "ĠConnect": 9293,
      "Ġfallen": 9294,
      "Ġcausing": 9295,
      "Ġmeasured": 9296,
      "hyth": 9297,
      "Ġatmosphere": 9298,
      "mates": 9299,
      "post": 9300,
      "Ġpear": 9301,
      "Ġdessert": 9302,
      "Ġgender": 9303,
      "Ġrear": 9304,
      "ura": 9305,
      "ĠPack": 9306,
      "ĠPenn": 9307,
      "ĠFar": 9308,
      "Ġjelly": 9309,
      "ucked": 9310,
      "Ġ56": 9311,
      "Ġscan": 9312,
      "ava": 9313,
      "Ġtwenty": 9314,
      "Ġ67": 9315,
      "Ġembr": 9316,
      "weet": 9317,
      "Ġexplan": 9318,
      "ĠSpace": 9319,
      "Ġdeploy": 9320,
      "Ġadvis": 9321,
      "reprene": 9322,
      "Ġinitiative": 9323,
      "Ġscholar": 9324,
      "Ġvulner": 9325,
      "BD": 9326,
      "Def": 9327,
      "malloc": 9328,
      "Ġsessions": 9329,
      "iti": 9330,
      "enger": 9331,
      "ĠCert": 9332,
      "Ġangle": 9333,
      "endment": 9334,
      "orted": 9335,
      "ĠItaly": 9336,
      "ĠYoung": 9337,
      "ĠViet": 9338,
      "ĠChampionship": 9339,
      "pered": 9340,
      "Ġphr": 9341,
      "Ġtrips": 9342,
      "ĠZeal": 9343,
      "annels": 9344,
      "Ġgrandpa": 9345,
      "Ġdeeply": 9346,
      "symbol": 9347,
      "ĠMedicine": 9348,
      "Ġturkey": 9349,
      "Ġlifestyle": 9350,
      "front": 9351,
      "ĠTweety": 9352,
      "ĠOhio": 9353,
      "bre": 9354,
      "days": 9355,
      "gage": 9356,
      "link": 9357,
      "itable": 9358,
      "Ġdive": 9359,
      "Ġdough": 9360,
      "Ġghost": 9361,
      "ĠSEO": 9362,
      "uting": 9363,
      "Ġstable": 9364,
      "ĠHa": 9365,
      "chair": 9366,
      "Ġexha": 9367,
      "Ġvibr": 9368,
      "quir": 9369,
      "ĠEver": 9370,
      "ials": 9371,
      "Ġtrains": 9372,
      "obs": 9373,
      "Ġprepar": 9374,
      "Ġdiscipl": 9375,
      "Ġmedication": 9376,
      "Ġgenerated": 9377,
      "Ġbarrel": 9378,
      "Ġparade": 9379,
      "(\"_": 9380,
      "Ġvictim": 9381,
      "ĠUsing": 9382,
      "Ġconsistent": 9383,
      "Ġceiling": 9384,
      "PROC": 9385,
      "Guitar": 9386,
      "LT": 9387,
      "dro": 9388,
      "gor": 9389,
      "py": 9390,
      "ÑĤ": 9391,
      "Ġtong": 9392,
      "Ġpup": 9393,
      "anish": 9394,
      "iches": 9395,
      "Ġebp": 9396,
      "ĠBoy": 9397,
      "ĠPA": 9398,
      "ĠPop": 9399,
      "Ġsofa": 9400,
[...]
